{
  "version": "1.0",
  "truncation": null,
  "padding": null,
  "added_tokens": [
    {
      "id": 0,
      "content": "<pad>",
      "single_word": false,
      "lstrip": false,
      "rstrip": false,
      "normalized": false,
      "special": true
    },
    {
      "id": 1,
      "content": "<bos>",
      "single_word": false,
      "lstrip": false,
      "rstrip": false,
      "normalized": false,
      "special": true
    },
    {
      "id": 2,
      "content": "<eos>",
      "single_word": false,
      "lstrip": false,
      "rstrip": false,
      "normalized": false,
      "special": true
    },
    {
      "id": 3,
      "content": "<unk>",
      "single_word": false,
      "lstrip": false,
      "rstrip": false,
      "normalized": false,
      "special": true
    }
  ],
  "normalizer": {
    "type": "Sequence",
    "normalizers": [
      {
        "type": "NFKC"
      }
    ]
  },
  "pre_tokenizer": {
    "type": "ByteLevel",
    "add_prefix_space": false,
    "trim_offsets": true,
    "use_regex": true
  },
  "post_processor": {
    "type": "TemplateProcessing",
    "single": [
      {
        "SpecialToken": {
          "id": "<bos>",
          "type_id": 0
        }
      },
      {
        "Sequence": {
          "id": "A",
          "type_id": 0
        }
      },
      {
        "SpecialToken": {
          "id": "<eos>",
          "type_id": 0
        }
      }
    ],
    "pair": [
      {
        "Sequence": {
          "id": "A",
          "type_id": 0
        }
      },
      {
        "Sequence": {
          "id": "B",
          "type_id": 1
        }
      }
    ],
    "special_tokens": {
      "<bos>": {
        "id": "<bos>",
        "ids": [
          1
        ],
        "tokens": [
          "<bos>"
        ]
      },
      "<eos>": {
        "id": "<eos>",
        "ids": [
          2
        ],
        "tokens": [
          "<eos>"
        ]
      }
    }
  },
  "decoder": {
    "type": "ByteLevel",
    "add_prefix_space": true,
    "trim_offsets": true,
    "use_regex": true
  },
  "model": {
    "type": "BPE",
    "dropout": null,
    "unk_token": "<unk>",
    "continuing_subword_prefix": null,
    "end_of_word_suffix": null,
    "fuse_unk": false,
    "byte_fallback": false,
    "ignore_merges": false,
    "vocab": {
      "<pad>": 0,
      "<bos>": 1,
      "<eos>": 2,
      "<unk>": 3,
      "!": 4,
      "\"": 5,
      "#": 6,
      "$": 7,
      "%": 8,
      "&": 9,
      "'": 10,
      "(": 11,
      ")": 12,
      "*": 13,
      "+": 14,
      ",": 15,
      "-": 16,
      ".": 17,
      "/": 18,
      "0": 19,
      "1": 20,
      "2": 21,
      "3": 22,
      "4": 23,
      "5": 24,
      "6": 25,
      "7": 26,
      "8": 27,
      "9": 28,
      ":": 29,
      ";": 30,
      "<": 31,
      "=": 32,
      ">": 33,
      "?": 34,
      "@": 35,
      "A": 36,
      "B": 37,
      "C": 38,
      "D": 39,
      "E": 40,
      "F": 41,
      "G": 42,
      "H": 43,
      "I": 44,
      "J": 45,
      "K": 46,
      "L": 47,
      "M": 48,
      "N": 49,
      "O": 50,
      "P": 51,
      "Q": 52,
      "R": 53,
      "S": 54,
      "T": 55,
      "U": 56,
      "V": 57,
      "W": 58,
      "X": 59,
      "Y": 60,
      "Z": 61,
      "[": 62,
      "\\": 63,
      "]": 64,
      "^": 65,
      "_": 66,
      "`": 67,
      "a": 68,
      "b": 69,
      "c": 70,
      "d": 71,
      "e": 72,
      "f": 73,
      "g": 74,
      "h": 75,
      "i": 76,
      "j": 77,
      "k": 78,
      "l": 79,
      "m": 80,
      "n": 81,
      "o": 82,
      "p": 83,
      "q": 84,
      "r": 85,
      "s": 86,
      "t": 87,
      "u": 88,
      "v": 89,
      "w": 90,
      "x": 91,
      "y": 92,
      "z": 93,
      "{": 94,
      "|": 95,
      "}": 96,
      "~": 97,
      "¡": 98,
      "¢": 99,
      "£": 100,
      "¤": 101,
      "¥": 102,
      "¦": 103,
      "§": 104,
      "¨": 105,
      "©": 106,
      "ª": 107,
      "«": 108,
      "¬": 109,
      "®": 110,
      "¯": 111,
      "°": 112,
      "±": 113,
      "²": 114,
      "³": 115,
      "´": 116,
      "µ": 117,
      "¶": 118,
      "·": 119,
      "¸": 120,
      "¹": 121,
      "º": 122,
      "»": 123,
      "¼": 124,
      "½": 125,
      "¾": 126,
      "¿": 127,
      "Â": 128,
      "Ã": 129,
      "Ä": 130,
      "Å": 131,
      "Æ": 132,
      "Ç": 133,
      "È": 134,
      "É": 135,
      "Ê": 136,
      "Ë": 137,
      "Ì": 138,
      "Í": 139,
      "Î": 140,
      "Ï": 141,
      "Ð": 142,
      "Ñ": 143,
      "Ò": 144,
      "Ó": 145,
      "Ô": 146,
      "Õ": 147,
      "Ö": 148,
      "×": 149,
      "Ø": 150,
      "Ù": 151,
      "Ú": 152,
      "Û": 153,
      "Ü": 154,
      "Ý": 155,
      "Þ": 156,
      "ß": 157,
      "à": 158,
      "á": 159,
      "â": 160,
      "ã": 161,
      "ä": 162,
      "å": 163,
      "æ": 164,
      "ç": 165,
      "è": 166,
      "é": 167,
      "ê": 168,
      "ë": 169,
      "ì": 170,
      "í": 171,
      "î": 172,
      "ï": 173,
      "ð": 174,
      "ñ": 175,
      "ò": 176,
      "ó": 177,
      "ô": 178,
      "ĉ": 179,
      "Ċ": 180,
      "Ġ": 181,
      "Ģ": 182,
      "ģ": 183,
      "Ĥ": 184,
      "ĥ": 185,
      "Ħ": 186,
      "ħ": 187,
      "Ĩ": 188,
      "ĩ": 189,
      "Ī": 190,
      "ī": 191,
      "Ĭ": 192,
      "ĭ": 193,
      "Į": 194,
      "į": 195,
      "İ": 196,
      "ı": 197,
      "Ĳ": 198,
      "ĳ": 199,
      "Ĵ": 200,
      "ĵ": 201,
      "Ķ": 202,
      "ķ": 203,
      "ĸ": 204,
      "Ĺ": 205,
      "ĺ": 206,
      "Ļ": 207,
      "ļ": 208,
      "Ľ": 209,
      "ľ": 210,
      "Ŀ": 211,
      "ŀ": 212,
      "Ł": 213,
      "ł": 214,
      "Ń": 215,
      "Ġt": 216,
      "Ġa": 217,
      "he": 218,
      "in": 219,
      "re": 220,
      "on": 221,
      "Ġthe": 222,
      "er": 223,
      "Ġs": 224,
      "at": 225,
      "Ġo": 226,
      "en": 227,
      "Ġw": 228,
      "Ġc": 229,
      "es": 230,
      "is": 231,
      "it": 232,
      "an": 233,
      "or": 234,
      "Ġp": 235,
      "ing": 236,
      "Ġb": 237,
      "Ġf": 238,
      "al": 239,
      "Ġan": 240,
      "ou": 241,
      "ed": 242,
      "Ġof": 243,
      "Ġm": 244,
      "ar": 245,
      "Ġin": 246,
      "Ġto": 247,
      "Ġd": 248,
      "Ġand": 249,
      "ion": 250,
      "ic": 251,
      "le": 252,
      "as": 253,
      "ro": 254,
      "Ġh": 255,
      "Ġth": 256,
      "ent": 257,
      "Ġe": 258,
      "ct": 259,
      "om": 260,
      "Ġl": 261,
      "Ġn": 262,
      "st": 263,
      "ve": 264,
      "Ġre": 265,
      "il": 266,
      "et": 267,
      "ly": 268,
      "Ġis": 269,
      "Ġg": 270,
      "ĠT": 271,
      "im": 272,
      "ot": 273,
      "ut": 274,
      "ĠI": 275,
      "id": 276,
      "ra": 277,
      "Ġbe": 278,
      "Ġy": 279,
      "se": 280,
      "ol": 281,
      "ow": 282,
      "âĢ": 283,
      "Ġ\\": 284,
      "ation": 285,
      "ce": 286,
      "ig": 287,
      "ĠS": 288,
      "Ġu": 289,
      "Ġfor": 290,
      "ĠA": 291,
      "Ġon": 292,
      "Ġthat": 293,
      "ch": 294,
      "ur": 295,
      "ver": 296,
      "ĠC": 297,
      "ay": 298,
      "Ġyou": 299,
      "Ġst": 300,
      "am": 301,
      "ad": 302,
      "ul": 303,
      "ir": 304,
      "el": 305,
      "ith": 306,
      "Ġ1": 307,
      "Ġit": 308,
      "if": 309,
      "Ġwith": 310,
      "Ġas": 311,
      "her": 312,
      "ĠM": 313,
      "Ġ(": 314,
      "Ġcon": 315,
      "Ġwh": 316,
      "Ġpro": 317,
      "ter": 318,
      "Ġal": 319,
      "ĠP": 320,
      "nd": 321,
      "Ġare": 322,
      "od": 323,
      "um": 324,
      "ge": 325,
      "qu": 326,
      "ĠThe": 327,
      "ate": 328,
      "ĠB": 329,
      "Ġ2": 330,
      "Ġde": 331,
      "Ġhe": 332,
      "ers": 333,
      "Ġor": 334,
      "ri": 335,
      "us": 336,
      "ke": 337,
      "ill": 338,
      "Ġwe": 339,
      "Ġcom": 340,
      "Ġex": 341,
      "pp": 342,
      "ab": 343,
      "th": 344,
      "ore": 345,
      "ld": 346,
      "ess": 347,
      "ist": 348,
      "est": 349,
      "Ġv": 350,
      "ac": 351,
      "and": 352,
      "ment": 353,
      "op": 354,
      "ĠH": 355,
      "res": 356,
      "os": 357,
      "ĠW": 358,
      "ect": 359,
      "igh": 360,
      "ĠD": 361,
      "Ġha": 362,
      "ĠF": 363,
      "un": 364,
      "em": 365,
      "Ġwas": 366,
      "Ġat": 367,
      "ity": 368,
      "ive": 369,
      "ĠR": 370,
      "ant": 371,
      "âĢĻ": 372,
      "rom": 373,
      "Ġby": 374,
      "Ġsu": 375,
      "Ġr": 376,
      "nt": 377,
      "ain": 378,
      "Ġse": 379,
      "iv": 380,
      "ĠE": 381,
      "ies": 382,
      "Ġne": 383,
      "oc": 384,
      "Ġnot": 385,
      "Ġcan": 386,
      "ĠL": 387,
      "Ġfrom": 388,
      "ort": 389,
      "art": 390,
      "Ġch": 391,
      "ĠN": 392,
      "ight": 393,
      "Ġhave": 394,
      "Ġthis": 395,
      "**": 396,
      "ĠG": 397,
      "Ġsh": 398,
      "Ġ=": 399,
      "ud": 400,
      "Ġle": 401,
      "00": 402,
      "ould": 403,
      "'s": 404,
      "ial": 405,
      "end": 406,
      "ure": 407,
      "all": 408,
      "te": 409,
      "Ġ\\(": 410,
      "ust": 411,
      "pt": 412,
      "pl": 413,
      "ĠâĢ": 414,
      "ions": 415,
      "Ġ-": 416,
      "ine": 417,
      "ome": 418,
      "Ġab": 419,
      "og": 420,
      "ical": 421,
      "out": 422,
      "red": 423,
      "ag": 424,
      "ard": 425,
      "pe": 426,
      "gh": 427,
      "Ġk": 428,
      "our": 429,
      "ost": 430,
      "rou": 431,
      "Ġ|": 432,
      "ĠO": 433,
      "Ġwor": 434,
      "Ġus": 435,
      "Ġyour": 436,
      "per": 437,
      "The": 438,
      "Ġwhe": 439,
      "ich": 440,
      "Ġdo": 441,
      "Ġpl": 442,
      "ide": 443,
      "##": 444,
      "ell": 445,
      "ie": 446,
      "ak": 447,
      "ther": 448,
      "act": 449,
      "age": 450,
      "ated": 451,
      "Ġall": 452,
      "ff": 453,
      "Ġme": 454,
      "ind": 455,
      "Ġthey": 456,
      "Ġen": 457,
      "ĠJ": 458,
      "iz": 459,
      "Ġcomp": 460,
      "ast": 461,
      "Ġj": 462,
      "Ġbut": 463,
      "Ġim": 464,
      "--": 465,
      "ans": 466,
      "ult": 467,
      "Ġwill": 468,
      "ous": 469,
      "Ġad": 470,
      "ĠU": 471,
      "Ġtheir": 472,
      "Ġ3": 473,
      "ber": 474,
      "Ġ\"": 475,
      "ip": 476,
      "ear": 477,
      "ations": 478,
      "ok": 479,
      "Ġgo": 480,
      "are": 481,
      "ong": 482,
      "ack": 483,
      "ĠTh": 484,
      "Ġhas": 485,
      "ry": 486,
      "one": 487,
      "Ġint": 488,
      "du": 489,
      "ble": 490,
      "Ġwhich": 491,
      "orm": 492,
      "Ġres": 493,
      "ally": 494,
      "ru": 495,
      "cc": 496,
      "..": 497,
      "Ġcont": 498,
      "ap": 499,
      "ĠIn": 500,
      "able": 501,
      "Ġone": 502,
      "Ġout": 503,
      "Ġmore": 504,
      "ice": 505,
      "ame": 506,
      "Ġso": 507,
      "Ġcl": 508,
      ").": 509,
      "ime": 510,
      "ance": 511,
      "cl": 512,
      "ction": 513,
      "rac": 514,
      "Ġli": 515,
      "ia": 516,
      "ep": 517,
      "Ġhis": 518,
      "ake": 519,
      "ary": 520,
      "ere": 521,
      "ach": 522,
      "Ġdis": 523,
      "Ġup": 524,
      "Ġun": 525,
      "Ġapp": 526,
      "very": 527,
      "ass": 528,
      "ue": 529,
      "ress": 530,
      "Ġman": 531,
      "ign": 532,
      "Ġqu": 533,
      "vel": 534,
      "so": 535,
      "Ġper": 536,
      "ose": 537,
      "ents": 538,
      "ence": 539,
      "ase": 540,
      "Ġabout": 541,
      "au": 542,
      "Ġother": 543,
      "ang": 544,
      "Ġwere": 545,
      "ub": 546,
      "ace": 547,
      "ite": 548,
      "av": 549,
      "Ġsp": 550,
      "ire": 551,
      "ook": 552,
      "Ġ20": 553,
      "int": 554,
      "ks": 555,
      "ĠK": 556,
      "ile": 557,
      "ition": 558,
      "Ġev": 559,
      "Ġwho": 560,
      "Ġar": 561,
      "reat": 562,
      "now": 563,
      "âĢĿ": 564,
      "Ġ4": 565,
      "xt": 566,
      "Ġif": 567,
      "ens": 568,
      "ord": 569,
      "Ġte": 570,
      "Ġlike": 571,
      "Ġthere": 572,
      "Ġthem": 573,
      "Ġsome": 574,
      "ll": 575,
      "Ġpart": 576,
      "ount": 577,
      "Ġ+": 578,
      "ĠIt": 579,
      "Ġwhen": 580,
      "ond": 581,
      "Ġsc": 582,
      "),": 583,
      "ree": 584,
      "Ġimp": 585,
      "ors": 586,
      "Ġalso": 587,
      "Ġpe": 588,
      "iff": 589,
      "Ġmy": 590,
      "ĠSt": 591,
      "Ġwould": 592,
      "ays": 593,
      "ound": 594,
      "form": 595,
      "Ġfe": 596,
      "ĠY": 597,
      "ĠV": 598,
      "Ġtime": 599,
      "low": 600,
      "Ġhad": 601,
      "Ġbec": 602,
      "ail": 603,
      "'t": 604,
      "}{": 605,
      "Ġ19": 606,
      "Ġinto": 607,
      "Ġ5": 608,
      "nder": 609,
      "ough": 610,
      "Ġany": 611,
      "Ġthan": 612,
      "ory": 613,
      "Ġag": 614,
      "Ġsa": 615,
      "ces": 616,
      "frac": 617,
      "ings": 618,
      "Ġwhat": 619,
      "ater": 620,
      "Ġpre": 621,
      "Ġro": 622,
      "ĊĊ": 623,
      "ne": 624,
      "ild": 625,
      "ph": 626,
      "Ġhow": 627,
      "wo": 628,
      "ric": 629,
      "ĠâĢľ": 630,
      "Ġwork": 631,
      "ple": 632,
      "ĠCh": 633,
      "Ġknow": 634,
      "ople": 635,
      "Ġover": 636,
      "Ġsy": 637,
      "ove": 638,
      "Ġbet": 639,
      "Ġbeen": 640,
      "Ġget": 641,
      "irst": 642,
      "Ġher": 643,
      "ish": 644,
      "Ġ0": 645,
      "Ġcomm": 646,
      "Ġno": 647,
      "we": 648,
      "Ġpo": 649,
      "Ġdiff": 650,
      "Ġrec": 651,
      "Ġ\\)": 652,
      "Ġnum": 653,
      "ath": 654,
      "Ġyear": 655,
      "ons": 656,
      "ms": 657,
      "ood": 658,
      "ink": 659,
      "Ġits": 660,
      "ates": 661,
      "lic": 662,
      "Ġspe": 663,
      "Ġpeople": 664,
      "ause": 665,
      "Ġmay": 666,
      "Ġdes": 667,
      "ft": 668,
      "erv": 669,
      "Ġour": 670,
      "Ġoff": 671,
      "eth": 672,
      "ian": 673,
      "Ġam": 674,
      "vers": 675,
      "Ġnew": 676,
      "Ġunder": 677,
      "rough": 678,
      "ĠThis": 679,
      "ific": 680,
      "ious": 681,
      "ov": 682,
      "Ġneed": 683,
      "ual": 684,
      "Ġthese": 685,
      "Ġtr": 686,
      "Ġact": 687,
      "rit": 688,
      "Ġacc": 689,
      "Ġuse": 690,
      "Ġstud": 691,
      "fter": 692,
      "Ġem": 693,
      "les": 694,
      "Ġtwo": 695,
      "Ġind": 696,
      "row": 697,
      "ob": 698,
      "ys": 699,
      "ating": 700,
      "Ġjust": 701,
      "lect": 702,
      "ning": 703,
      "imes": 704,
      "Ġcons": 705,
      "old": 706,
      "Ġexp": 707,
      "ject": 708,
      "ib": 709,
      "Ġtra": 710,
      "ark": 711,
      "Ġfirst": 712,
      "Ġinter": 713,
      "Ġ$": 714,
      "Ġbl": 715,
      "own": 716,
      "ative": 717,
      "Ġ6": 718,
      "Ġonly": 719,
      "Ġrel": 720,
      "Ġinc": 721,
      "hed": 722,
      "stem": 723,
      "ments": 724,
      "clud": 725,
      "ick": 726,
      "olog": 727,
      "Ġra": 728,
      "ular": 729,
      "cess": 730,
      "Ġdiffere": 731,
      "Ġco": 732,
      "erm": 733,
      "ise": 734,
      "hat": 735,
      "ful": 736,
      "Ġ201": 737,
      "oth": 738,
      "ics": 739,
      "Ġpos": 740,
      "ities": 741,
      "Ġshe": 742,
      "ract": 743,
      "rib": 744,
      "ck": 745,
      "Ġsuch": 746,
      "Ġrep": 747,
      "Ġadd": 748,
      "Ġthen": 749,
      "mer": 750,
      "Ġwhere": 751,
      "Ġmost": 752,
      "ting": 753,
      "ĠHe": 754,
      "sel": 755,
      "round": 756,
      "Ġph": 757,
      "hen": 758,
      "ange": 759,
      "ution": 760,
      "lp": 761,
      "\\)": 762,
      "Ġcould": 763,
      "Ġcol": 764,
      "fore": 765,
      "ient": 766,
      "ced": 767,
      "Ġthrough": 768,
      "ility": 769,
      "Ġinv": 770,
      "ec": 771,
      "In": 772,
      "ren": 773,
      "als": 774,
      "Ġprov": 775,
      "iss": 776,
      "Ġhelp": 777,
      "Ġob": 778,
      "ont": 779,
      "urn": 780,
      "ied": 781,
      "Ġass": 782,
      "Ġgen": 783,
      "Ġpr": 784,
      "Ġeff": 785,
      "Ġsaid": 786,
      "Ġ**": 787,
      "wn": 788,
      "ased": 789,
      "Ġrem": 790,
      "ible": 791,
      "Ġsub": 792,
      "Ġshould": 793,
      "Ġreg": 794,
      "Ġinclud": 795,
      "ween": 796,
      "ert": 797,
      "Ġmany": 798,
      "Ġmake": 799,
      "Ġac": 800,
      "Th": 801,
      "Ġatt": 802,
      "uch": 803,
      "Ġform": 804,
      "Ġinst": 805,
      "Ġprodu": 806,
      "Ġused": 807,
      "oy": 808,
      "its": 809,
      "Ġsystem": 810,
      "ram": 811,
      "ata": 812,
      "Ġ10": 813,
      "Ġequ": 814,
      "ational": 815,
      "uring": 816,
      "ade": 817,
      "Ġsim": 818,
      "Ġevery": 819,
      "ew": 820,
      "Ġ7": 821,
      "ower": 822,
      "Ġafter": 823,
      "ident": 824,
      "Ġmod": 825,
      "\\[": 826,
      "...": 827,
      "Ġbetween": 828,
      "Ġsee": 829,
      "get": 830,
      "text": 831,
      "Ġbecause": 832,
      "cial": 833,
      "ss": 834,
      "Ġbu": 835,
      "Ġback": 836,
      "cept": 837,
      "Ġway": 838,
      "the": 839,
      "Ġhim": 840,
      "Ġeven": 841,
      "Ġfl": 842,
      "ife": 843,
      "----": 844,
      "Ġsec": 845,
      "aw": 846,
      "Ġsm": 847,
      "Ġfind": 848,
      "Ġval": 849,
      "ures": 850,
      "tern": 851,
      "Ġdec": 852,
      "Ġset": 853,
      "Ġ8": 854,
      "hes": 855,
      "ng": 856,
      "Ġsur": 857,
      "ĠUn": 858,
      "ef": 859,
      "ĠPro": 860,
      "Ġwell": 861,
      "Ġx": 862,
      "Ã©": 863,
      "ample": 864,
      "iew": 865,
      "Ġsol": 866,
      "Ġdoes": 867,
      "Ġtrans": 868,
      "Ġsupp": 869,
      "###": 870,
      "20": 871,
      "Ġnumber": 872,
      ":**": 873,
      "Ġwant": 874,
      "ict": 875,
      "Ġusing": 876,
      "velop": 877,
      "Ġfun": 878,
      "other": 879,
      "Ġdifferent": 880,
      "ĠWe": 881,
      "ĠâĢĵ": 882,
      "Ġ200": 883,
      "ten": 884,
      "ock": 885,
      "Ġke": 886,
      "ollow": 887,
      "Ġpers": 888,
      "ty": 889,
      "Ġpres": 890,
      "aking": 891,
      "Ġpoint": 892,
      "ily": 893,
      "ving": 894,
      "Ġeach": 895,
      "Ġyears": 896,
      "Ġ9": 897,
      "Ġlook": 898,
      "Ġdet": 899,
      "Ġdef": 900,
      "alth": 901,
      "ĠIf": 902,
      "Ġvery": 903,
      "ues": 904,
      "ever": 905,
      "Ġdid": 906,
      "Ġright": 907,
      "ari": 908,
      "Ġlong": 909,
      "ax": 910,
      "ually": 911,
      "cy": 912,
      "Ġsign": 913,
      "ool": 914,
      "ts": 915,
      "Ġmuch": 916,
      "arch": 917,
      "Ġdon": 918,
      "Ġinte": 919,
      "ĠRe": 920,
      "Ġpol": 921,
      "ward": 922,
      "Ġ\\]": 923,
      "Ġbeing": 924,
      "Ġresp": 925,
      "Ġthink": 926,
      "Ġsame": 927,
      "ines": 928,
      "up": 929,
      "Ġdisc": 930,
      "ĠCom": 931,
      "Ġmat": 932,
      "Ġproble": 933,
      "Ġend": 934,
      "Ġhigh": 935,
      "Ġcar": 936,
      "Ġent": 937,
      "Ġdi": 938,
      "Ġinf": 939,
      "tle": 940,
      "Ġdist": 941,
      "ically": 942,
      ".\"": 943,
      "Ġcall": 944,
      "Ġgood": 945,
      "10": 946,
      "Ġexper": 947,
      "Ġfact": 948,
      "Ġthose": 949,
      "Ġfollow": 950,
      "ĠYou": 951,
      "ĠFor": 952,
      "Ġdevelop": 953,
      "gan": 954,
      "ited": 955,
      "Ġnow": 956,
      "ork": 957,
      "ix": 958,
      "ĠAl": 959,
      "Ġdown": 960,
      "Ġagain": 961,
      "ins": 962,
      "Ġplay": 963,
      "Ġshow": 964,
      "ives": 965,
      "Ġresult": 966,
      "stand": 967,
      "ave": 968,
      "roup": 969,
      "led": 970,
      "ize": 971,
      "ience": 972,
      "cul": 973,
      "Ġref": 974,
      "ĠHow": 975,
      "hip": 976,
      "Ġcor": 977,
      "erg": 978,
      "Ġstart": 979,
      "ince": 980,
      "ĠAn": 981,
      "Ġins": 982,
      "Ġ&": 983,
      "inal": 984,
      "chn": 985,
      "Ġboth": 986,
      "Ġown": 987,
      "self": 988,
      "bers": 989,
      "Ġmin": 990,
      "Ġgra": 991,
      "Ġchild": 992,
      "ness": 993,
      "Ġcur": 994,
      "Ġbefore": 995,
      "Ġty": 996,
      "Ġgener": 997,
      "Ġpat": 998,
      "io": 999,
      "ven": 1000,
      "und": 1001,
      "com": 1002,
      "Ġstr": 1003,
      "Ġdata": 1004,
      "Ġwhile": 1005,
      "ĠAnd": 1006,
      "Ġmed": 1007,
      "Ġext": 1008,
      "nce": 1009,
      "Ġread": 1010,
      "iel": 1011,
      "uc": 1012,
      "Ġrequ": 1013,
      "de": 1014,
      "Ġworld": 1015,
      "Ġbr": 1016,
      "Ġsom": 1017,
      "Ġfound": 1018,
      "any": 1019,
      "Ġcomple": 1020,
      "ute": 1021,
      "Ġret": 1022,
      "Ġ'": 1023,
      "gg": 1024,
      "Ġcount": 1025,
      "Ġear": 1026,
      "ruct": 1027,
      "hem": 1028,
      "Ġexpl": 1029,
      "day": 1030,
      "Ġmon": 1031,
      "formation": 1032,
      "der": 1033,
      "Ġchar": 1034,
      "Ġprocess": 1035,
      "air": 1036,
      "Ġgreat": 1037,
      "Ġgu": 1038,
      "ĠEx": 1039,
      "ature": 1040,
      "ices": 1041,
      "Ġmade": 1042,
      "ined": 1043,
      "ublic": 1044,
      "ather": 1045,
      "ism": 1046,
      "ages": 1047,
      "ĠâĢ¢": 1048,
      "Ġimport": 1049,
      "Ġperson": 1050,
      "read": 1051,
      "ĠĠ": 1052,
      "con": 1053,
      "li": 1054,
      "ĠAs": 1055,
      "oci": 1056,
      "Ġtake": 1057,
      "Ġart": 1058,
      "Ġcre": 1059,
      "ĠThey": 1060,
      "Ġeffect": 1061,
      "ody": 1062,
      "ands": 1063,
      "Ġthough": 1064,
      "ex": 1065,
      "19": 1066,
      "000": 1067,
      "ists": 1068,
      "eng": 1069,
      "Ġreal": 1070,
      "Ġ18": 1071,
      "ural": 1072,
      "This": 1073,
      "Ġquest": 1074,
      "ved": 1075,
      "ĠBut": 1076,
      "Ġlit": 1077,
      "ized": 1078,
      "ection": 1079,
      "Ġloc": 1080,
      "ted": 1081,
      "Ġlife": 1082,
      "Ġincre": 1083,
      "be": 1084,
      "vent": 1085,
      "Ġspec": 1086,
      "Ġlear": 1087,
      "iven": 1088,
      "chool": 1089,
      "Ġlar": 1090,
      "Ġprog": 1091,
      "Ġser": 1092,
      "Ġappro": 1093,
      "Ġed": 1094,
      "Ġconf": 1095,
      "rest": 1096,
      "ank": 1097,
      "way": 1098,
      "Ġdep": 1099,
      "ides": 1100,
      "ale": 1101,
      "Ġaut": 1102,
      "sw": 1103,
      "ves": 1104,
      "meric": 1105,
      "Ġop": 1106,
      "Ġ[": 1107,
      "akes": 1108,
      "ull": 1109,
      "ential": 1110,
      "ants": 1111,
      "ash": 1112,
      "Ġday": 1113,
      "Ġserv": 1114,
      "ider": 1115,
      "Ġcent": 1116,
      "to": 1117,
      "ology": 1118,
      "uss": 1119,
      "Ġmem": 1120,
      "ds": 1121,
      "Ġfam": 1122,
      "Ġpartic": 1123,
      "Ġlead": 1124,
      "Ġwater": 1125,
      "Ġstill": 1126,
      "irect": 1127,
      "Ġposs": 1128,
      "pr": 1129,
      "Ġbo": 1130,
      "arm": 1131,
      "ah": 1132,
      "Ġduring": 1133,
      "Ġgroup": 1134,
      "ason": 1135,
      "ĠAr": 1136,
      "alk": 1137,
      "Ġaround": 1138,
      "ases": 1139,
      "Ġtri": 1140,
      "Ġtechn": 1141,
      "cer": 1142,
      "rent": 1143,
      "cent": 1144,
      "ĠQ": 1145,
      "Ġhealth": 1146,
      "irc": 1147,
      "Ġsay": 1148,
      "ethod": 1149,
      "ars": 1150,
      "Ġsk": 1151,
      "Ġhere": 1152,
      "Ġ12": 1153,
      "times": 1154,
      "Ġthree": 1155,
      "Ġhum": 1156,
      "vern": 1157,
      "Ġpower": 1158,
      "ĠAmeric": 1159,
      "Ġstate": 1160,
      "Ġmight": 1161,
      "ets": 1162,
      "Ġunderstand": 1163,
      "Ġexample": 1164,
      "ner": 1165,
      "ify": 1166,
      "alcul": 1167,
      "Ġsecond": 1168,
      "ĠThere": 1169,
      "ision": 1170,
      "Ġcommun": 1171,
      "Ġca": 1172,
      "Ġav": 1173,
      "ected": 1174,
      "ĠWh": 1175,
      "Ġgl": 1176,
      "12": 1177,
      "ger": 1178,
      "ivid": 1179,
      "ator": 1180,
      "Ġsmall": 1181,
      "Ġless": 1182,
      "Ġbel": 1183,
      "rol": 1184,
      "Ġconst": 1185,
      "Ġinformation": 1186,
      "ared": 1187,
      "ral": 1188,
      "ety": 1189,
      "ien": 1190,
      "Ġline": 1191,
      "ters": 1192,
      "Ġpar": 1193,
      "ional": 1194,
      "âĢĵ": 1195,
      "ross": 1196,
      "iness": 1197,
      "Ġi": 1198,
      "Ġmain": 1199,
      "ouse": 1200,
      "oh": 1201,
      "Ġtest": 1202,
      "ired": 1203,
      "ĠNew": 1204,
      "ĠLe": 1205,
      "amp": 1206,
      "Ġlevel": 1207,
      "ode": 1208,
      "iqu": 1209,
      "ug": 1210,
      "ething": 1211,
      "ĠCon": 1212,
      "Ġclass": 1213,
      "Ġfunction": 1214,
      "az": 1215,
      "ier": 1216,
      "Ġel": 1217,
      "land": 1218,
      "Ġrese": 1219,
      "ĠDe": 1220,
      "Ġcour": 1221,
      "port": 1222,
      "Ġmust": 1223,
      "Ġcle": 1224,
      "ability": 1225,
      "less": 1226,
      "ital": 1227,
      ".âĢĿ": 1228,
      "Ġhapp": 1229,
      "Ġcare": 1230,
      "Ġrun": 1231,
      "Ġtoo": 1232,
      ");": 1233,
      "els": 1234,
      "Ġwithout": 1235,
      "Ġimportant": 1236,
      "Ġmult": 1237,
      "Ġallow": 1238,
      "ĠSh": 1239,
      "Ġest": 1240,
      "dition": 1241,
      "ivers": 1242,
      ",\"": 1243,
      "Ġplan": 1244,
      "ways": 1245,
      "Ġsupport": 1246,
      "Ġche": 1247,
      "ense": 1248,
      "ots": 1249,
      "Ġcontin": 1250,
      "Ġanother": 1251,
      "man": 1252,
      "Ġfil": 1253,
      "Ġsl": 1254,
      "ption": 1255,
      "of": 1256,
      "osed": 1257,
      "Ġ/": 1258,
      "Ġthings": 1259,
      "Ġgoing": 1260,
      "atic": 1261,
      "view": 1262,
      "Ġsomething": 1263,
      "Ġgrow": 1264,
      "here": 1265,
      "aj": 1266,
      "Ġadv": 1267,
      "ately": 1268,
      "ĠAd": 1269,
      "oss": 1270,
      "Ġlast": 1271,
      "Ġmethod": 1272,
      "Ġmark": 1273,
      "Ġreally": 1274,
      "ron": 1275,
      "Ġplace": 1276,
      "line": 1277,
      "ĠSe": 1278,
      "Ġhand": 1279,
      "Ġpass": 1280,
      "ĠWhat": 1281,
      "ished": 1282,
      "It": 1283,
      "Ġfin": 1284,
      "Ġdesign": 1285,
      "Ġ15": 1286,
      "Ġlet": 1287,
      "ality": 1288,
      "Ġbus": 1289,
      "Ġpop": 1290,
      "Ġfew": 1291,
      "app": 1292,
      "Ġmet": 1293,
      "\\]": 1294,
      "itive": 1295,
      "Ġz": 1296,
      "Ġbest": 1297,
      "Ġtry": 1298,
      "Ġeas": 1299,
      "Ġproblem": 1300,
      "ertain": 1301,
      "Ġbetter": 1302,
      "11": 1303,
      "Ġmean": 1304,
      "St": 1305,
      "Ġelect": 1306,
      "orn": 1307,
      "Ġoften": 1308,
      "Ġwrit": 1309,
      "Ġide": 1310,
      "swer": 1311,
      "Ġinterest": 1312,
      "Ġstudents": 1313,
      "Ġprot": 1314,
      "Ġiss": 1315,
      "Ġproduct": 1316,
      "iron": 1317,
      "ote": 1318,
      "ization": 1319,
      "ered": 1320,
      "Ġ{": 1321,
      "Ġpost": 1322,
      "Ġla": 1323,
      "itions": 1324,
      "Ġident": 1325,
      "Ġanal": 1326,
      "ield": 1327,
      "ek": 1328,
      "ĠIs": 1329,
      "Ġstudy": 1330,
      "ret": 1331,
      "Ġprof": 1332,
      "Ġdev": 1333,
      "oun": 1334,
      "ĠSc": 1335,
      "Ġschool": 1336,
      "Ġdem": 1337,
      "gin": 1338,
      "Ġhist": 1339,
      "Ġfeel": 1340,
      "thing": 1341,
      "ration": 1342,
      "Ġve": 1343,
      "Ġoper": 1344,
      "ps": 1345,
      "Ġwom": 1346,
      "Ġgiven": 1347,
      "me": 1348,
      "Ġdirect": 1349,
      "Ġter": 1350,
      "Ġchange": 1351,
      "ains": 1352,
      "ining": 1353,
      "ĠSo": 1354,
      "ton": 1355,
      "ĠInd": 1356,
      "Ġbeh": 1357,
      "Ġseem": 1358,
      "Ġpur": 1359,
      "Ġperform": 1360,
      "Ġhome": 1361,
      "raph": 1362,
      "**:": 1363,
      "Ġvari": 1364,
      "Ġopen": 1365,
      "ik": 1366,
      "riend": 1367,
      "Ġele": 1368,
      "Ġwithin": 1369,
      "Ġet": 1370,
      "Ġdel": 1371,
      "Ġvis": 1372,
      "Ġarea": 1373,
      "ames": 1374,
      "Ġrest": 1375,
      "Ġ\\).": 1376,
      "Ġcalled": 1377,
      "Ġsit": 1378,
      "ergy": 1379,
      "Ġkeep": 1380,
      "âĢĶ": 1381,
      "Ġstand": 1382,
      "pect": 1383,
      "Ġgovern": 1384,
      "Ġcase": 1385,
      ".,": 1386,
      "put": 1387,
      "ling": 1388,
      "Ġcell": 1389,
      "Ġpresent": 1390,
      "Ġtop": 1391,
      "ead": 1392,
      "Ġbuild": 1393,
      "bs": 1394,
      "acter": 1395,
      "reen": 1396,
      "Ġold": 1397,
      "Ġocc": 1398,
      "iving": 1399,
      "Ġvalue": 1400,
      "sc": 1401,
      "ocial": 1402,
      "right": 1403,
      "par": 1404,
      "ran": 1405,
      "ients": 1406,
      "Ġbook": 1407,
      "ior": 1408,
      "Ġlittle": 1409,
      "ention": 1410,
      "Ġchang": 1411,
      "Ġpublic": 1412,
      "Ġproper": 1413,
      "Ġorgan": 1414,
      "Ġagainst": 1415,
      "Ġaff": 1416,
      "Ġactiv": 1417,
      "Ġpract": 1418,
      "Ġsince": 1419,
      "ium": 1420,
      "Ġhead": 1421,
      "^{": 1422,
      "Ġincluding": 1423,
      "Ġmov": 1424,
      "Ġchildren": 1425,
      "ĠCl": 1426,
      "Ġopp": 1427,
      "Ġput": 1428,
      "ope": 1429,
      "Ġbelie": 1430,
      "ulation": 1431,
      "'re": 1432,
      "ering": 1433,
      "Ġask": 1434,
      "oot": 1435,
      "ware": 1436,
      "oad": 1437,
      "ĠZ": 1438,
      "Ġhard": 1439,
      "Ġwhy": 1440,
      "Ġeng": 1441,
      "Ġredu": 1442,
      "Ġcommon": 1443,
      "Ġcap": 1444,
      "Ġbody": 1445,
      "ably": 1446,
      "Ġreport": 1447,
      "ified": 1448,
      "Ġinvol": 1449,
      "Ġfood": 1450,
      "ĠTo": 1451,
      "Ġcome": 1452,
      "ination": 1453,
      "rodu": 1454,
      "Ġalways": 1455,
      "ateg": 1456,
      "val": 1457,
      "Ġconn": 1458,
      "15": 1459,
      "Ġlist": 1460,
      "Ġnever": 1461,
      "Ġmus": 1462,
      "We": 1463,
      "ember": 1464,
      "Ġdri": 1465,
      "olution": 1466,
      "Ġlarge": 1467,
      "Ġmeas": 1468,
      "oid": 1469,
      "ently": 1470,
      "Ġ<": 1471,
      "Ġdesc": 1472,
      "Ġpri": 1473,
      "Ġcurrent": 1474,
      "ats": 1475,
      "ccess": 1476,
      "Ġfollowing": 1477,
      "ression": 1478,
      "Ġbre": 1479,
      "ained": 1480,
      "Ġlaw": 1481,
      "Ġorder": 1482,
      "ording": 1483,
      "Ġgr": 1484,
      "Ġlight": 1485,
      "Ġ*": 1486,
      "âĢľ": 1487,
      "What": 1488,
      "Ġbas": 1489,
      "Ġris": 1490,
      "Ġ.": 1491,
      "Ġ16": 1492,
      "oney": 1493,
      "oint": 1494,
      "ĠAt": 1495,
      "Ġquestion": 1496,
      "If": 1497,
      "work": 1498,
      "Ġtreat": 1499,
      "Ġhuman": 1500,
      "ox": 1501,
      "atch": 1502,
      "Ġmeans": 1503,
      "Ġes": 1504,
      "'m": 1505,
      "Ġleg": 1506,
      "Ġ11": 1507,
      "Ġunt": 1508,
      "Ġvar": 1509,
      "viron": 1510,
      "uro": 1511,
      "Ġprob": 1512,
      "Ġpot": 1513,
      "ann": 1514,
      "med": 1515,
      "ĠWhen": 1516,
      "Ġcontrol": 1517,
      "resent": 1518,
      "Ġcost": 1519,
      "Ġnon": 1520,
      "Ġinvest": 1521,
      "ples": 1522,
      "cing": 1523,
      "_{": 1524,
      "ĠThat": 1525,
      "Ġturn": 1526,
      "ury": 1527,
      "ern": 1528,
      "Ġside": 1529,
      "ental": 1530,
      "ĠShe": 1531,
      "An": 1532,
      "Ġhy": 1533,
      "Ġpa": 1534,
      "arent": 1535,
      "Ġpossible": 1536,
      "Ġknown": 1537,
      "Ġable": 1538,
      "min": 1539,
      "over": 1540,
      "ividual": 1541,
      "ĠPl": 1542,
      "ilar": 1543,
      "agn": 1544,
      "Ġnumbers": 1545,
      "Ġbased": 1546,
      "Ġtem": 1547,
      "You": 1548,
      "ived": 1549,
      "Ġimpro": 1550,
      "ency": 1551,
      "Ġcr": 1552,
      "Ġbusiness": 1553,
      "icle": 1554,
      "hor": 1555,
      "50": 1556,
      "Ġmonth": 1557,
      "Ġname": 1558,
      "ĠBe": 1559,
      "ards": 1560,
      "Ġlearn": 1561,
      "Ġlim": 1562,
      "Ġtyp": 1563,
      "Ġlot": 1564,
      "Ġtimes": 1565,
      "omet": 1566,
      "ĠHowever": 1567,
      "lish": 1568,
      "Ġleft": 1569,
      "\\).": 1570,
      "ided": 1571,
      "Ġdra": 1572,
      "Ġreturn": 1573,
      "ĠPh": 1574,
      "Ġmove": 1575,
      "rt": 1576,
      "conom": 1577,
      "inc": 1578,
      "ploy": 1579,
      "Ġcho": 1580,
      "Ġdeterm": 1581,
      "outh": 1582,
      "Ġteam": 1583,
      "ĠThese": 1584,
      "ta": 1585,
      "Ġfour": 1586,
      "ither": 1587,
      "ource": 1588,
      "Ġtru": 1589,
      "sh": 1590,
      "Ġ14": 1591,
      "Ġben": 1592,
      "br": 1593,
      "13": 1594,
      "aterial": 1595,
      "ole": 1596,
      "Ġsignific": 1597,
      "Ġnext": 1598,
      "ina": 1599,
      "mb": 1600,
      "18": 1601,
      "Ġwr": 1602,
      "Ġfree": 1603,
      "ories": 1604,
      "not": 1605,
      "ission": 1606,
      "urther": 1607,
      "Ġresearch": 1608,
      "pro": 1609,
      "mit": 1610,
      "illion": 1611,
      "Ġrece": 1612,
      "ries": 1613,
      "yl": 1614,
      "elf": 1615,
      "Ġapplic": 1616,
      "Ġsing": 1617,
      "Ġbig": 1618,
      "Ġ13": 1619,
      ",âĢĿ": 1620,
      "by": 1621,
      "Ġbro": 1622,
      "Ġindividual": 1623,
      "ring": 1624,
      "Ġ199": 1625,
      "Ġorig": 1626,
      "Ġpay": 1627,
      "por": 1628,
      "Ġfriend": 1629,
      "Ġproject": 1630,
      "Ġaddition": 1631,
      "vious": 1632,
      "iod": 1633,
      "Ġsw": 1634,
      "Ġfamily": 1635,
      "iversity": 1636,
      "Ġvol": 1637,
      "Ġsays": 1638,
      "Ġprogram": 1639,
      "ised": 1640,
      "Ġsever": 1641,
      "Ġmar": 1642,
      "Ġsum": 1643,
      "plic": 1644,
      "Ġsure": 1645,
      "Ġer": 1646,
      "Ġgive": 1647,
      "ĠX": 1648,
      "ured": 1649,
      "ocus": 1650,
      "ray": 1651,
      "16": 1652,
      "Ġant": 1653,
      "Ġ\\(\\": 1654,
      "Ġrele": 1655,
      "Ġhaving": 1656,
      "for": 1657,
      "Ġcertain": 1658,
      "Ġleast": 1659,
      "Ġmaking": 1660,
      "--------": 1661,
      "Ġanswer": 1662,
      "Ġ}": 1663,
      "ER": 1664,
      "ĠUS": 1665,
      "Ġenergy": 1666,
      "Ġconsider": 1667,
      "How": 1668,
      "eral": 1669,
      "lu": 1670,
      "ĠSp": 1671,
      "vironment": 1672,
      "As": 1673,
      "ajor": 1674,
      "Ġ17": 1675,
      "ĠEng": 1676,
      "Ġcalcul": 1677,
      "ending": 1678,
      "Ġbecome": 1679,
      "Ġphys": 1680,
      "Ġmen": 1681,
      "Ch": 1682,
      "ĠRes": 1683,
      "Ġuntil": 1684,
      "14": 1685,
      "ĠâĢĺ": 1686,
      "Ġobject": 1687,
      "isc": 1688,
      "Ġparticular": 1689,
      "Ġsocial": 1690,
      "ird": 1691,
      "Ġlow": 1692,
      "Ġopt": 1693,
      "Ġcult": 1694,
      "Ġaway": 1695,
      "Ġ30": 1696,
      "Ġwar": 1697,
      "Ġgot": 1698,
      "Ġgovernment": 1699,
      "Ġprovide": 1700,
      "ids": 1701,
      "Ġdays": 1702,
      "ources": 1703,
      "Ġgame": 1704,
      "ances": 1705,
      "Ġmil": 1706,
      "Ġcirc": 1707,
      "ane": 1708,
      "rop": 1709,
      "Ġfar": 1710,
      "rist": 1711,
      "Ġseveral": 1712,
      "Ġcomput": 1713,
      "To": 1714,
      "utions": 1715,
      "'ve": 1716,
      "Ġcreat": 1717,
      "Ġhour": 1718,
      "Ġstep": 1719,
      "Ġfac": 1720,
      "Ġtell": 1721,
      "ills": 1722,
      "__": 1723,
      "Ġothers": 1724,
      "Ġair": 1725,
      "angu": 1726,
      "Ġview": 1727,
      "ĠOn": 1728,
      "ĠAll": 1729,
      "Ġenough": 1730,
      "Ġfre": 1731,
      "Ġsqu": 1732,
      "let": 1733,
      "hy": 1734,
      "vert": 1735,
      "face": 1736,
      "ĠOr": 1737,
      "Ġthing": 1738,
      "ume": 1739,
      "Ġresults": 1740,
      "ĠCol": 1741,
      "Ġkind": 1742,
      "Ġprom": 1743,
      "aim": 1744,
      "omm": 1745,
      "Ġhig": 1746,
      "Ġproblems": 1747,
      "Ġmaterial": 1748,
      "urs": 1749,
      "orth": 1750,
      "ique": 1751,
      "Ġrad": 1752,
      "Ġ\\[": 1753,
      "hing": 1754,
      "Ġinclude": 1755,
      "Ġmoney": 1756,
      "ffic": 1757,
      "une": 1758,
      "ream": 1759,
      "25": 1760,
      "ended": 1761,
      "Ġsuccess": 1762,
      "Ġcomb": 1763,
      "Ġnear": 1764,
      "Ġnet": 1765,
      "ians": 1766,
      "ĠTe": 1767,
      "gether": 1768,
      "Ġtogether": 1769,
      "sq": 1770,
      "Ġavail": 1771,
      "Ġdue": 1772,
      "Ġtot": 1773,
      "use": 1774,
      "ĠBl": 1775,
      "ĠâĢĶ": 1776,
      "rain": 1777,
      "idence": 1778,
      "Ġsignificant": 1779,
      "ĠQu": 1780,
      "ively": 1781,
      "Ġang": 1782,
      "ĠCan": 1783,
      "Ġalong": 1784,
      "ĠAmerican": 1785,
      "Ġtype": 1786,
      "Ġexam": 1787,
      "Ġfore": 1788,
      "Ġeconom": 1789,
      "Ġterm": 1790,
      "ument": 1791,
      "Ġaccount": 1792,
      "Ġeduc": 1793,
      "Ġtre": 1794,
      "30": 1795,
      "Ġshort": 1796,
      "Ġfocus": 1797,
      "rect": 1798,
      "ggest": 1799,
      "ror": 1800,
      "Ġ\\,": 1801,
      "Ġintern": 1802,
      "ung": 1803,
      "Ġcourse": 1804,
      "Ġpain": 1805,
      "aster": 1806,
      "For": 1807,
      "ee": 1808,
      "Ġ\\),": 1809,
      "Ġpress": 1810,
      "ler": 1811,
      "Ġcaus": 1812,
      "Ġwomen": 1813,
      "ĠTr": 1814,
      "Ġaccess": 1815,
      "Ġ:": 1816,
      "Ġvarious": 1817,
      "aps": 1818,
      "yn": 1819,
      "idd": 1820,
      "ength": 1821,
      "Ġprop": 1822,
      "oms": 1823,
      "Ġcountry": 1824,
      "stit": 1825,
      "Ġsaf": 1826,
      "ortun": 1827,
      "Ġstruct": 1828,
      "ograph": 1829,
      "alf": 1830,
      "Ġamount": 1831,
      "sqrt": 1832,
      "Ġrelations": 1833,
      "aining": 1834,
      "pecial": 1835,
      "aring": 1836,
      "imate": 1837,
      "Ġmajor": 1838,
      "hers": 1839,
      "ym": 1840,
      "Ġpolit": 1841,
      "ĠRep": 1842,
      "Ġey": 1843,
      "augh": 1844,
      "Ġlocal": 1845,
      "ready": 1846,
      "Ġactually": 1847,
      "Ġreason": 1848,
      "Ġdoesn": 1849,
      "Ġinteg": 1850,
      "Ġ100": 1851,
      "ysis": 1852,
      "verse": 1853,
      "Ġlater": 1854,
      "Ġrepresent": 1855,
      "Ġmodel": 1856,
      "Ġworking": 1857,
      "ogn": 1858,
      "Ġdone": 1859,
      "ape": 1860,
      "lished": 1861,
      "Ġperiod": 1862,
      "Ġsuggest": 1863,
      "There": 1864,
      "imal": 1865,
      "ump": 1866,
      "Ġabove": 1867,
      "Ġcreate": 1868,
      "Ġdise": 1869,
      "Ġexperience": 1870,
      "ĠApp": 1871,
      "Ġkey": 1872,
      "rap": 1873,
      "oring": 1874,
      "Ġmakes": 1875,
      "eter": 1876,
      "Ġcharacter": 1877,
      "Ġdevelopment": 1878,
      "ON": 1879,
      "angle": 1880,
      "Ġdiscuss": 1881,
      "ged": 1882,
      "Ġamong": 1883,
      "ohn": 1884,
      "AT": 1885,
      "utes": 1886,
      "Ġclear": 1887,
      "22": 1888,
      "side": 1889,
      "Ġmarket": 1890,
      "erc": 1891,
      "ĠNo": 1892,
      "ored": 1893,
      "ule": 1894,
      "Ġworks": 1895,
      "Ġspecific": 1896,
      "ĠEn": 1897,
      "uture": 1898,
      "clus": 1899,
      "Ġlove": 1900,
      "Ġsimilar": 1901,
      "Ġbenef": 1902,
      "iting": 1903,
      "wards": 1904,
      "erence": 1905,
      "Ġnat": 1906,
      "Ġmot": 1907,
      "17": 1908,
      "Ġavailable": 1909,
      "Ġpotential": 1910,
      "Ġenvironment": 1911,
      "Ġcomplete": 1912,
      "Ġpercent": 1913,
      "Ġappear": 1914,
      "ĠUnited": 1915,
      "ĠGo": 1916,
      "Ġcrit": 1917,
      "Ġenc": 1918,
      "ustom": 1919,
      "aut": 1920,
      "uck": 1921,
      "Ġalready": 1922,
      "though": 1923,
      "Ġtalk": 1924,
      "ma": 1925,
      "Ġdig": 1926,
      "Ġdescrib": 1927,
      "Ġearly": 1928,
      "Ġmind": 1929,
      "gen": 1930,
      "Ġfull": 1931,
      "ables": 1932,
      "ĠMar": 1933,
      "Ġthought": 1934,
      "ological": 1935,
      "hemat": 1936,
      "most": 1937,
      "iple": 1938,
      "'ll": 1939,
      "23": 1940,
      "Ġweek": 1941,
      "ctions": 1942,
      "Ġcompany": 1943,
      "ones": 1944,
      "Ġyoung": 1945,
      "Ġspace": 1946,
      "ĠMay": 1947,
      "Ġpoints": 1948,
      "Ġever": 1949,
      "ES": 1950,
      "Ġvers": 1951,
      "aken": 1952,
      "Ġself": 1953,
      "fer": 1954,
      "Ġhappen": 1955,
      "Ġequation": 1956,
      "Ġstory": 1957,
      "pped": 1958,
      "\\),": 1959,
      "Ġbi": 1960,
      "Ġlog": 1961,
      "ĠComm": 1962,
      "osp": 1963,
      "Ġhistory": 1964,
      "etic": 1965,
      "ĠBy": 1966,
      "lement": 1967,
      "mber": 1968,
      "ott": 1969,
      "cd": 1970,
      "Ex": 1971,
      "ula": 1972,
      "ising": 1973,
      "}}": 1974,
      "Ġess": 1975,
      "Ġwhether": 1976,
      "Ġpast": 1977,
      "Ġacross": 1978,
      "ales": 1979,
      "Ġ25": 1980,
      "Ġonce": 1981,
      "ĠOne": 1982,
      "Ġassoci": 1983,
      "Ġfund": 1984,
      "ges": 1985,
      "Ġrisk": 1986,
      "ĠWith": 1987,
      "Ġtoday": 1988,
      "aces": 1989,
      "Ġrecord": 1990,
      "ĠÂ": 1991,
      "Ġcond": 1992,
      "Ġhold": 1993,
      "Ġjob": 1994,
      "ctor": 1995,
      "verage": 1996,
      "rack": 1997,
      "Ġlangu": 1998,
      "Ġspecial": 1999,
      "tt": 2000,
      "Ġeither": 2001,
      "asing": 2002,
      "orld": 2003,
      "Ġport": 2004,
      "Ġhouse": 2005,
      "//": 2006,
      "eg": 2007,
      "Ġconcept": 2008,
      "IN": 2009,
      "enn": 2010,
      "Ġdoing": 2011,
      "Ġnorm": 2012,
      "roll": 2013,
      "Ġstrong": 2014,
      "Ġemploy": 2015,
      "ators": 2016,
      "Ġobs": 2017,
      "Ġneg": 2018,
      "agement": 2019,
      "Ġdidn": 2020,
      "Ġrate": 2021,
      "ification": 2022,
      "Ġsingle": 2023,
      "ĠUniversity": 2024,
      "Ġchall": 2025,
      "Ġsomeone": 2026,
      "Ġexist": 2027,
      "eb": 2028,
      "icult": 2029,
      "Ġdiv": 2030,
      "ison": 2031,
      "ney": 2032,
      "Ġwhole": 2033,
      "str": 2034,
      "Ġfurther": 2035,
      "Ġcame": 2036,
      "Ġlab": 2037,
      "ery": 2038,
      "Ġtotal": 2039,
      "Ġpatients": 2040,
      "Ġsound": 2041,
      "Ġcomplex": 2042,
      "Ġrelationship": 2043,
      "Ġphot": 2044,
      "Ġblood": 2045,
      "Ġdr": 2046,
      "Ġland": 2047,
      "wh": 2048,
      "Ġneeds": 2049,
      "Ġevent": 2050,
      "ask": 2051,
      "Ġfuture": 2052,
      "Ġtext": 2053,
      "Ġlearning": 2054,
      "Ġage": 2055,
      "ley": 2056,
      "selves": 2057,
      "Ġwin": 2058,
      "Ġbit": 2059,
      "ĠEuro": 2060,
      "ront": 2061,
      "ches": 2062,
      "ĠDo": 2063,
      "Ġinit": 2064,
      "icro": 2065,
      "Ġtool": 2066,
      "ires": 2067,
      "Ġann": 2068,
      "Ġprofess": 2069,
      "Ġsystems": 2070,
      "Ġflow": 2071,
      "dd": 2072,
      "Ġindust": 2073,
      "Ġnecess": 2074,
      "ĠIm": 2075,
      "af": 2076,
      "uation": 2077,
      "ledge": 2078,
      "Ġheart": 2079,
      "ued": 2080,
      "istic": 2081,
      "ĠÃ": 2082,
      "ĠGod": 2083,
      "Ġ24": 2084,
      "21": 2085,
      "Ġlikely": 2086,
      "cle": 2087,
      "Ġseen": 2088,
      "Ġindic": 2089,
      "ĠChrist": 2090,
      "Ġways": 2091,
      "24": 2092,
      "iation": 2093,
      "ched": 2094,
      "ĠInt": 2095,
      "Ġwind": 2096,
      "ene": 2097,
      "ĠStates": 2098,
      "rad": 2099,
      "Ġstat": 2100,
      "sy": 2101,
      "Ġgeneral": 2102,
      "Ġens": 2103,
      "Ġpaper": 2104,
      "(\\": 2105,
      "Ġtrue": 2106,
      "Ġill": 2107,
      "Ġ--": 2108,
      "ilities": 2109,
      "rict": 2110,
      "ush": 2111,
      "ights": 2112,
      "Ġlo": 2113,
      "Ġwords": 2114,
      "Ġclaim": 2115,
      "60": 2116,
      "Ġoffic": 2117,
      "unt": 2118,
      "Ġrespect": 2119,
      "Ġcause": 2120,
      "orts": 2121,
      "Ġmom": 2122,
      "Ġfail": 2123,
      "Ġder": 2124,
      "Ġmass": 2125,
      "ows": 2126,
      "Ġquestions": 2127,
      "lying": 2128,
      "where": 2129,
      "Ġunderstanding": 2130,
      "Ġcheck": 2131,
      "son": 2132,
      "part": 2133,
      "ĠJohn": 2134,
      "Ġhigher": 2135,
      "oll": 2136,
      "Ġterms": 2137,
      "pecially": 2138,
      "Ġmeet": 2139,
      "lection": 2140,
      "Ġclose": 2141,
      "Ġrather": 2142,
      "``": 2143,
      "Ġfield": 2144,
      "ibility": 2145,
      "Ġupon": 2146,
      "):": 2147,
      "Ġidea": 2148,
      "Ġinstall": 2149,
      "Ġrequire": 2150,
      "Ġposition": 2151,
      "left": 2152,
      "play": 2153,
      "Ġcontent": 2154,
      "Ġsens": 2155,
      "Ġyet": 2156,
      "Ġsolution": 2157,
      "Al": 2158,
      "Ġvalues": 2159,
      "Ġemb": 2160,
      "ĠSy": 2161,
      "Ġauthor": 2162,
      "ude": 2163,
      "Ġrespons": 2164,
      "rel": 2165,
      "lease": 2166,
      "Ġbegin": 2167,
      "Ġexpress": 2168,
      "Ġchanges": 2169,
      "pi": 2170,
      "Ġdetail": 2171,
      "Ġsimple": 2172,
      "Ġvide": 2173,
      "Ġimpact": 2174,
      "\",": 2175,
      "Ġdeg": 2176,
      "math": 2177,
      "Ġaddress": 2178,
      "Ġdifficult": 2179,
      "AR": 2180,
      "$$": 2181,
      "Ġgetting": 2182,
      "Ġcustom": 2183,
      "omes": 2184,
      "Ġpred": 2185,
      "But": 2186,
      "my": 2187,
      "ai": 2188,
      "Ġabs": 2189,
      "When": 2190,
      "ried": 2191,
      "ĠPr": 2192,
      "ĠCar": 2193,
      "urity": 2194,
      "chie": 2195,
      "illed": 2196,
      "Ġcomes": 2197,
      "ned": 2198,
      "200": 2199,
      "Ġbehav": 2200,
      "{\\": 2201,
      "go": 2202,
      "Ġtook": 2203,
      "Ġlive": 2204,
      "ript": 2205,
      "ĠEurope": 2206,
      "ĠMan": 2207,
      "bo": 2208,
      "cos": 2209,
      "ises": 2210,
      "Ġsoft": 2211,
      "Ġ50": 2212,
      "Ġincrease": 2213,
      "Ġmillion": 2214,
      "Ġdeath": 2215,
      "apt": 2216,
      "Ġtax": 2217,
      "uff": 2218,
      "Ġlay": 2219,
      "He": 2220,
      "epend": 2221,
      "Ġquick": 2222,
      "Ġcommunity": 2223,
      "Ġimm": 2224,
      "iding": 2225,
      "Pro": 2226,
      "omin": 2227,
      "ĠSte": 2228,
      "ister": 2229,
      "Ġelse": 2230,
      "izing": 2231,
      "Ġlength": 2232,
      "So": 2233,
      "Ġhowever": 2234,
      "ivity": 2235,
      "onse": 2236,
      "Ġareas": 2237,
      "cdot": 2238,
      "pos": 2239,
      "---": 2240,
      "Ġvir": 2241,
      "Ġseries": 2242,
      "duct": 2243,
      "Ġarg": 2244,
      "Ġcut": 2245,
      "Ġpub": 2246,
      "80": 2247,
      "raction": 2248,
      "Ġrole": 2249,
      "Ġhalf": 2250,
      "ĠCent": 2251,
      "co": 2252,
      "ips": 2253,
      "Ġlooking": 2254,
      "Ġcells": 2255,
      "ply": 2256,
      "Ġface": 2257,
      "Ġtw": 2258,
      "atures": 2259,
      "Ġtreatment": 2260,
      "Ġnatural": 2261,
      "Ġusually": 2262,
      "And": 2263,
      "Ġsuper": 2264,
      "ĠGe": 2265,
      "Ġbat": 2266,
      "Ġfall": 2267,
      "Ġcity": 2268,
      "Ġparent": 2269,
      "Ġfig": 2270,
      "Ġcy": 2271,
      "Ġpolic": 2272,
      "40": 2273,
      "ilt": 2274,
      "ober": 2275,
      "ĠMe": 2276,
      "new": 2277,
      "Ġbelow": 2278,
      "Ã³": 2279,
      "Ġsent": 2280,
      "Ġsize": 2281,
      "Ġapproach": 2282,
      "Ġimprove": 2283,
      "####": 2284,
      "Ġdistrib": 2285,
      "Ġhours": 2286,
      "anks": 2287,
      "rix": 2288,
      "Ġservice": 2289,
      "Ġ#": 2290,
      "ourn": 2291,
      "Ġfive": 2292,
      "ends": 2293,
      "ike": 2294,
      "Ġcou": 2295,
      "Ġrange": 2296,
      "ID": 2297,
      "Ġcorrect": 2298,
      "Ġwon": 2299,
      "\".": 2300,
      "Ġmusic": 2301,
      "reg": 2302,
      "rew": 2303,
      "atory": 2304,
      "Ġdeal": 2305,
      "Ġdisease": 2306,
      "Ġpositive": 2307,
      "Ġcannot": 2308,
      "Ġmess": 2309,
      "Ġconcer": 2310,
      "ĠSu": 2311,
      "Ġsat": 2312,
      "ival": 2313,
      "sp": 2314,
      "Ġanything": 2315,
      "Ġdam": 2316,
      "ĠMy": 2317,
      "Ġprevent": 2318,
      "ĠCont": 2319,
      "Ġprim": 2320,
      "ze": 2321,
      "ĠAm": 2322,
      "rug": 2323,
      "Ġlevels": 2324,
      "Ġentire": 2325,
      "ĠFr": 2326,
      "arget": 2327,
      "yle": 2328,
      "Ġwent": 2329,
      "Ġtechnology": 2330,
      "Ġstrateg": 2331,
      "Ġarticle": 2332,
      "Ġmor": 2333,
      "ĠSome": 2334,
      "book": 2335,
      "irl": 2336,
      "ĠNe": 2337,
      "Ġsubject": 2338,
      "Ġden": 2339,
      "ties": 2340,
      "ĠMed": 2341,
      "Ġword": 2342,
      "Ġcontrib": 2343,
      "action": 2344,
      "AS": 2345,
      "lam": 2346,
      "ĠAfter": 2347,
      ".)": 2348,
      "nces": 2349,
      "ication": 2350,
      "fully": 2351,
      "Ġissues": 2352,
      "Ġpath": 2353,
      "Ġcases": 2354,
      "Ġpie": 2355,
      "Ġbar": 2356,
      "Ġtemper": 2357,
      "Ġanalysis": 2358,
      "Ġbelieve": 2359,
      "ores": 2360,
      "Ġmembers": 2361,
      "Ġwa": 2362,
      "empt": 2363,
      "Ġconditions": 2364,
      "Ġespecially": 2365,
      "Ġbreak": 2366,
      "iment": 2367,
      "itor": 2368,
      "Ġdeb": 2369,
      "Ġbad": 2370,
      "Ġground": 2371,
      "Ġlower": 2372,
      "ĠNot": 2373,
      "aging": 2374,
      "Ġlanguage": 2375,
      "equ": 2376,
      "ules": 2377,
      "Ġnight": 2378,
      "Ã¡": 2379,
      "ĠĠĠĠ": 2380,
      "Ġmonths": 2381,
      "Ġstarted": 2382,
      "obal": 2383,
      "iol": 2384,
      "pping": 2385,
      "ruction": 2386,
      "Ġsurface": 2387,
      "imum": 2388,
      "ĠState": 2389,
      "Ġonline": 2390,
      "like": 2391,
      "Ġprobably": 2392,
      "ĠAf": 2393,
      "back": 2394,
      "AN": 2395,
      "Ġaccording": 2396,
      "Ġreview": 2397,
      "iver": 2398,
      "Ġpriv": 2399,
      "Ġneeded": 2400,
      "Ġestab": 2401,
      "aves": 2402,
      "Con": 2403,
      "Ġsym": 2404,
      "Ġforce": 2405,
      "Ġalmost": 2406,
      "ĠCo": 2407,
      "fect": 2408,
      "Ġattack": 2409,
      "Ġtaking": 2410,
      "blem": 2411,
      "Ġtrying": 2412,
      "Ġinflu": 2413,
      "Ġrepl": 2414,
      "Ġfrequ": 2415,
      "Ġtaken": 2416,
      "Ġpersonal": 2417,
      "Ġscient": 2418,
      "inary": 2419,
      "set": 2420,
      "Ġprevious": 2421,
      ")^": 2422,
      "ĠSol": 2423,
      "Ġachie": 2424,
      "bra": 2425,
      "Ġbuy": 2426,
      "Ġdoc": 2427,
      "Ġfile": 2428,
      "Ġcomment": 2429,
      "Ġspeed": 2430,
      "Ġexact": 2431,
      "Ġago": 2432,
      "mon": 2433,
      "Ġmatter": 2434,
      "Ġblack": 2435,
      "Ġred": 2436,
      "Ġmeasure": 2437,
      "Ġbecame": 2438,
      "oon": 2439,
      "Ġissue": 2440,
      "acy": 2441,
      "ĠPer": 2442,
      "che": 2443,
      "chan": 2444,
      "OR": 2445,
      "Ġisn": 2446,
      "Ġtravel": 2447,
      "Ġsite": 2448,
      "Ġgroups": 2449,
      "iate": 2450,
      "Ġrecogn": 2451,
      "Wh": 2452,
      "Ġâ": 2453,
      "Ġsense": 2454,
      "Ġselect": 2455,
      "ĠAss": 2456,
      "Ġdou": 2457,
      "ming": 2458,
      "ĠWorld": 2459,
      "Ġcompet": 2460,
      "ĠGu": 2461,
      "Ġgraph": 2462,
      "Ġoriginal": 2463,
      "Ġseems": 2464,
      "Ġconsum": 2465,
      "Ġinstead": 2466,
      "Ġge": 2467,
      "Ġconnect": 2468,
      "Ġbase": 2469,
      "ĠMat": 2470,
      "overed": 2471,
      "ero": 2472,
      "Ġsoci": 2473,
      "Ġrequired": 2474,
      "ift": 2475,
      "ĠWar": 2476,
      "Ġservices": 2477,
      "Ġdefin": 2478,
      "aving": 2479,
      "Ġexperien": 2480,
      "ĠUs": 2481,
      "aged": 2482,
      "EN": 2483,
      "Ġstandard": 2484,
      "anced": 2485,
      "ault": 2486,
      "Ġknowledge": 2487,
      "opy": 2488,
      "Ġitself": 2489,
      "ĠNational": 2490,
      "Ġeasy": 2491,
      "sin": 2492,
      "Ġcoll": 2493,
      "Ġpopulation": 2494,
      "Ġopportun": 2495,
      "Ġdifference": 2496,
      "Ġbuilding": 2497,
      "Ġ40": 2498,
      "Ġquality": 2499,
      "Ġgrowth": 2500,
      "Ġcamp": 2501,
      "Ġsimply": 2502,
      "Ġessential": 2503,
      "ĠEar": 2504,
      "Ġshows": 2505,
      "aced": 2506,
      "Ġobserv": 2507,
      "ĠPart": 2508,
      "leep": 2509,
      "Ġfriends": 2510,
      "lex": 2511,
      "Ġengine": 2512,
      "ns": 2513,
      "Ġloss": 2514,
      "Ġprovides": 2515,
      "Ġthemselves": 2516,
      "Ġimage": 2517,
      "Ġoccur": 2518,
      "Ġeverything": 2519,
      "()": 2520,
      "arc": 2521,
      "Ġnothing": 2522,
      "na": 2523,
      "Ġetc": 2524,
      "?\"": 2525,
      "Ġcomputer": 2526,
      "Ġweight": 2527,
      "Ġsquare": 2528,
      "ĠBrit": 2529,
      "'d": 2530,
      "Ġpack": 2531,
      "aff": 2532,
      "itch": 2533,
      "Ġsource": 2534,
      "ging": 2535,
      "Ġproducts": 2536,
      "Ġtypes": 2537,
      "Ġcode": 2538,
      "oor": 2539,
      "ditional": 2540,
      "Ġmach": 2541,
      "Ġut": 2542,
      "Ġcollect": 2543,
      "ites": 2544,
      "pper": 2545,
      "Ġquite": 2546,
      "Ġdevice": 2547,
      "Ġnetwork": 2548,
      "Ġfactors": 2549,
      "Ġ,": 2550,
      "IS": 2551,
      "ster": 2552,
      "Ġequal": 2553,
      "ĠJan": 2554,
      "Ġpict": 2555,
      "Ġpoly": 2556,
      "ops": 2557,
      "}\\": 2558,
      "Ġintrodu": 2559,
      "ino": 2560,
      "Ġcompan": 2561,
      "Ġpractice": 2562,
      "ĠGen": 2563,
      "apter": 2564,
      "Ġfav": 2565,
      "aching": 2566,
      "Ġtold": 2567,
      "Ġwhite": 2568,
      "Ġaccept": 2569,
      "Ġregard": 2570,
      "atives": 2571,
      "Ġver": 2572,
      "urch": 2573,
      "Ġshare": 2574,
      "Ġeffects": 2575,
      "iction": 2576,
      "ĠSim": 2577,
      "Ġdest": 2578,
      "Ġeducation": 2579,
      "Ġrelated": 2580,
      "Ġbring": 2581,
      "hib": 2582,
      "Ġeffic": 2583,
      "iddle": 2584,
      "Ġuser": 2585,
      "Ġmultiple": 2586,
      "reme": 2587,
      "sequ": 2588,
      "Ġperformance": 2589,
      "Ġcountries": 2590,
      "arr": 2591,
      "rams": 2592,
      "Ġminutes": 2593,
      "Ġ>": 2594,
      "tain": 2595,
      "Ġplant": 2596,
      "lim": 2597,
      "Ġpattern": 2598,
      "Ġfilm": 2599,
      "Ġlink": 2600,
      "ÃŃ": 2601,
      "ĠGerm": 2602,
      "lt": 2603,
      "Ġste": 2604,
      "Ġ197": 2605,
      "Ġmedia": 2606,
      "Ġvideo": 2607,
      "Ġtarget": 2608,
      "Ġcal": 2609,
      "ĠHis": 2610,
      "Ġpolitical": 2611,
      "ĠPar": 2612,
      "rec": 2613,
      "idered": 2614,
      "Ġsal": 2615,
      "Com": 2616,
      "istance": 2617,
      "Ġparts": 2618,
      "Ġparticip": 2619,
      "ences": 2620,
      "ensive": 2621,
      "ĠAb": 2622,
      "ĠThen": 2623,
      "Ġ198": 2624,
      "Ġteac": 2625,
      "Ġphysical": 2626,
      "ĠSec": 2627,
      "Ġeveryone": 2628,
      "Ġaction": 2629,
      "uf": 2630,
      "On": 2631,
      "lor": 2632,
      "ancial": 2633,
      "Ġsepar": 2634,
      "Ġmiss": 2635,
      "elt": 2636,
      "Ġhor": 2637,
      "uted": 2638,
      "ĠYour": 2639,
      "Ġprotect": 2640,
      "Ġcreated": 2641,
      "oura": 2642,
      "Ġseason": 2643,
      "Ġasked": 2644,
      "iet": 2645,
      "AC": 2646,
      "Ġspecies": 2647,
      "Ġ21": 2648,
      "oph": 2649,
      "Ġprovided": 2650,
      "joy": 2651,
      "Ġmathemat": 2652,
      "Ġsix": 2653,
      "ball": 2654,
      "amed": 2655,
      "enge": 2656,
      "Ġroom": 2657,
      "asc": 2658,
      "Ġliving": 2659,
      "Ġaverage": 2660,
      "Ġassociated": 2661,
      "Ġthird": 2662,
      "ili": 2663,
      "Ġdraw": 2664,
      "II": 2665,
      "}\\)": 2666,
      "Ġsex": 2667,
      "mat": 2668,
      "Ġtakes": 2669,
      "Ġprinc": 2670,
      "Ġpage": 2671,
      "ĠEm": 2672,
      "Ġwalk": 2673,
      "ĠIntern": 2674,
      "Ġdeep": 2675,
      "Ġbehind": 2676,
      "Ġoil": 2677,
      "Ġrecomm": 2678,
      "Ġrat": 2679,
      "uel": 2680,
      "Ġpret": 2681,
      "Ġpressure": 2682,
      "Ġlonger": 2683,
      "estion": 2684,
      "Ġmethods": 2685,
      "Ġstates": 2686,
      "Ġcompon": 2687,
      "ĠMr": 2688,
      "umb": 2689,
      "Ġconsidered": 2690,
      "ĠEnglish": 2691,
      "Ġactivity": 2692,
      "Ġmoment": 2693,
      "Ġce": 2694,
      "ux": 2695,
      "Ġnormal": 2696,
      "ius": 2697,
      "Ġtable": 2698,
      "Ġbir": 2699,
      "ada": 2700,
      "minist": 2701,
      "come": 2702,
      "Ġsomet": 2703,
      "Ġjo": 2704,
      "ĠDes": 2705,
      "hold": 2706,
      "ament": 2707,
      "istics": 2708,
      "Ġcard": 2709,
      "ĠMin": 2710,
      "eed": 2711,
      "mathb": 2712,
      "Ġbrain": 2713,
      "Ġep": 2714,
      "load": 2715,
      "Ġwrite": 2716,
      "Ġ23": 2717,
      "Ġlat": 2718,
      "light": 2719,
      "Ġresponse": 2720,
      "Ġproduction": 2721,
      "Ġfinal": 2722,
      "Ġchalleng": 2723,
      "Ġstay": 2724,
      "Ġcred": 2725,
      "AL": 2726,
      "ĠPe": 2727,
      "ĠComp": 2728,
      "45": 2729,
      "Ġbegan": 2730,
      "Ġevidence": 2731,
      "based": 2732,
      "Ġwond": 2733,
      "Ġavoid": 2734,
      "Ġ\\\\": 2735,
      "Ġfire": 2736,
      "Ġstra": 2737,
      "olic": 2738,
      "Ġfront": 2739,
      "osing": 2740,
      "clusion": 2741,
      "Ġnecessary": 2742,
      "ĠStud": 2743,
      "ems": 2744,
      "Ġcat": 2745,
      "lege": 2746,
      "ĠCal": 2747,
      "sec": 2748,
      "Ġwide": 2749,
      "ĠAct": 2750,
      "imals": 2751,
      "Ġdrug": 2752,
      "Ġexpect": 2753,
      "imately": 2754,
      "Ġsequ": 2755,
      "ached": 2756,
      "Ġaffect": 2757,
      "Ġaud": 2758,
      "Ġslow": 2759,
      "Ġnature": 2760,
      "Ġfoot": 2761,
      "Ġpopular": 2762,
      "itary": 2763,
      "27": 2764,
      "Ġshown": 2765,
      "Ġdemon": 2766,
      "Ġresources": 2767,
      "uth": 2768,
      "ĠSouth": 2769,
      "head": 2770,
      "Ġinside": 2771,
      "ension": 2772,
      "ony": 2773,
      "Ġskills": 2774,
      "ese": 2775,
      "Ġapplication": 2776,
      "ixed": 2777,
      "Ġsolve": 2778,
      "Ġinvestig": 2779,
      "unch": 2780,
      "Ġwebs": 2781,
      "Ġdetermine": 2782,
      "elling": 2783,
      "Ġwritten": 2784,
      "Ġcontact": 2785,
      "gest": 2786,
      "Ġevents": 2787,
      "iam": 2788,
      "Ġoffer": 2789,
      "Ġmulti": 2790,
      "Ġoutside": 2791,
      "time": 2792,
      "Ġstudies": 2793,
      "Ġanaly": 2794,
      "rown": 2795,
      "Ġincreased": 2796,
      "ĠAfric": 2797,
      "astic": 2798,
      "ED": 2799,
      "Ġability": 2800,
      "Ġ...": 2801,
      "ground": 2802,
      "Ġsearch": 2803,
      "tic": 2804,
      "Ġunit": 2805,
      "ĠAmerica": 2806,
      "ender": 2807,
      "ĠYork": 2808,
      "oved": 2809,
      "erve": 2810,
      "ners": 2811,
      "Ġinitial": 2812,
      "ĠKe": 2813,
      "Ġwriting": 2814,
      "Ġcross": 2815,
      "28": 2816,
      "Ġcoun": 2817,
      "Ġagree": 2818,
      "Ġnews": 2819,
      "Ġformula": 2820,
      "raft": 2821,
      "ana": 2822,
      "erson": 2823,
      "Ġsides": 2824,
      "Ġsometimes": 2825,
      "Ġri": 2826,
      "Ġeval": 2827,
      "ĠAust": 2828,
      "sych": 2829,
      "enc": 2830,
      "ille": 2831,
      "Ġball": 2832,
      "emic": 2833,
      "Ġnational": 2834,
      "Ġlines": 2835,
      "Ġregular": 2836,
      "Ġmedical": 2837,
      "hern": 2838,
      "Ġunique": 2839,
      "cell": 2840,
      "ceed": 2841,
      "uary": 2842,
      "itude": 2843,
      "Sh": 2844,
      "Ġcompanies": 2845,
      "33": 2846,
      "Ġmax": 2847,
      "Ġyourself": 2848,
      "Ġur": 2849,
      "Ġmanagement": 2850,
      "Ġscience": 2851,
      "Ġdu": 2852,
      "Ġindustry": 2853,
      "Ġprice": 2854,
      "Ġnegative": 2855,
      "ĠWhile": 2856,
      "Ġadded": 2857,
      "Ġchem": 2858,
      "Ġattempt": 2859,
      "Ġsil": 2860,
      "Ġmechan": 2861,
      "Ġstudent": 2862,
      "Ġclean": 2863,
      "pri": 2864,
      "26": 2865,
      "orks": 2866,
      "Ġenjoy": 2867,
      "Ġimplement": 2868,
      "Ġtowards": 2869,
      "99": 2870,
      "ĠNow": 2871,
      "Ġbal": 2872,
      "abor": 2873,
      "Ġheav": 2874,
      "ĠPres": 2875,
      "Ġmeaning": 2876,
      "IC": 2877,
      "reng": 2878,
      "Ġstructure": 2879,
      "ĠNorth": 2880,
      "Ġrelig": 2881,
      "ening": 2882,
      "ĠWill": 2883,
      "haps": 2884,
      "Ġreading": 2885,
      "ama": 2886,
      "Ġrunning": 2887,
      "Ġgives": 2888,
      "Ġexpression": 2889,
      "Ġfactor": 2890,
      "Ġcancer": 2891,
      "Ġversion": 2892,
      "ournal": 2893,
      "Ġhope": 2894,
      "Ġdistance": 2895,
      "ĠLet": 2896,
      "Ġeyes": 2897,
      "Ġgreater": 2898,
      "Ġfunctions": 2899,
      "NA": 2900,
      "Ġwrong": 2901,
      "Ġexc": 2902,
      "ithm": 2903,
      "ae": 2904,
      "Ġcontinue": 2905,
      "Ġdog": 2906,
      "ĠAg": 2907,
      "OS": 2908,
      "Ġeffective": 2909,
      "irection": 2910,
      "Ġconstant": 2911,
      "gebra": 2912,
      "osis": 2913,
      "ĠJu": 2914,
      "Ġmicro": 2915,
      "oly": 2916,
      "just": 2917,
      "Ġmodern": 2918,
      "acc": 2919,
      "By": 2920,
      "erous": 2921,
      "pose": 2922,
      "Ġrev": 2923,
      "su": 2924,
      "Ġgames": 2925,
      "pre": 2926,
      "Ġstop": 2927,
      "ww": 2928,
      "ivil": 2929,
      "bon": 2930,
      "log": 2931,
      "ĠAug": 2932,
      "resp": 2933,
      "Ġfeed": 2934,
      "Ġbur": 2935,
      "Ġtraining": 2936,
      "iques": 2937,
      "Ġgirl": 2938,
      "oe": 2939,
      "Ġexerc": 2940,
      "Ġlives": 2941,
      "Ġones": 2942,
      "Ġregion": 2943,
      "Ġ22": 2944,
      "Ġsaw": 2945,
      "Ġactivities": 2946,
      "ĠOct": 2947,
      "Ġsoon": 2948,
      "Ġtit": 2949,
      "Ġsun": 2950,
      "Ġdeveloped": 2951,
      "Ġprote": 2952,
      "Ġcolor": 2953,
      "aches": 2954,
      "ĠNum": 2955,
      "Ġappl": 2956,
      "ogle": 2957,
      "wise": 2958,
      "uge": 2959,
      "apan": 2960,
      "Ġhistor": 2961,
      "Ġwatch": 2962,
      "Ġconsist": 2963,
      "ĠMore": 2964,
      "Ġ27": 2965,
      "Ġincludes": 2966,
      "ief": 2967,
      "Ġviol": 2968,
      "Ġfeet": 2969,
      "Ġperfect": 2970,
      "Ġgas": 2971,
      "ĠCalcul": 2972,
      "100": 2973,
      "ĠEqu": 2974,
      "Ġmother": 2975,
      "Ġliter": 2976,
      "Ġsoftware": 2977,
      "IT": 2978,
      "Ġstri": 2979,
      "ĠApr": 2980,
      "ription": 2981,
      "Ġrecent": 2982,
      "Ġ60": 2983,
      "Ġsus": 2984,
      "Ġblock": 2985,
      "ĠEd": 2986,
      "irm": 2987,
      "Ġsection": 2988,
      "reet": 2989,
      "Ġcommit": 2990,
      "Ġprec": 2991,
      "Ġflu": 2992,
      "artment": 2993,
      "ager": 2994,
      "ifying": 2995,
      "arily": 2996,
      "Ġmagn": 2997,
      "Ġupd": 2998,
      "Ġfinancial": 2999,
      "....": 3000,
      "Ġinvolved": 3001,
      "itation": 3002,
      "Ġincreasing": 3003,
      "ounds": 3004,
      "Ġhimself": 3005,
      "Ġund": 3006,
      "inks": 3007,
      "://": 3008,
      "Ġofficial": 3009,
      "ratic": 3010,
      "Ġuses": 3011,
      "order": 3012,
      "Ġindividuals": 3013,
      "aly": 3014,
      "Ġcentury": 3015,
      "Ġallows": 3016,
      "aily": 3017,
      "off": 3018,
      "IG": 3019,
      "org": 3020,
      "))": 3021,
      "One": 3022,
      "Ġstress": 3023,
      "Ġreduce": 3024,
      "Ġremember": 3025,
      "Ġthroughout": 3026,
      "earch": 3027,
      "Ġsleep": 3028,
      "Ġcondition": 3029,
      "Ġrelative": 3030,
      "vant": 3031,
      "ares": 3032,
      "Ġquant": 3033,
      "Ġhelps": 3034,
      "Ġhands": 3035,
      "ĠCons": 3036,
      "Ġsafe": 3037,
      "theta": 3038,
      "||": 3039,
      "ding": 3040,
      "ĠJust": 3041,
      "Ġfram": 3042,
      "35": 3043,
      "Ġdesigned": 3044,
      "Ġrights": 3045,
      "uments": 3046,
      "Ġmention": 3047,
      "aries": 3048,
      "Ġindepend": 3049,
      "Ġ28": 3050,
      "ecause": 3051,
      "Ġglobal": 3052,
      "used": 3053,
      "Ġarch": 3054,
      "Ġpublished": 3055,
      "Ġconduct": 3056,
      "Ġsuff": 3057,
      "Ġwanted": 3058,
      "Ġlost": 3059,
      "icles": 3060,
      "rim": 3061,
      "ĠBar": 3062,
      "hood": 3063,
      "Now": 3064,
      "Ġeconomic": 3065,
      "pite": 3066,
      "Ġensure": 3067,
      "oles": 3068,
      "Ġskin": 3069,
      "Ġimag": 3070,
      "ĠFind": 3071,
      "oud": 3072,
      "Ġequations": 3073,
      "ha": 3074,
      "Ġattention": 3075,
      "Ġtemperature": 3076,
      "Ġlate": 3077,
      "Ġbuilt": 3078,
      "ields": 3079,
      "90": 3080,
      "Ġsecurity": 3081,
      "Ġdecl": 3082,
      "asons": 3083,
      "ĠMc": 3084,
      "ĠDr": 3085,
      "Ġspeak": 3086,
      "ĠPre": 3087,
      "Ġfight": 3088,
      "que": 3089,
      "ccording": 3090,
      "Ġwall": 3091,
      "Ġinn": 3092,
      "Ġcover": 3093,
      "Ġthinking": 3094,
      "Ġ2012": 3095,
      "ĠCount": 3096,
      "Ġpretty": 3097,
      "ĠDep": 3098,
      "ĠHere": 3099,
      "Ġcompared": 3100,
      "fficient": 3101,
      "Ġgoes": 3102,
      "dom": 3103,
      "Re": 3104,
      "Ġstreng": 3105,
      "Ġscreen": 3106,
      "Ġbeaut": 3107,
      "ĠMarch": 3108,
      "Ġpick": 3109,
      "rated": 3110,
      "ĠReg": 3111,
      "eks": 3112,
      "Ġsituation": 3113,
      "Ġfem": 3114,
      "ĠAre": 3115,
      "ĠRec": 3116,
      "Ġque": 3117,
      "Ġheld": 3118,
      "Ġelements": 3119,
      "inally": 3120,
      "ĠProblem": 3121,
      "Ġfeatures": 3122,
      "Ġ26": 3123,
      "Ġvia": 3124,
      "Ġparents": 3125,
      "Ġquickly": 3126,
      "Ġexactly": 3127,
      "orem": 3128,
      "Ġdom": 3129,
      "Ġreve": 3130,
      "fort": 3131,
      "Ġled": 3132,
      "Ġhot": 3133,
      "Ġbehavior": 3134,
      "Is": 3135,
      "}{\\": 3136,
      "Ġemot": 3137,
      "Ġassess": 3138,
      "Ġcapt": 3139,
      "Ġfit": 3140,
      "Ġfast": 3141,
      "Ġaltern": 3142,
      "Ġhost": 3143,
      "RE": 3144,
      "36": 3145,
      "Ġapplications": 3146,
      "andom": 3147,
      "year": 3148,
      "Ġanyone": 3149,
      "Ġproperty": 3150,
      "alle": 3151,
      "bl": 3152,
      "Cl": 3153,
      "Ġdemonstr": 3154,
      "idge": 3155,
      "Ġwoman": 3156,
      "Ġfat": 3157,
      "ades": 3158,
      "Ġexcept": 3159,
      "ĠCor": 3160,
      "zz": 3161,
      "Ġinj": 3162,
      "Ġbox": 3163,
      "ractions": 3164,
      "oes": 3165,
      "Ġworth": 3166,
      "oke": 3167,
      "Ġdecision": 3168,
      "Ġ2013": 3169,
      "Ġroad": 3170,
      "rought": 3171,
      "Ġmember": 3172,
      "Ġlack": 3173,
      "rick": 3174,
      "Ġreceived": 3175,
      "iber": 3176,
      "ĠEl": 3177,
      "gor": 3178,
      "isions": 3179,
      "Le": 3180,
      "unction": 3181,
      "Ph": 3182,
      "stitute": 3183,
      "Ġtown": 3184,
      "Ġexec": 3185,
      "ĠSub": 3186,
      "Ġheat": 3187,
      "Ġcommand": 3188,
      "uous": 3189,
      "iles": 3190,
      "bit": 3191,
      "rig": 3192,
      "29": 3193,
      "Ġleave": 3194,
      "Ġparticularly": 3195,
      "Ġjud": 3196,
      "hel": 3197,
      "Ġcoming": 3198,
      "Ġsurv": 3199,
      "ĠJune": 3200,
      "Ġsold": 3201,
      "ederal": 3202,
      "aling": 3203,
      "circ": 3204,
      "ils": 3205,
      "Ġaspect": 3206,
      "uk": 3207,
      "Ġcontext": 3208,
      "more": 3209,
      "Ġrefer": 3210,
      "Ġ2010": 3211,
      "Ġtrack": 3212,
      "Ġautom": 3213,
      "Ġserious": 3214,
      "=\"": 3215,
      "Ġful": 3216,
      "inter": 3217,
      "75": 3218,
      "rench": 3219,
      "Ġprint": 3220,
      "Ġtou": 3221,
      "ĠSchool": 3222,
      "ĠJapan": 3223,
      "oice": 3224,
      "Ġculture": 3225,
      "arrow": 3226,
      "Ġpolicy": 3227,
      "Ġincluded": 3228,
      "ened": 3229,
      "Ġcontain": 3230,
      "Ġangle": 3231,
      "Ġgreen": 3232,
      "ptember": 3233,
      "Ġeasily": 3234,
      "ĠFrom": 3235,
      "Ġadditional": 3236,
      "Ġdocument": 3237,
      "Ġbasic": 3238,
      "met": 3239,
      "Ġcru": 3240,
      "Ġaim": 3241,
      "Ġdirection": 3242,
      "yond": 3243,
      "Ġnut": 3244,
      "ĠFirst": 3245,
      "rast": 3246,
      "airs": 3247,
      "ĠSm": 3248,
      "Ġsong": 3249,
      "rate": 3250,
      "ĠChar": 3251,
      "Ġsn": 3252,
      "add": 3253,
      "Ġsolutions": 3254,
      "Ġkids": 3255,
      "Ġhon": 3256,
      "Ġsympt": 3257,
      "ype": 3258,
      "Ġfather": 3259,
      "ĠKing": 3260,
      "osition": 3261,
      "Qu": 3262,
      "Ġconvers": 3263,
      "Ġ2011": 3264,
      "Ġextra": 3265,
      "Ġir": 3266,
      "US": 3267,
      "Ġcenter": 3268,
      "Ġlimit": 3269,
      "Ġdirectly": 3270,
      "ography": 3271,
      "Ġpan": 3272,
      "rag": 3273,
      "ĠRuss": 3274,
      "Ġproperties": 3275,
      "ET": 3276,
      "',": 3277,
      "Ġbenefits": 3278,
      "Ġdescribed": 3279,
      "ucle": 3280,
      "amer": 3281,
      "ĠOb": 3282,
      "Ġsteps": 3283,
      "ulations": 3284,
      "Ġgets": 3285,
      "Ġvisit": 3286,
      "Ġimmed": 3287,
      "Ġsociety": 3288,
      "Ġemerg": 3289,
      "ĠAng": 3290,
      "ĠVal": 3291,
      "Ġmaterials": 3292,
      "ufact": 3293,
      "cember": 3294,
      "irit": 3295,
      "omen": 3296,
      "ĠExample": 3297,
      "ĠCO": 3298,
      "Ġparty": 3299,
      "body": 3300,
      "ĠFeb": 3301,
      "Ġphone": 3302,
      "Ġroot": 3303,
      "illing": 3304,
      "vey": 3305,
      "Ġreported": 3306,
      "No": 3307,
      "Ġpoor": 3308,
      "Ġthreat": 3309,
      "Ġchoose": 3310,
      "Ġmis": 3311,
      "undred": 3312,
      "ĠApril": 3313,
      "Ġson": 3314,
      "Ġprep": 3315,
      "Ġfair": 3316,
      "Ġapprox": 3317,
      "Ġdrive": 3318,
      "Ġtried": 3319,
      "Ġprior": 3320,
      "Ġ`": 3321,
      "ĠTra": 3322,
      "lier": 3323,
      "Ġappe": 3324,
      "ordin": 3325,
      "Ġtools": 3326,
      "yth": 3327,
      "Ġemail": 3328,
      "know": 3329,
      "amb": 3330,
      "cles": 3331,
      "ĠSw": 3332,
      "ults": 3333,
      "32": 3334,
      "AM": 3335,
      "ĠChina": 3336,
      "Ġfavor": 3337,
      "Ġencoura": 3338,
      "Ġten": 3339,
      "key": 3340,
      "ĠPa": 3341,
      "eration": 3342,
      "Ġsect": 3343,
      "Ġformer": 3344,
      "Ġhit": 3345,
      "Ġcourt": 3346,
      "ĠJanuary": 3347,
      "Ġheard": 3348,
      "Ġbooks": 3349,
      "Ġuseful": 3350,
      "ĠDon": 3351,
      "Ġsaying": 3352,
      "rapy": 3353,
      "Ġplants": 3354,
      "Us": 3355,
      "Ġproduce": 3356,
      "Ġwhose": 3357,
      "room": 3358,
      "Ġsubst": 3359,
      "Ġremain": 3360,
      "64": 3361,
      "Ġworked": 3362,
      "ĠSystem": 3363,
      "Ġleaders": 3364,
      "Ġbecomes": 3365,
      "Ġstru": 3366,
      "Ġpurch": 3367,
      "Ġload": 3368,
      "ronic": 3369,
      "ĠHer": 3370,
      "Ġsimpl": 3371,
      "Ġrules": 3372,
      "ĠWhy": 3373,
      "mission": 3374,
      "Ġreflect": 3375,
      "ĠGl": 3376,
      "Ġideas": 3377,
      "Ġdecre": 3378,
      "Ġbroad": 3379,
      "ovember": 3380,
      "Ġforward": 3381,
      "Ġeat": 3382,
      "At": 3383,
      "ĠHar": 3384,
      "standing": 3385,
      "Ġwebsite": 3386,
      "70": 3387,
      "Ġweeks": 3388,
      "Ġdisplay": 3389,
      "Ġprivate": 3390,
      "Ġtur": 3391,
      "raw": 3392,
      "Ġ\\((": 3393,
      "Ġextreme": 3394,
      "ĠAugust": 3395,
      "ellow": 3396,
      "estern": 3397,
      "quad": 3398,
      "ĠHealth": 3399,
      "ought": 3400,
      "Ã¤": 3401,
      "racy": 3402,
      "Ġrule": 3403,
      "AD": 3404,
      "That": 3405,
      "ĠMon": 3406,
      "ague": 3407,
      "Ġhealthy": 3408,
      "EC": 3409,
      "ris": 3410,
      "ĠEarth": 3411,
      "ham": 3412,
      "ube": 3413,
      "Ġgenerally": 3414,
      "ĠOut": 3415,
      "Ġlarger": 3416,
      "Ġusers": 3417,
      "Ġtheory": 3418,
      "omb": 3419,
      "ĠSer": 3420,
      "with": 3421,
      "Ġcritical": 3422,
      "ĠPost": 3423,
      "lation": 3424,
      "Ġgoal": 3425,
      "Ġ_": 3426,
      "pot": 3427,
      "Ġshall": 3428,
      "Ġmemory": 3429,
      "Un": 3430,
      "vere": 3431,
      "Ġanimals": 3432,
      "ĠBritish": 3433,
      "Ġadminist": 3434,
      "ĠMus": 3435,
      "omial": 3436,
      "gar": 3437,
      "cont": 3438,
      "Ġcompletely": 3439,
      "Ġdark": 3440,
      "Ġthus": 3441,
      "Â°": 3442,
      "ĠJuly": 3443,
      "ĠUnder": 3444,
      "ĠCity": 3445,
      "ashing": 3446,
      "Ġinteresting": 3447,
      "respond": 3448,
      "isf": 3449,
      "ests": 3450,
      "Ġexpected": 3451,
      "Ġharm": 3452,
      "Ġdead": 3453,
      "ocks": 3454,
      "Ġpatient": 3455,
      "Ġlif": 3456,
      "Be": 3457,
      "att": 3458,
      "Ġleading": 3459,
      "ĠPol": 3460,
      "Ġvolume": 3461,
      "Sc": 3462,
      "Ġmount": 3463,
      "Ġcosts": 3464,
      "Let": 3465,
      "Ġoutput": 3466,
      "ara": 3467,
      "Ġcool": 3468,
      "Ġveh": 3469,
      "ny": 3470,
      "ĠTrans": 3471,
      "ĠPresident": 3472,
      "Ġvot": 3473,
      ")(": 3474,
      "atform": 3475,
      "ios": 3476,
      "48": 3477,
      "Ġappropri": 3478,
      "Ġthous": 3479,
      "Ġsort": 3480,
      "Ġconcent": 3481,
      "rote": 3482,
      "bor": 3483,
      "Ġaware": 3484,
      "Ġelement": 3485,
      "38": 3486,
      "rant": 3487,
      "Ġerror": 3488,
      "Ġinput": 3489,
      "Ġspread": 3490,
      "ĠHist": 3491,
      "Ġ)": 3492,
      "Ġprograms": 3493,
      "ĠSince": 3494,
      "Ġtraditional": 3495,
      "ica": 3496,
      "^\\": 3497,
      "Ġprogress": 3498,
      "Ġcook": 3499,
      "Ġinsp": 3500,
      "Ġdate": 3501,
      "ĠAc": 3502,
      "ying": 3503,
      "Ġprobability": 3504,
      "rees": 3505,
      "Ġdistribution": 3506,
      "Ġmag": 3507,
      "Ġfigure": 3508,
      "Ġinstance": 3509,
      "Ġweb": 3510,
      "dro": 3511,
      "Ġ2009": 3512,
      "Ġachieve": 3513,
      "Ad": 3514,
      "ĠMath": 3515,
      "Ġbank": 3516,
      "Ġoptions": 3517,
      "With": 3518,
      "ynam": 3519,
      "odes": 3520,
      "ĠUse": 3521,
      "Ġdefined": 3522,
      "Ġmovement": 3523,
      "Ġoption": 3524,
      "ĠPat": 3525,
      "Ġfish": 3526,
      "Ġcaused": 3527,
      "ĠSeptember": 3528,
      "pm": 3529,
      "Ġdemand": 3530,
      "overy": 3531,
      "untu": 3532,
      "Ġbott": 3533,
      "amin": 3534,
      "ĠAustral": 3535,
      "resh": 3536,
      "king": 3537,
      "Ġcand": 3538,
      "imens": 3539,
      "Ġmilitary": 3540,
      "Ġpsych": 3541,
      "Ġgave": 3542,
      "ĠLog": 3543,
      "mar": 3544,
      "Ġenh": 3545,
      "Ġparam": 3546,
      "rs": 3547,
      "Ġarri": 3548,
      "Ġestim": 3549,
      "BC": 3550,
      "ĠChe": 3551,
      "ĠInst": 3552,
      "ession": 3553,
      "aint": 3554,
      "iring": 3555,
      "ĠDav": 3556,
      "Ġforms": 3557,
      "Ġprimary": 3558,
      "04": 3559,
      "Ġdigital": 3560,
      "AP": 3561,
      "Ġmoving": 3562,
      "oman": 3563,
      "Ġpicture": 3564,
      "ĠOctober": 3565,
      "Ġpurpose": 3566,
      "Ġ2008": 3567,
      "Ġdiagn": 3568,
      "eds": 3569,
      "nes": 3570,
      "ĠII": 3571,
      "word": 3572,
      "oming": 3573,
      "Ġmid": 3574,
      "Ġelectric": 3575,
      "Ġdie": 3576,
      "Im": 3577,
      "ĠMod": 3578,
      "ĠDecember": 3579,
      "Ġresearc": 3580,
      "Ġmachine": 3581,
      "Ġtechniques": 3582,
      "ĠBr": 3583,
      "Ġcreating": 3584,
      "ancy": 3585,
      "ibly": 3586,
      "Ġhundred": 3587,
      "ĠBo": 3588,
      "Ġcry": 3589,
      "ruary": 3590,
      "amples": 3591,
      "mathbf": 3592,
      "!!": 3593,
      "ĠOur": 3594,
      "Ġreach": 3595,
      "Ġ@": 3596,
      "Ġsymptoms": 3597,
      "Ġinteract": 3598,
      "Ġdat": 3599,
      "Ġswe": 3600,
      "Ġexplore": 3601,
      "iency": 3602,
      "ii": 3603,
      "Ġevalu": 3604,
      "erences": 3605,
      "Ġmanufact": 3606,
      "Ġanc": 3607,
      "Ġdetails": 3608,
      "^{-": 3609,
      "Ġturned": 3610,
      "xy": 3611,
      "itable": 3612,
      "Ġvict": 3613,
      "Ġlegal": 3614,
      "Ġdevices": 3615,
      "Ġrepe": 3616,
      "05": 3617,
      "Ġ29": 3618,
      "Ġround": 3619,
      "lin": 3620,
      "34": 3621,
      "Ġalone": 3622,
      "Ġdamage": 3623,
      "olute": 3624,
      "Ġchance": 3625,
      "Ġ$\\": 3626,
      "ĠSch": 3627,
      "ĠArt": 3628,
      "Ġrequires": 3629,
      "Ġcapac": 3630,
      "pec": 3631,
      "Ġstories": 3632,
      "ĠMost": 3633,
      "place": 3634,
      "My": 3635,
      "ĠOf": 3636,
      "Ġult": 3637,
      "ĠWest": 3638,
      "Ġfelt": 3639,
      "Ġnamed": 3640,
      "ĠDem": 3641,
      "aled": 3642,
      "aught": 3643,
      "Ġdaily": 3644,
      "Ġplaces": 3645,
      "Ġoperations": 3646,
      "izes": 3647,
      "!\"": 3648,
      "Ġlimited": 3649,
      "Ġdang": 3650,
      "iful": 3651,
      "Ġfeature": 3652,
      "ĠLa": 3653,
      "eters": 3654,
      "Ġdivid": 3655,
      "Ġdro": 3656,
      "$.": 3657,
      "Ġbab": 3658,
      "ION": 3659,
      "Ġcit": 3660,
      "Ġhab": 3661,
      "Ġplaying": 3662,
      "ospital": 3663,
      "rie": 3664,
      "Ġsurpr": 3665,
      "Ġrecently": 3666,
      "Ġadvant": 3667,
      "Ġtas": 3668,
      "ban": 3669,
      "Ġstore": 3670,
      "Ġcontract": 3671,
      "osure": 3672,
      "Ġplayed": 3673,
      "Ġcontroll": 3674,
      "inct": 3675,
      "Ġalthough": 3676,
      "Ġbeyond": 3677,
      "Ġsafety": 3678,
      "term": 3679,
      "oo": 3680,
      "Ġinternational": 3681,
      "ĠIndia": 3682,
      "Ġwasn": 3683,
      "Ġcarry": 3684,
      "uration": 3685,
      "Ġpredict": 3686,
      "ees": 3687,
      "Ġhear": 3688,
      ")\\)": 3689,
      "Ġrates": 3690,
      "Ġclin": 3691,
      "Ġtherefore": 3692,
      "tained": 3693,
      "Ġmiddle": 3694,
      "ĠNovember": 3695,
      "Ġrot": 3696,
      "Ġbrought": 3697,
      "Ġconc": 3698,
      "ĠEven": 3699,
      "Ġinform": 3700,
      "Ġfear": 3701,
      "amental": 3702,
      "board": 3703,
      "Ġtriangle": 3704,
      "cast": 3705,
      "Ġenter": 3706,
      "ros": 3707,
      "Ġpiece": 3708,
      "Ġmob": 3709,
      "Ġtend": 3710,
      "Ġstraight": 3711,
      "Ġoffice": 3712,
      "Ġblog": 3713,
      "usion": 3714,
      "rab": 3715,
      "mbol": 3716,
      "65": 3717,
      "Ġinstit": 3718,
      "fl": 3719,
      "____": 3720,
      "Ġmodels": 3721,
      "Ġshape": 3722,
      "Ġdegree": 3723,
      "Ġlooked": 3724,
      "ST": 3725,
      "ensity": 3726,
      "```": 3727,
      "urance": 3728,
      "Ġactive": 3729,
      "Ġmedic": 3730,
      "oul": 3731,
      "ĠCour": 3732,
      "OT": 3733,
      "uit": 3734,
      "Ġclimate": 3735,
      "rial": 3736,
      "tery": 3737,
      "Ġfine": 3738,
      "ky": 3739,
      "iers": 3740,
      "Ġproced": 3741,
      "39": 3742,
      "Ġchoice": 3743,
      "ken": 3744,
      "ĠAlso": 3745,
      "ĠFrench": 3746,
      "Ġeth": 3747,
      "ĠForm": 3748,
      "ĠFl": 3749,
      "yp": 3750,
      "37": 3751,
      "Ġeye": 3752,
      "Ġtrust": 3753,
      "Ġknew": 3754,
      "Ġmessage": 3755,
      "Ġproduced": 3756,
      "ĠInter": 3757,
      "Ġgrowing": 3758,
      "Ġearth": 3759,
      "ĠExp": 3760,
      "ĠMany": 3761,
      "44": 3762,
      "Ġvariety": 3763,
      "do": 3764,
      "Ġrespond": 3765,
      "Why": 3766,
      "Ġmatch": 3767,
      "ga": 3768,
      "Ġcommunication": 3769,
      "Ġsmaller": 3770,
      "Ġcapital": 3771,
      "Ġwild": 3772,
      "Ġcredit": 3773,
      "ech": 3774,
      "Ġcorrespond": 3775,
      "Ġlooks": 3776,
      "Ġdiet": 3777,
      "Ġdepend": 3778,
      "Ġoverall": 3779,
      "ĠHouse": 3780,
      "ĠDis": 3781,
      "Ġsources": 3782,
      "Ġcurrently": 3783,
      "Ġpow": 3784,
      "Ġbirth": 3785,
      "Ġhighly": 3786,
      "point": 3787,
      "Ġlocation": 3788,
      "aign": 3789,
      "change": 3790,
      "Ġproviding": 3791,
      "ĠOther": 3792,
      "Sub": 3793,
      "Ġfarm": 3794,
      "Ġallowed": 3795,
      "Ġprofessional": 3796,
      "uild": 3797,
      "Ġlinear": 3798,
      "men": 3799,
      "Ġapply": 3800,
      "Ġsett": 3801,
      "alse": 3802,
      "Ġexamples": 3803,
      "Ġroll": 3804,
      "Ġrandom": 3805,
      "Ġassum": 3806,
      "Ġalgor": 3807,
      "Ġsust": 3808,
      "Ġboard": 3809,
      "ĠLaw": 3810,
      "Ġunits": 3811,
      "hens": 3812,
      "Ġ90": 3813,
      "Ġwarm": 3814,
      "ĠMac": 3815,
      "Ġdecided": 3816,
      "Ġzero": 3817,
      "ĠDef": 3818,
      "Ġ2014": 3819,
      "Ġstage": 3820,
      "Ġreceive": 3821,
      "Ġbound": 3822,
      "ĠÎ": 3823,
      "Ġillust": 3824,
      "aur": 3825,
      "ĠJew": 3826,
      "Ġcentral": 3827,
      "Ġreasons": 3828,
      "Ġstarting": 3829,
      "ilies": 3830,
      "ĠEuropean": 3831,
      "Ġcouple": 3832,
      "swers": 3833,
      "Ġplatform": 3834,
      "known": 3835,
      "ellig": 3836,
      "Ġgiving": 3837,
      "zy": 3838,
      "enty": 3839,
      "Ġpresident": 3840,
      "All": 3841,
      "ĠMult": 3842,
      "ternal": 3843,
      "Ġfiles": 3844,
      "umn": 3845,
      "Ġinvolves": 3846,
      "ĠServ": 3847,
      "(\"": 3848,
      "ĠWell": 3849,
      "mitted": 3850,
      "Ġplayers": 3851,
      "rade": 3852,
      "Ġchanged": 3853,
      "Ġheight": 3854,
      "rite": 3855,
      "Ã³n": 3856,
      "acebook": 3857,
      "which": 3858,
      "ĠTherefore": 3859,
      "Ġrob": 3860,
      "Ġschools": 3861,
      "rices": 3862,
      "Ġfinding": 3863,
      "Ġidentify": 3864,
      "acters": 3865,
      "Ġshowed": 3866,
      "Ġcivil": 3867,
      "Ġadapt": 3868,
      "Ġcircle": 3869,
      "Ġpolice": 3870,
      "Ġtele": 3871,
      "Ġstatement": 3872,
      "Ġfollowed": 3873,
      "ags": 3874,
      "that": 3875,
      "Ġaccom": 3876,
      "55": 3877,
      "Ġbeginning": 3878,
      "After": 3879,
      "ulated": 3880,
      "Ġwrote": 3881,
      "ij": 3882,
      "Ġstar": 3883,
      "imin": 3884,
      "Ġ%": 3885,
      "anc": 3886,
      "Ġpowerful": 3887,
      "Ġapplied": 3888,
      "Ġwood": 3889,
      "Res": 3890,
      "Ġforces": 3891,
      "01": 3892,
      "Ġnovel": 3893,
      "âĢĲ": 3894,
      "ĠRed": 3895,
      "Ste": 3896,
      "Ġ2016": 3897,
      "Ġchemical": 3898,
      "plication": 3899,
      "Ġvisual": 3900,
      "vest": 3901,
      "IV": 3902,
      "Ġsatisf": 3903,
      "rupt": 3904,
      "ulate": 3905,
      "Ġimages": 3906,
      "Ġcareer": 3907,
      "Ġneigh": 3908,
      "down": 3909,
      "Ġacqu": 3910,
      "ĠHigh": 3911,
      "Ġsurround": 3912,
      "Ġfa": 3913,
      "Ġvirt": 3914,
      "iday": 3915,
      "Ġtree": 3916,
      "Ġdrink": 3917,
      "ĠFebruary": 3918,
      "osite": 3919,
      "Ġhappens": 3920,
      "Ġborn": 3921,
      "Ġlocated": 3922,
      "Ġcauses": 3923,
      "des": 3924,
      "Ġincor": 3925,
      "Ġple": 3926,
      "Ġremains": 3927,
      "iant": 3928,
      "Ġplayer": 3929,
      "Ġ2020": 3930,
      "anation": 3931,
      "Ġmill": 3932,
      "HE": 3933,
      "ĠRepublic": 3934,
      "Ġcold": 3935,
      "Ġcompl": 3936,
      "Ġnation": 3937,
      "Ġwonder": 3938,
      "Ġplease": 3939,
      "Ġpromot": 3940,
      "izations": 3941,
      "ĠMark": 3942,
      "Ġrap": 3943,
      "ĠIS": 3944,
      "reed": 3945,
      "Ġscen": 3946,
      "Ġgradu": 3947,
      "Ġbed": 3948,
      "urt": 3949,
      "Ġax": 3950,
      "Ġsignificantly": 3951,
      "Ġsuccessful": 3952,
      "Ġrac": 3953,
      "rows": 3954,
      "Ġreleased": 3955,
      "Ġactual": 3956,
      "Ġtransport": 3957,
      "pen": 3958,
      "Ġcateg": 3959,
      "Ġdoor": 3960,
      "Ġconfig": 3961,
      "Ġqual": 3962,
      "otal": 3963,
      "Ġsave": 3964,
      "Ġhtt": 3965,
      "Ġ2015": 3966,
      "Ġbreat": 3967,
      "Ġtransfer": 3968,
      "but": 3969,
      "Ġopportunity": 3970,
      "oses": 3971,
      "].": 3972,
      "tr": 3973,
      "Ġmathematical": 3974,
      "roduction": 3975,
      "Ġbasis": 3976,
      "Ġsample": 3977,
      "Ġinfluence": 3978,
      "ometry": 3979,
      "Ġmaybe": 3980,
      "Ġratio": 3981,
      "range": 3982,
      "Ġles": 3983,
      "Ã¨": 3984,
      "Ġstrength": 3985,
      "Ġhuge": 3986,
      "Ġcontains": 3987,
      "Ġmental": 3988,
      "Ġcm": 3989,
      "Ġband": 3990,
      "Ġhappened": 3991,
      "Ġprefer": 3992,
      "Here": 3993,
      "ĠAnt": 3994,
      "ocal": 3995,
      "Ġanti": 3996,
      "ĠGoogle": 3997,
      "Ġitems": 3998,
      "iforn": 3999,
      "ico": 4000,
      "igned": 4001,
      "istry": 4002,
      "Ġdoub": 4003,
      "Ġexplain": 4004,
      "ĠNet": 4005,
      "Ġperhaps": 4006,
      "Ġappropriate": 4007,
      "inese": 4008,
      "ometric": 4009,
      "Ġ80": 4010,
      "Ġfru": 4011,
      "Ġgold": 4012,
      "cil": 4013,
      "Ġconnection": 4014,
      "Ġrelease": 4015,
      "Ġrecommend": 4016,
      "RO": 4017,
      "Ġnucle": 4018,
      "Ġchallenges": 4019,
      "iny": 4020,
      "78": 4021,
      "Ġaw": 4022,
      "Ġoffers": 4023,
      "ĠGr": 4024,
      "Ġhair": 4025,
      "Ġacid": 4026,
      "unk": 4027,
      "Ġsupply": 4028,
      "Ġreact": 4029,
      "Ġnote": 4030,
      "icon": 4031,
      "Ġearlier": 4032,
      "Ġpen": 4033,
      "gn": 4034,
      "Ġtalking": 4035,
      "iments": 4036,
      "da": 4037,
      "Ã¼": 4038,
      "orge": 4039,
      "Ġconcepts": 4040,
      "iter": 4041,
      "Ġcopy": 4042,
      "Ġcele": 4043,
      "Ġtask": 4044,
      "itect": 4045,
      "Ġclick": 4046,
      "Ġopin": 4047,
      "urg": 4048,
      "Ġfeeling": 4049,
      "ĠHel": 4050,
      "Ġestablished": 4051,
      "celer": 4052,
      "Ġcompar": 4053,
      "ously": 4054,
      "Ġconnected": 4055,
      "uses": 4056,
      "Ġrock": 4057,
      "Ġtransform": 4058,
      "Ġtrade": 4059,
      "vention": 4060,
      "Ġnearly": 4061,
      "oday": 4062,
      "Ġpul": 4063,
      "Ġcharacters": 4064,
      "duc": 4065,
      "Ġstrugg": 4066,
      "la": 4067,
      "ev": 4068,
      "Ġhous": 4069,
      "Ġsignal": 4070,
      "ĠAut": 4071,
      "Ġmiles": 4072,
      "Ġresearchers": 4073,
      "From": 4074,
      "rael": 4075,
      "hest": 4076,
      "Ġcharge": 4077,
      "Ġconstruct": 4078,
      "Ġadop": 4079,
      "igen": 4080,
      "orage": 4081,
      "ologies": 4082,
      "Ġstyle": 4083,
      "atever": 4084,
      "agon": 4085,
      "Ġsequence": 4086,
      "Ġready": 4087,
      "ext": 4088,
      "ĠPM": 4089,
      "à¤": 4090,
      "Ġobjects": 4091,
      "Ġprotein": 4092,
      "ifically": 4093,
      "They": 4094,
      "tes": 4095,
      "ĠDay": 4096,
      "Ġenvironmental": 4097,
      "Ġcomponents": 4098,
      "66": 4099,
      "Ġspirit": 4100,
      "ifornia": 4101,
      "ĠThus": 4102,
      "Ġconv": 4103,
      "Ġstuff": 4104,
      "Ġaren": 4105,
      "ams": 4106,
      "gment": 4107,
      "Ġmorning": 4108,
      "Ġmovie": 4109,
      "pective": 4110,
      "utive": 4111,
      "Ġdied": 4112,
      "ĠOver": 4113,
      "Ġformed": 4114,
      "Ġeasier": 4115,
      "ĠPark": 4116,
      "ocol": 4117,
      "Ġprocesses": 4118,
      "ĠUsing": 4119,
      "ancing": 4120,
      "ception": 4121,
      "iately": 4122,
      "49": 4123,
      "ĠBlack": 4124,
      "Ġ35": 4125,
      "Ġapprec": 4126,
      "mp": 4127,
      "31": 4128,
      "Ġmyself": 4129,
      "ĠRel": 4130,
      "Ġexercise": 4131,
      "ours": 4132,
      "Ġcomments": 4133,
      "Ġcarbon": 4134,
      "LE": 4135,
      "Ġeffort": 4136,
      "ĠIndian": 4137,
      "Ġtypically": 4138,
      "ondon": 4139,
      "Ġ2017": 4140,
      "Ġmoved": 4141,
      "no": 4142,
      "odies": 4143,
      "Ġfields": 4144,
      "Ġconver": 4145,
      "ĠGreat": 4146,
      "Ġvariable": 4147,
      "Ġcontinued": 4148,
      "PS": 4149,
      "Ġbul": 4150,
      "ĠWind": 4151,
      "ctors": 4152,
      "Ġimportance": 4153,
      "ald": 4154,
      "Ġexperiences": 4155,
      "Ġtrig": 4156,
      "Ġlearned": 4157,
      "aker": 4158,
      "Ġdeveloping": 4159,
      "urrent": 4160,
      "Ġbud": 4161,
      "Ġemp": 4162,
      "Ġsetting": 4163,
      "Ġcommunities": 4164,
      "ĠDiv": 4165,
      "Cont": 4166,
      "ĠLevel": 4167,
      "Ġbenefit": 4168,
      "ĠCong": 4169,
      "aughter": 4170,
      "Ġcampaign": 4171,
      "Ġdoll": 4172,
      "force": 4173,
      "TS": 4174,
      "ipment": 4175,
      "ĠEach": 4176,
      "ĠRem": 4177,
      "Ġkn": 4178,
      "roid": 4179,
      "iples": 4180,
      "Post": 4181,
      "Ġestablish": 4182,
      "col": 4183,
      "lands": 4184,
      "These": 4185,
      "Ġcommunic": 4186,
      "ĠSan": 4187,
      "Ġtruth": 4188,
      "Ġobvious": 4189,
      "Ġ2018": 4190,
      "Ġ2007": 4191,
      "Ġeconomy": 4192,
      "Ġord": 4193,
      "Ġefficient": 4194,
      "Ġscale": 4195,
      "ste": 4196,
      "idents": 4197,
      "rief": 4198,
      "Ġmath": 4199,
      "Ġmut": 4200,
      "Ã©s": 4201,
      "Ġblue": 4202,
      "ĠMich": 4203,
      "ĠDec": 4204,
      "ĠTwo": 4205,
      "ogen": 4206,
      "Ġfamilies": 4207,
      "Ġvoice": 4208,
      "Ġslight": 4209,
      "Solution": 4210,
      "Ġsell": 4211,
      "omy": 4212,
      "Ġlayer": 4213,
      "ado": 4214,
      "ference": 4215,
      "Ġfully": 4216,
      "pha": 4217,
      "encies": 4218,
      "ĠCenter": 4219,
      "isms": 4220,
      "Ġmist": 4221,
      "Ġtouch": 4222,
      "Ġoperation": 4223,
      "allel": 4224,
      "Ġcommer": 4225,
      "ĠWilliam": 4226,
      "rical": 4227,
      "bed": 4228,
      "Ġgain": 4229,
      "Ġesc": 4230,
      "def": 4231,
      "95": 4232,
      "47": 4233,
      "Ġefforts": 4234,
      "Ġdynam": 4235,
      "semb": 4236,
      "Ġtoward": 4237,
      "Ġign": 4238,
      "Ġ45": 4239,
      "Ġappears": 4240,
      ")}": 4241,
      "Ġfraction": 4242,
      "Ġdry": 4243,
      "Ġunc": 4244,
      "ĠAlthough": 4245,
      "band": 4246,
      "Ġwants": 4247,
      "Ġadjust": 4248,
      "ĠJes": 4249,
      "ida": 4250,
      "vision": 4251,
      "Ġolder": 4252,
      "ĠDist": 4253,
      "Ġderiv": 4254,
      "Ġbeautiful": 4255,
      "âĢĿ.": 4256,
      "ĠNews": 4257,
      "Ġmotion": 4258,
      "Ġdifferences": 4259,
      "name": 4260,
      "Ġmaximum": 4261,
      "top": 4262,
      "Ġ31": 4263,
      "mark": 4264,
      "Ar": 4265,
      "Ġbalance": 4266,
      "ĠCalifornia": 4267,
      "Ġbottom": 4268,
      "Ġprojects": 4269,
      "Ġstatus": 4270,
      "ĠEvery": 4271,
      "Ġreference": 4272,
      "Ġcitiz": 4273,
      "ache": 4274,
      "Ġstaff": 4275,
      "Ġpassed": 4276,
      "Ġwife": 4277,
      "68": 4278,
      "Ġhar": 4279,
      "Ġincome": 4280,
      "Ġworkers": 4281,
      "Ġconstit": 4282,
      "bre": 4283,
      "Ġsymbol": 4284,
      "ervation": 4285,
      "Ġsea": 4286,
      "Ġutil": 4287,
      "itter": 4288,
      "Ġrare": 4289,
      "Ġproposed": 4290,
      "oper": 4291,
      "Ġspect": 4292,
      "Ġhappy": 4293,
      "67": 4294,
      "Ġmi": 4295,
      "Ġ2019": 4296,
      "erent": 4297,
      "EL": 4298,
      "Ġperformed": 4299,
      "vis": 4300,
      "ean": 4301,
      "Ġlargest": 4302,
      "arter": 4303,
      "Ġyes": 4304,
      "ĠGerman": 4305,
      "Ġvill": 4306,
      "Ġinnov": 4307,
      "ĠÃł": 4308,
      "ĠBecause": 4309,
      "issions": 4310,
      "Ġmole": 4311,
      "Ġpatterns": 4312,
      "Ġexpand": 4313,
      "ford": 4314,
      "leg": 4315,
      "ĠScience": 4316,
      "buntu": 4317,
      "Ġabsolute": 4318,
      "Ġlaws": 4319,
      "nect": 4320,
      "ĠResearch": 4321,
      "Ã¶": 4322,
      "Ġhumans": 4323,
      "EM": 4324,
      "roy": 4325,
      "pan": 4326,
      "Ġcultural": 4327,
      "Ġast": 4328,
      "Ġorganization": 4329,
      "Ġfresh": 4330,
      "ĠChinese": 4331,
      "ĠAM": 4332,
      "Ġscientific": 4333,
      "Ġmatrix": 4334,
      "ĪĴ": 4335,
      "Ġimmediately": 4336,
      "uman": 4337,
      "den": 4338,
      "Ġresponsible": 4339,
      "Ġcomfort": 4340,
      "Ġsites": 4341,
      "Ġvert": 4342,
      "Ġindependent": 4343,
      "Ġrequest": 4344,
      "Ġsitu": 4345,
      "icip": 4346,
      "Ġ//": 4347,
      "::": 4348,
      "Ġsav": 4349,
      "see": 4350,
      "Ġactions": 4351,
      "tered": 4352,
      "Ġeight": 4353,
      "ashington": 4354,
      "Ġunf": 4355,
      "Ġquad": 4356,
      "ĠBro": 4357,
      "ĠUK": 4358,
      "ĠPeople": 4359,
      "ĠInc": 4360,
      "ĠInternational": 4361,
      "Ġanimal": 4362,
      "iable": 4363,
      "ĠDisc": 4364,
      "Ġshap": 4365,
      "Ġbeg": 4366,
      "Ġchann": 4367,
      "Ġcircum": 4368,
      "Ġmeasures": 4369,
      "Ġcrucial": 4370,
      "Ġspent": 4371,
      "Ġpresence": 4372,
      "Ġrelationships": 4373,
      "abet": 4374,
      "anging": 4375,
      "Ġsummer": 4376,
      "Ġlands": 4377,
      "Ġguess": 4378,
      "ĠCounty": 4379,
      "Ġsem": 4380,
      "Thus": 4381,
      "Ġnames": 4382,
      "Ġtrou": 4383,
      "emy": 4384,
      "ĠRead": 4385,
      "za": 4386,
      "ĠChristian": 4387,
      "iot": 4388,
      "ĠÐ": 4389,
      "ĠRef": 4390,
      "Ġfollows": 4391,
      "Ġlibr": 4392,
      "ocity": 4393,
      "Ġsend": 4394,
      "ĠMor": 4395,
      "Ġgun": 4396,
      "ND": 4397,
      "Ġreduced": 4398,
      "Ġcustomers": 4399,
      "Ġvalid": 4400,
      "Int": 4401,
      "ĠTechn": 4402,
      "rary": 4403,
      "ĠDet": 4404,
      "Ġfinally": 4405,
      "irt": 4406,
      "Pl": 4407,
      "ĠTw": 4408,
      "AB": 4409,
      "Ġap": 4410,
      "While": 4411,
      "Ġrow": 4412,
      "Ġtiss": 4413,
      "Ġvel": 4414,
      "alt": 4415,
      "Ġtesting": 4416,
      "ially": 4417,
      "ĠIsrael": 4418,
      "ĠEngland": 4419,
      "abilities": 4420,
      "}(": 4421,
      "Ġrich": 4422,
      "Ġreality": 4423,
      "Ġguid": 4424,
      "Ġphoto": 4425,
      "Ġdouble": 4426,
      "gy": 4427,
      "Ġdetermined": 4428,
      "Ġplaced": 4429,
      "porary": 4430,
      "begin": 4431,
      "Ġmaintain": 4432,
      "Ġpoll": 4433,
      "ael": 4434,
      "Ġded": 4435,
      "})": 4436,
      "New": 4437,
      "Ġbackground": 4438,
      "ilos": 4439,
      "Ġpaid": 4440,
      "ey": 4441,
      "Ġconflic": 4442,
      "Ġclosed": 4443,
      "ĠVol": 4444,
      "Ġtitle": 4445,
      "Ġclos": 4446,
      "ĠSen": 4447,
      "Ġstrategy": 4448,
      "Ġlabor": 4449,
      "ĠUp": 4450,
      "Ġsolid": 4451,
      "Ġmentioned": 4452,
      "Ġtour": 4453,
      "Ġmeeting": 4454,
      "ĠLondon": 4455,
      "char": 4456,
      "olve": 4457,
      "ura": 4458,
      "Ġassist": 4459,
      "Ġrace": 4460,
      "rm": 4461,
      "Ġpractices": 4462,
      "ĠExpl": 4463,
      "Ġexisting": 4464,
      "pret": 4465,
      "Ġhom": 4466,
      "Ġbillion": 4467,
      "ĠGovern": 4468,
      "Ġtal": 4469,
      "Ġbra": 4470,
      "arian": 4471,
      "Ġchallenge": 4472,
      "Ġsoil": 4473,
      "Ġpresented": 4474,
      "Ġaccur": 4475,
      ".[": 4476,
      "Ġletter": 4477,
      "IP": 4478,
      "ums": 4479,
      "uries": 4480,
      "works": 4481,
      "mod": 4482,
      "Ġdoctor": 4483,
      "ĠCanada": 4484,
      "Ġstock": 4485,
      "ĠDepartment": 4486,
      "gl": 4487,
      "itely": 4488,
      "Ġcertainly": 4489,
      "Ġpet": 4490,
      "Ġcounter": 4491,
      "iated": 4492,
      "Ġ---------": 4493,
      "ĠTV": 4494,
      "oma": 4495,
      "cks": 4496,
      "edia": 4497,
      "Ġstream": 4498,
      "ava": 4499,
      "Ġnice": 4500,
      "resents": 4501,
      "CC": 4502,
      "matrix": 4503,
      "Ġcamer": 4504,
      "ĠSur": 4505,
      "Ġwat": 4506,
      "sum": 4507,
      "Ġdetect": 4508,
      "ĠLear": 4509,
      "Ġobserved": 4510,
      "$,": 4511,
      "ffect": 4512,
      "Ġrout": 4513,
      "Ġtests": 4514,
      "Ġkill": 4515,
      "Ġ\\):": 4516,
      "Ġarm": 4517,
      "ourney": 4518,
      "ĠGeneral": 4519,
      "Ġdream": 4520,
      "ressed": 4521,
      "Ġwaste": 4522,
      "Ġbrother": 4523,
      "Ġadding": 4524,
      "orial": 4525,
      "arden": 4526,
      "ĠEast": 4527,
      "iced": 4528,
      "Ġconsequ": 4529,
      "Ġvector": 4530,
      "Ġplans": 4531,
      "ipe": 4532,
      "Ġnav": 4533,
      "Ã§": 4534,
      "ias": 4535,
      "Ġpeace": 4536,
      "Ġreligious": 4537,
      "âĢ¢": 4538,
      "Ġcandid": 4539,
      "Ġfederal": 4540,
      "Ġcollege": 4541,
      "Ġleaves": 4542,
      "],": 4543,
      "Ġspend": 4544,
      "Ġstation": 4545,
      "Ġconstruction": 4546,
      "Ġinterview": 4547,
      "idth": 4548,
      "Ġinstruct": 4549,
      "Ġdegrees": 4550,
      "Ġsecret": 4551,
      "asion": 4552,
      "Ġrapid": 4553,
      "UR": 4554,
      "Ġremove": 4555,
      "igure": 4556,
      "Ġ70": 4557,
      "ounced": 4558,
      "ka": 4559,
      "Some": 4560,
      "ĠFran": 4561,
      "Ġgoals": 4562,
      "Ġice": 4563,
      "iÃ³n": 4564,
      "can": 4565,
      "Not": 4566,
      "42": 4567,
      "Ġapproximately": 4568,
      "Ġalternative": 4569,
      "ĠAssoci": 4570,
      "Your": 4571,
      "Ġing": 4572,
      "ĠClass": 4573,
      "inf": 4574,
      "Ġregarding": 4575,
      "Ġeventually": 4576,
      "Ġcollection": 4577,
      "Ġreb": 4578,
      "Ġforeign": 4579,
      "Ġorigin": 4580,
      "}}{": 4581,
      "div": 4582,
      "Ġidentity": 4583,
      "Ġopportunities": 4584,
      "Ġstrategies": 4585,
      "care": 4586,
      "gram": 4587,
      "inger": 4588,
      "Ġfrequency": 4589,
      "coh": 4590,
      "Ġteaching": 4591,
      "ricult": 4592,
      "Ġreplace": 4593,
      "nomial": 4594,
      "rat": 4595,
      "Ġcast": 4596,
      "Ġequipment": 4597,
      "Ġmajority": 4598,
      "Ġvariables": 4599,
      "ĠWashington": 4600,
      "Ġrelevant": 4601,
      "Ġhop": 4602,
      "ĠCommun": 4603,
      "Ġsto": 4604,
      "Ġinterested": 4605,
      "phas": 4606,
      "Ġglass": 4607,
      "ING": 4608,
      "Ġ32": 4609,
      "Ġbacter": 4610,
      "Ġfuel": 4611,
      "Ġmeant": 4612,
      "import": 4613,
      "Ġcoordin": 4614,
      "46": 4615,
      "Ġwouldn": 4616,
      "this": 4617,
      "Ġrepresents": 4618,
      "App": 4619,
      "},": 4620,
      "Ġonto": 4621,
      "IL": 4622,
      "Ġacad": 4623,
      "Ġdiscussion": 4624,
      "Ġshared": 4625,
      "ded": 4626,
      "Ġnotice": 4627,
      "Ġlik": 4628,
      "Ġseparate": 4629,
      "Ġguide": 4630,
      "iders": 4631,
      "wood": 4632,
      "ĠPal": 4633,
      "Ġspot": 4634,
      "stitution": 4635,
      "Ġsevere": 4636,
      "Ġtrees": 4637,
      "Ġprotection": 4638,
      "ĠAccording": 4639,
      "Ġserve": 4640,
      "acing": 4641,
      "Ġliqu": 4642,
      "what": 4643,
      "lig": 4644,
      "Ġcollabor": 4645,
      "ĠAir": 4646,
      "Ġbelief": 4647,
      "ĠTheir": 4648,
      "Ġhistorical": 4649,
      "Ġ2006": 4650,
      "Ġsubt": 4651,
      "Ġcombination": 4652,
      "Ġsch": 4653,
      "ipl": 4654,
      "Ġsustain": 4655,
      "Ġteachers": 4656,
      "She": 4657,
      "ilit": 4658,
      "Ġsusp": 4659,
      "Ġcommercial": 4660,
      "Ġforest": 4661,
      "IM": 4662,
      "ett": 4663,
      "wide": 4664,
      "Ġfemale": 4665,
      "Ġnorth": 4666,
      "ooth": 4667,
      "Ġcalculate": 4668,
      "ĠGree": 4669,
      "ĠSat": 4670,
      "iling": 4671,
      "Ab": 4672,
      "uting": 4673,
      "Ġjournal": 4674,
      "iply": 4675,
      "Ġveget": 4676,
      "iliar": 4677,
      "ossible": 4678,
      "related": 4679,
      "Ġresistance": 4680,
      "Ġmaster": 4681,
      "Ġcapacity": 4682,
      "Ġcontinuous": 4683,
      "Ġapart": 4684,
      "Ð°": 4685,
      "ĠAny": 4686,
      "Ġcouldn": 4687,
      "box": 4688,
      "rox": 4689,
      "ki": 4690,
      "Ġseven": 4691,
      "atically": 4692,
      "ait": 4693,
      "ario": 4694,
      "ĠRet": 4695,
      "Ġrise": 4696,
      "exp": 4697,
      "Ġfundamental": 4698,
      "->": 4699,
      "ĠLine": 4700,
      "cious": 4701,
      "ĠFrance": 4702,
      "ĠProf": 4703,
      "ĠAfrica": 4704,
      "Ġobtained": 4705,
      "ĠAmericans": 4706,
      "Ġwindow": 4707,
      "Ġsets": 4708,
      "Ġcore": 4709,
      "Ġegg": 4710,
      "pat": 4711,
      "Ġclearly": 4712,
      "Ã£": 4713,
      "asure": 4714,
      "En": 4715,
      "hesis": 4716,
      "Ġ36": 4717,
      "Ġtim": 4718,
      "Ġchanging": 4719,
      "Ġspl": 4720,
      "98": 4721,
      "ĠJames": 4722,
      "iled": 4723,
      "Ġscientists": 4724,
      "Ġangles": 4725,
      "Ġplanning": 4726,
      "orrow": 4727,
      "uzz": 4728,
      "oration": 4729,
      "Ġgone": 4730,
      "sect": 4731,
      "Ġmode": 4732,
      "Ġarchitect": 4733,
      "Ġintellig": 4734,
      "uable": 4735,
      "ĠOff": 4736,
      "Ġincreases": 4737,
      "ortunately": 4738,
      "Ġkm": 4739,
      "Ġkilled": 4740,
      "from": 4741,
      "ails": 4742,
      "omas": 4743,
      "ĠDavid": 4744,
      "ĠFin": 4745,
      "Ġvote": 4746,
      "Ġwish": 4747,
      "Ġthoughts": 4748,
      "ĠPaul": 4749,
      "Ġknows": 4750,
      "Ġinstr": 4751,
      "ĠDuring": 4752,
      "Ġteacher": 4753,
      "Ġsales": 4754,
      "Ġinternal": 4755,
      "ĠCD": 4756,
      "Ġheavy": 4757,
      "Ġfoods": 4758,
      "Ġcompre": 4759,
      "Ġfol": 4760,
      "Ġkept": 4761,
      "ĠJesus": 4762,
      "Ġhydro": 4763,
      "Ġequival": 4764,
      "Ġserver": 4765,
      "Ġstorage": 4766,
      "Ġdiscovered": 4767,
      "Ġexpressed": 4768,
      "Ġchurch": 4769,
      "Ġeating": 4770,
      "uing": 4771,
      "Ġ2023": 4772,
      "Ġnor": 4773,
      "Ġaspects": 4774,
      "ĠPC": 4775,
      "rust": 4776,
      "Ġacceler": 4777,
      "ĠTheorem": 4778,
      "Ġ195": 4779,
      "Ġtrain": 4780,
      "Ġ2000": 4781,
      "allenge": 4782,
      "08": 4783,
      "ĠEv": 4784,
      "ĠWork": 4785,
      "ĠFact": 4786,
      "ĠEduc": 4787,
      "ĠBel": 4788,
      "lo": 4789,
      "Ġmap": 4790,
      "Ġbaby": 4791,
      "ĠTime": 4792,
      "43": 4793,
      "Ġhospital": 4794,
      "iance": 4795,
      "Ġswitch": 4796,
      "Ġshot": 4797,
      "Ġtherapy": 4798,
      "ĠOnce": 4799,
      "Ġgrand": 4800,
      "ĠCourt": 4801,
      "olving": 4802,
      "Ġanswers": 4803,
      "Ġoptim": 4804,
      "Ġnumer": 4805,
      "CO": 4806,
      "Ġbond": 4807,
      "ĠTest": 4808,
      "Ġancient": 4809,
      "Ġfreed": 4810,
      "ĠMathemat": 4811,
      "Ġattract": 4812,
      "rier": 4813,
      "oving": 4814,
      "Ġplane": 4815,
      "Ġhighest": 4816,
      "Ġsounds": 4817,
      "Ġsyn": 4818,
      "ditionally": 4819,
      "Ġwait": 4820,
      "Can": 4821,
      "ĠLike": 4822,
      "Ġpair": 4823,
      "water": 4824,
      "Ġpieces": 4825,
      "how": 4826,
      "Ġvs": 4827,
      "Ġ?": 4828,
      "tee": 4829,
      "Des": 4830,
      "Ġportion": 4831,
      "ords": 4832,
      "ĠCoun": 4833,
      "ressive": 4834,
      "Ġdecisions": 4835,
      "ĠDemoc": 4836,
      "Find": 4837,
      "ĠSam": 4838,
      "Ġbill": 4839,
      "ingu": 4840,
      "Do": 4841,
      "house": 4842,
      "();": 4843,
      "Ġwhatever": 4844,
      "ola": 4845,
      "outhern": 4846,
      "Ġvit": 4847,
      "het": 4848,
      "Ġshowing": 4849,
      "Ġoccup": 4850,
      "Ġmouth": 4851,
      "ython": 4852,
      "Se": 4853,
      "life": 4854,
      "Ġprocessing": 4855,
      "Ġdespite": 4856,
      "cription": 4857,
      "comes": 4858,
      "well": 4859,
      "Ġ2021": 4860,
      "Ġlic": 4861,
      "Ġinternet": 4862,
      "Ġadvantage": 4863,
      "ya": 4864,
      "Ġcir": 4865,
      "Ġidentified": 4866,
      "ipp": 4867,
      "Ġpull": 4868,
      "Ġresulting": 4869,
      "Ġtrend": 4870,
      "dent": 4871,
      "Ġhelped": 4872,
      "plies": 4873,
      "Ġsouth": 4874,
      "Ġfix": 4875,
      "Ġtechnique": 4876,
      "UT": 4877,
      "Ġbehavi": 4878,
      "azing": 4879,
      "Ġhypot": 4880,
      "cean": 4881,
      "cel": 4882,
      "Ġvacc": 4883,
      "Ġbecoming": 4884,
      "ĠAP": 4885,
      "Ġreports": 4886,
      "Ġmale": 4887,
      "ĠHol": 4888,
      "Ġmer": 4889,
      "gal": 4890,
      "tion": 4891,
      "Ġrequirements": 4892,
      "Ġextremely": 4893,
      "Ġserved": 4894,
      "Ġstring": 4895,
      "oto": 4896,
      "ĠGroup": 4897,
      "ĠFurther": 4898,
      "aper": 4899,
      "iat": 4900,
      "Ġjourney": 4901,
      "Ġlose": 4902,
      "Ġseemed": 4903,
      "Ġcas": 4904,
      "apers": 4905,
      "Ġmetal": 4906,
      "88": 4907,
      "Ġmo": 4908,
      "\\(": 4909,
      "Ġstructures": 4910,
      "ears": 4911,
      "ĠID": 4912,
      "Ġcomplic": 4913,
      "hips": 4914,
      "ĠBook": 4915,
      "However": 4916,
      "De": 4917,
      "ĠHistory": 4918,
      "elta": 4919,
      "Ġrect": 4920,
      "Ġformat": 4921,
      "Ġfold": 4922,
      "Ġfalse": 4923,
      "CH": 4924,
      "Ġking": 4925,
      "orthern": 4926,
      "ribe": 4927,
      "Ġalb": 4928,
      "Ġlatest": 4929,
      "Ġphase": 4930,
      "ĠBen": 4931,
      "Ġkid": 4932,
      "Ġincorpor": 4933,
      "Ġprime": 4934,
      "Ġcustomer": 4935,
      "estic": 4936,
      "oyal": 4937,
      "Ġcelebr": 4938,
      "ĠYes": 4939,
      "ĠAfrican": 4940,
      "field": 4941,
      "Ġallowing": 4942,
      "isation": 4943,
      "ĠHome": 4944,
      "Ġinvestment": 4945,
      "Ġopposite": 4946,
      "Ġboy": 4947,
      "ĠSum": 4948,
      "Ġtopic": 4949,
      "Ġfirm": 4950,
      "hors": 4951,
      "ĠBra": 4952,
      "ĠDan": 4953,
      "struct": 4954,
      "riage": 4955,
      "lick": 4956,
      "Ġdisapp": 4957,
      "Ġexcell": 4958,
      "Ġphen": 4959,
      "41": 4960,
      "icks": 4961,
      "Ġminimum": 4962,
      "rem": 4963,
      "Ġclinical": 4964,
      "ĠWhite": 4965,
      "Ġemployees": 4966,
      "ĠSl": 4967,
      "Ġselected": 4968,
      "Ġbran": 4969,
      "Ġleaving": 4970,
      "Ġid": 4971,
      "using": 4972,
      "Ġsmart": 4973,
      "cohol": 4974,
      "Ġweather": 4975,
      "Ġbrand": 4976,
      "rd": 4977,
      "Ġproport": 4978,
      "Ġsolving": 4979,
      "Step": 4980,
      "print": 4981,
      "Ġcompr": 4982,
      "02": 4983,
      "ĠChange": 4984,
      "bin": 4985,
      "Ġrespectively": 4986,
      "Ġweap": 4987,
      "Ġsugar": 4988,
      "Ġwhom": 4989,
      "ĠDevelop": 4990,
      "mm": 4991,
      "Ġmur": 4992,
      "Ġpreviously": 4993,
      "ĠJack": 4994,
      "ĠPress": 4995,
      "dis": 4996,
      "upp": 4997,
      "Ġmix": 4998,
      "Ġdescribe": 4999,
      "Ġfixed": 5000,
      "Ġ2005": 5001,
      "Ġvelocity": 5002,
      "Ġexhib": 5003,
      "ĠMal": 5004,
      "gery": 5005,
      "Ġdefinition": 5006,
      "ĠChurch": 5007,
      "Ġotherwise": 5008,
      "Ã£o": 5009,
      "Ġscore": 5010,
      "MS": 5011,
      "orders": 5012,
      "atin": 5013,
      "Ġdistinct": 5014,
      "ses": 5015,
      "ĠQuestion": 5016,
      "ĠGreen": 5017,
      "Ġparallel": 5018,
      "ĠMex": 5019,
      "Ġaffected": 5020,
      "Ġexperiment": 5021,
      "ĠRiver": 5022,
      "ira": 5023,
      "09": 5024,
      "Cons": 5025,
      "Ġmort": 5026,
      "tage": 5027,
      "Ġjoint": 5028,
      "Ġcomponent": 5029,
      "ĠAtt": 5030,
      "Ġthousands": 5031,
      "olf": 5032,
      "Ġinvolve": 5033,
      "dden": 5034,
      "('": 5035,
      "Ġpark": 5036,
      "Ġprem": 5037,
      "Ġcovered": 5038,
      "Ġadvanced": 5039,
      "ĠDiff": 5040,
      "ĠTri": 5041,
      "erved": 5042,
      "Ġweak": 5043,
      "Ġmostly": 5044,
      "ĠData": 5045,
      "Ġindex": 5046,
      "Ġembod": 5047,
      "alysis": 5048,
      "Ġscript": 5049,
      "ĠCongress": 5050,
      "Ġdivision": 5051,
      "?âĢĿ": 5052,
      "Ġfractions": 5053,
      "itors": 5054,
      "xi": 5055,
      "Ġexpert": 5056,
      "Ġdownload": 5057,
      "ĠPort": 5058,
      "Ġvehicle": 5059,
      "Ġplanet": 5060,
      "Since": 5061,
      "mary": 5062,
      "rome": 5063,
      "eta": 5064,
      "SS": 5065,
      "ĠIts": 5066,
      "under": 5067,
      "Ġagg": 5068,
      "}^": 5069,
      "Ġreached": 5070,
      "Ġstandards": 5071,
      "ville": 5072,
      "othing": 5073,
      "Ġseeing": 5074,
      "rence": 5075,
      "Ġgeneration": 5076,
      "Ġnumerous": 5077,
      "Ġfaith": 5078,
      "Ġfloor": 5079,
      "Ġtransl": 5080,
      "hab": 5081,
      "Ġrelatively": 5082,
      "ĠCollege": 5083,
      "dy": 5084,
      "Ġinsurance": 5085,
      "Ġlived": 5086,
      "ĠApple": 5087,
      "PA": 5088,
      "ĠRich": 5089,
      "ĠInstitute": 5090,
      "Ġ$$": 5091,
      "Ġbusinesses": 5092,
      "Ġcup": 5093,
      "ĠBas": 5094,
      "net": 5095,
      "ĠFacebook": 5096,
      "Ġpros": 5097,
      "ria": 5098,
      "Ġleads": 5099,
      "69": 5100,
      "ĠTur": 5101,
      "angles": 5102,
      "Ġemphas": 5103,
      "Ġjobs": 5104,
      "hand": 5105,
      "Ġsigns": 5106,
      "Ġcalculated": 5107,
      "ĠGermany": 5108,
      "Ġisol": 5109,
      "Ġsudden": 5110,
      "ĠAdd": 5111,
      "Ġremoved": 5112,
      "Ġcarried": 5113,
      "Ġprices": 5114,
      "Ġliber": 5115,
      "Sim": 5116,
      "Ð¾": 5117,
      "07": 5118,
      "Ġclub": 5119,
      "Ġradio": 5120,
      "Ġspecifically": 5121,
      "Ġdrugs": 5122,
      "Ġtrial": 5123,
      "abase": 5124,
      "ĠOh": 5125,
      "ĠRober": 5126,
      "Ġthick": 5127,
      "anged": 5128,
      "useum": 5129,
      "Ġ2022": 5130,
      "First": 5131,
      "arant": 5132,
      "Ġfailure": 5133,
      "Ġseconds": 5134,
      "Ġstim": 5135,
      "Ġeffectively": 5136,
      "ĠAustralia": 5137,
      "Ġmobile": 5138,
      "Ġproof": 5139,
      "osen": 5140,
      "Ġdiam": 5141,
      "Ġsen": 5142,
      "Ġcitizens": 5143,
      "Ġreaction": 5144,
      "rey": 5145,
      "Ġbattle": 5146,
      "elcome": 5147,
      "Ġteach": 5148,
      "Ġinvolving": 5149,
      "ĠGeorge": 5150,
      "inder": 5151,
      "Ġminor": 5152,
      "Ġdiscover": 5153,
      "eper": 5154,
      "tan": 5155,
      "Ind": 5156,
      "\")": 5157,
      "ystem": 5158,
      "_{\\": 5159,
      "Ġroots": 5160,
      "Ġintroduced": 5161,
      "rete": 5162,
      "rors": 5163,
      "Ġinstalled": 5164,
      "Ġadvice": 5165,
      "enses": 5166,
      "och": 5167,
      "ĠSupp": 5168,
      "03": 5169,
      "</": 5170,
      "olved": 5171,
      "Ġsynt": 5172,
      "06": 5173,
      "Ġoccurs": 5174,
      "Ġasking": 5175,
      "85": 5176,
      "ĠGet": 5177,
      "ishing": 5178,
      "Ġcards": 5179,
      "Ġpartners": 5180,
      "Ġlas": 5181,
      "olar": 5182,
      "onym": 5183,
      "Ġwire": 5184,
      "rian": 5185,
      "Ġorganizations": 5186,
      "Ġargument": 5187,
      "Ġpun": 5188,
      "ĠArch": 5189,
      "Ġtreated": 5190,
      "Ġadvance": 5191,
      "ander": 5192,
      "Ġvaluable": 5193,
      "ĠWindows": 5194,
      "Ġmanage": 5195,
      "mosp": 5196,
      "eline": 5197,
      "OL": 5198,
      "ĠMart": 5199,
      "Ġdiseases": 5200,
      "Ġadults": 5201,
      "pass": 5202,
      "iveness": 5203,
      "idden": 5204,
      "Ġalgebra": 5205,
      "berg": 5206,
      "ago": 5207,
      "Get": 5208,
      "Ġedge": 5209,
      "ĠSk": 5210,
      "77": 5211,
      "Ġship": 5212,
      "Ġalgorithm": 5213,
      "Ġdivided": 5214,
      "ady": 5215,
      "Ġprepar": 5216,
      "Ġfavorite": 5217,
      "Ġupper": 5218,
      "Ġspeech": 5219,
      "ĠUnion": 5220,
      "gu": 5221,
      "More": 5222,
      "itis": 5223,
      "Ġprinciples": 5224,
      "Ġreturned": 5225,
      "atus": 5226,
      "hetic": 5227,
      "akers": 5228,
      "itz": 5229,
      "ĠSecond": 5230,
      "ĠSun": 5231,
      "Ġstick": 5232,
      "ĠDirect": 5233,
      "Ġdomin": 5234,
      "Ġbelong": 5235,
      "state": 5236,
      "you": 5237,
      "0000": 5238,
      "venue": 5239,
      "Go": 5240,
      "alled": 5241,
      "ĠST": 5242,
      "Ġda": 5243,
      "Ġexternal": 5244,
      "Ġstarts": 5245,
      "Ġcorpor": 5246,
      "going": 5247,
      "ĠSee": 5248,
      "Ġmal": 5249,
      "requ": 5250,
      "Ġdisp": 5251,
      "Ġcolon": 5252,
      "Ġmission": 5253,
      "born": 5254,
      "Ġlegis": 5255,
      "Ġintegr": 5256,
      "Ġdriving": 5257,
      "ĠDi": 5258,
      "Ġnotes": 5259,
      "Ġfamous": 5260,
      "Ġkeeping": 5261,
      "Ġrou": 5262,
      "agram": 5263,
      "Ġplus": 5264,
      "Ġprofession": 5265,
      "Ġbudget": 5266,
      "Read": 5267,
      "Ġcircuit": 5268,
      "Ġowners": 5269,
      "Ġraised": 5270,
      "OD": 5271,
      "antic": 5272,
      "ometimes": 5273,
      "iences": 5274,
      "ĠChild": 5275,
      "Ġpregn": 5276,
      "Ġopinion": 5277,
      "ĠLife": 5278,
      "ĠPri": 5279,
      "Ġdram": 5280,
      "Ġcycle": 5281,
      "Ġopening": 5282,
      "Ġprove": 5283,
      "Ġexperienced": 5284,
      "ĠRoman": 5285,
      "Ġhoriz": 5286,
      "ĠMiss": 5287,
      "ĠGood": 5288,
      "Ġclasses": 5289,
      "ĠIN": 5290,
      "Ġinfection": 5291,
      "Ġmotor": 5292,
      "Ġdrop": 5293,
      "Ġintegral": 5294,
      "Ġslightly": 5295,
      "Ġapparent": 5296,
      "ĠAD": 5297,
      "Ġspring": 5298,
      "ĠEquations": 5299,
      "Ġleader": 5300,
      "Ġtum": 5301,
      "Ġdepending": 5302,
      "Ġhus": 5303,
      "Ġclaims": 5304,
      "Answer": 5305,
      "Ġsolar": 5306,
      "Ġcities": 5307,
      "96": 5308,
      "Ġfilled": 5309,
      "ĠInternet": 5310,
      "Ġteams": 5311,
      "ĠReview": 5312,
      "Ġsexual": 5313,
      "Ġwave": 5314,
      "umber": 5315,
      "Ġvictim": 5316,
      "Ġscene": 5317,
      "pet": 5318,
      "ĠDNA": 5319,
      "Ġmanner": 5320,
      "500": 5321,
      "itness": 5322,
      "Ġoperating": 5323,
      "Ġphilos": 5324,
      "ĠTer": 5325,
      "taining": 5326,
      "Ġpractical": 5327,
      "TM": 5328,
      "ĠLord": 5329,
      "ĠInf": 5330,
      "ĠNumber": 5331,
      "Ġcalls": 5332,
      "Ġsuggests": 5333,
      "ĠMary": 5334,
      "Ġconcerns": 5335,
      "Ġhelping": 5336,
      "Ġsufficient": 5337,
      "Ġ;": 5338,
      "eria": 5339,
      "Ġelection": 5340,
      "Ġcharacteristics": 5341,
      "Ġtruly": 5342,
      "Ġpolicies": 5343,
      "Ġunless": 5344,
      "Ġindu": 5345,
      "Ġdial": 5346,
      "Ġschem": 5347,
      "Leave": 5348,
      "Ġdefault": 5349,
      "Ġvision": 5350,
      "Ġfaster": 5351,
      "Ġmissing": 5352,
      "Yes": 5353,
      "rition": 5354,
      "inn": 5355,
      "Ġvary": 5356,
      "Ġengineering": 5357,
      "âĢ²": 5358,
      "roph": 5359,
      "UL": 5360,
      "Ġpages": 5361,
      "Ġprepared": 5362,
      "Ġmathematics": 5363,
      "reate": 5364,
      "Ġhabit": 5365,
      "ĠStep": 5366,
      "Ġrecords": 5367,
      "ĠAC": 5368,
      "omic": 5369,
      "Ġshoot": 5370,
      "Ġepis": 5371,
      "Ġmig": 5372,
      "ĠBoth": 5373,
      "Ġopened": 5374,
      "Ġguy": 5375,
      "ĠPlay": 5376,
      "Ġinterpret": 5377,
      "istan": 5378,
      "Ġahead": 5379,
      "Ġimagine": 5380,
      "amm": 5381,
      "ĠUbuntu": 5382,
      "Ġburn": 5383,
      "umin": 5384,
      "Ġequivalent": 5385,
      "Ġdestroy": 5386,
      "ĠHy": 5387,
      "Ġlock": 5388,
      "class": 5389,
      "ĠRad": 5390,
      "Ġflex": 5391,
      "Ġattrib": 5392,
      "bal": 5393,
      "Ġapproaches": 5394,
      "ructure": 5395,
      "}^{": 5396,
      "Ġplays": 5397,
      "zing": 5398,
      "asp": 5399,
      "Ġbrief": 5400,
      "abetes": 5401,
      "while": 5402,
      "list": 5403,
      "ifies": 5404,
      "Ġcars": 5405,
      "osh": 5406,
      "ĠAlex": 5407,
      "Ġfindings": 5408,
      "Ġdenomin": 5409,
      "cher": 5410,
      "Ġcatch": 5411,
      "âĢĿ,": 5412,
      "ormal": 5413,
      "elines": 5414,
      "Ġpal": 5415,
      "rum": 5416,
      "Ġhyper": 5417,
      "Ġexposure": 5418,
      "Ġlabel": 5419,
      "ĠSet": 5420,
      "Ġliterature": 5421,
      "zen": 5422,
      "Ġcontrast": 5423,
      "Ġhaven": 5424,
      "Ġfailed": 5425,
      "Ġmeasured": 5426,
      "Ġcontinues": 5427,
      "Ġoffered": 5428,
      "Ġoutcomes": 5429,
      "Ġnuclear": 5430,
      "Our": 5431,
      "Ġrul": 5432,
      "ĠPhys": 5433,
      "ĠAv": 5434,
      "Ġunivers": 5435,
      "ĠJapanese": 5436,
      "ĠGra": 5437,
      "onday": 5438,
      "Ġhandle": 5439,
      "ĠMet": 5440,
      "Ġabsor": 5441,
      "Ġcop": 5442,
      "ingly": 5443,
      "Ġiron": 5444,
      "Ġremaining": 5445,
      "Ġdecide": 5446,
      "Ġfreedom": 5447,
      "nel": 5448,
      "Ġtells": 5449,
      "Ġproperly": 5450,
      "ugg": 5451,
      "Ġsupposed": 5452,
      "ĠThanks": 5453,
      "ĠMicro": 5454,
      "ĠFun": 5455,
      "unday": 5456,
      "rue": 5457,
      "Ġgrant": 5458,
      "ĠAlgebra": 5459,
      "ĠPlan": 5460,
      "Ġfamiliar": 5461,
      "Ġelimin": 5462,
      "Ġchapter": 5463,
      "Don": 5464,
      "Ġcomprehens": 5465,
      "Ġnavig": 5466,
      "Ġefficiency": 5467,
      "fty": 5468,
      "ĠTex": 5469,
      "cular": 5470,
      "ĠWestern": 5471,
      "Ġliquid": 5472,
      "Ġcombined": 5473,
      "Ġbodies": 5474,
      "Ġimproved": 5475,
      "}\\).": 5476,
      "ĠRo": 5477,
      "ĠFe": 5478,
      "aming": 5479,
      "Ġappeared": 5480,
      "Ġconsult": 5481,
      "Ġdomain": 5482,
      "bar": 5483,
      "ĠThrough": 5484,
      "icated": 5485,
      "ĠSal": 5486,
      "57": 5487,
      "Ġteeth": 5488,
      "Ġgirls": 5489,
      "cript": 5490,
      "Ġexpressions": 5491,
      "ĠKore": 5492,
      "Ġwinter": 5493,
      "Ġdiss": 5494,
      "Ġevolution": 5495,
      "Ġgar": 5496,
      "ĠMethod": 5497,
      "Ġcontem": 5498,
      "section": 5499,
      "sub": 5500,
      "Ġauthors": 5501,
      "Ġfrequently": 5502,
      "Ġresist": 5503,
      "oted": 5504,
      "Ġregions": 5505,
      "Ġhelpful": 5506,
      "97": 5507,
      "Ġresource": 5508,
      "Ġsac": 5509,
      "Ġflat": 5510,
      "Ġcris": 5511,
      "Example": 5512,
      "Ġsports": 5513,
      "CD": 5514,
      "Ġpus": 5515,
      "Ġplot": 5516,
      "ĠParty": 5517,
      "Ġcommonly": 5518,
      "ĠSoci": 5519,
      "ĠPower": 5520,
      "Ġbelieved": 5521,
      "bing": 5522,
      "ras": 5523,
      "ocation": 5524,
      "Ġcausing": 5525,
      "Ġappoint": 5526,
      "Ġdaughter": 5527,
      "ographic": 5528,
      "onic": 5529,
      "Ġmere": 5530,
      "Ġmel": 5531,
      "Ġfasc": 5532,
      "Ġexcellent": 5533,
      "Ġmotiv": 5534,
      "Ġsand": 5535,
      "Ġcash": 5536,
      "Ġaudience": 5537,
      "icians": 5538,
      "ĠBi": 5539,
      ".**": 5540,
      "Ġexplained": 5541,
      "Ġnoted": 5542,
      "Ġdebt": 5543,
      "athy": 5544,
      "Ġcoast": 5545,
      "Ġexcess": 5546,
      "56": 5547,
      "Ġthrow": 5548,
      "otic": 5549,
      "ln": 5550,
      "Ġvent": 5551,
      "ĠCle": 5552,
      "gs": 5553,
      "Ġgene": 5554,
      "Ġforced": 5555,
      "ĠWeb": 5556,
      "Ġcompleted": 5557,
      "Ġbow": 5558,
      "Ġhol": 5559,
      "Ġconclud": 5560,
      "ffee": 5561,
      ".'": 5562,
      "usiness": 5563,
      "urally": 5564,
      "Ġinches": 5565,
      "Ġcolumn": 5566,
      "ĠStand": 5567,
      "Ġinjury": 5568,
      "Ġparties": 5569,
      "ĠReply": 5570,
      "Ġalcohol": 5571,
      "inding": 5572,
      "rations": 5573,
      "Ġfell": 5574,
      "ĠElect": 5575,
      "Ġatmosp": 5576,
      "Ġworse": 5577,
      "Ġexists": 5578,
      "ician": 5579,
      "Ġ2004": 5580,
      "icial": 5581,
      "Ġarticles": 5582,
      "ĠÃ©": 5583,
      "Ðµ": 5584,
      "Ġtwice": 5585,
      "Ġsituations": 5586,
      "Ġdoubt": 5587,
      "ework": 5588,
      "ĠOF": 5589,
      "onents": 5590,
      "Ġintended": 5591,
      "mas": 5592,
      "estions": 5593,
      "Ob": 5594,
      "Ġrein": 5595,
      "Ġamb": 5596,
      "Ġmac": 5597,
      "dered": 5598,
      "rich": 5599,
      "apping": 5600,
      "ĠInstead": 5601,
      "ĠSocial": 5602,
      "ĠTop": 5603,
      "Ġfocused": 5604,
      "ona": 5605,
      "Ġlesson": 5606,
      "poses": 5607,
      "Ġlots": 5608,
      "ĠPract": 5609,
      "ĠStreet": 5610,
      "Ġperspective": 5611,
      "ENT": 5612,
      "Ġmarketing": 5613,
      "ĠSuper": 5614,
      "Ġmuscle": 5615,
      "Ġcrow": 5616,
      "iverse": 5617,
      "ĠDel": 5618,
      "aid": 5619,
      "lamm": 5620,
      "ĠWho": 5621,
      "Ġflo": 5622,
      "Ġcamera": 5623,
      "Are": 5624,
      "erate": 5625,
      "Ġsurvey": 5626,
      "Ġpercentage": 5627,
      "Ġfif": 5628,
      "ĠVir": 5629,
      "aud": 5630,
      "Ġstated": 5631,
      "Ġviolence": 5632,
      "Ġemotional": 5633,
      "Ġmilk": 5634,
      "Ġdepends": 5635,
      "Ġtissue": 5636,
      "Ġruns": 5637,
      "ĠFound": 5638,
      "Ġprison": 5639,
      "Ġdirector": 5640,
      "Or": 5641,
      "Ġinequ": 5642,
      "ĠBet": 5643,
      "Ġ48": 5644,
      "Ġenhance": 5645,
      "Ġgod": 5646,
      "inner": 5647,
      "Ġtechnologies": 5648,
      "ini": 5649,
      "Ġvirus": 5650,
      "look": 5651,
      "Ġchain": 5652,
      "ĠPublic": 5653,
      "Ġfruit": 5654,
      "Ġsupported": 5655,
      "Ġtasks": 5656,
      "uty": 5657,
      "Ġsharing": 5658,
      "ulf": 5659,
      "Ġarray": 5660,
      "orter": 5661,
      "ĠTrump": 5662,
      "Ġmedium": 5663,
      "OM": 5664,
      "Ġshut": 5665,
      "Ġannual": 5666,
      "anish": 5667,
      "iform": 5668,
      "ented": 5669,
      "icular": 5670,
      "63": 5671,
      "approx": 5672,
      "Rec": 5673,
      "Ġupdate": 5674,
      "ĠCommission": 5675,
      "Ġdangerous": 5676,
      "Ġpurchase": 5677,
      "ml": 5678,
      "Ġviews": 5679,
      "ĠLou": 5680,
      "RA": 5681,
      "rid": 5682,
      "Ġdeliver": 5683,
      "SA": 5684,
      "'(": 5685,
      "Ġconfir": 5686,
      "ĠMag": 5687,
      "ĠRussia": 5688,
      "Ġwear": 5689,
      "Ġdivers": 5690,
      "ĠEducation": 5691,
      "oster": 5692,
      "Ġhearing": 5693,
      "58": 5694,
      "ĠObama": 5695,
      "Ġfill": 5696,
      "Ġexchange": 5697,
      "ashion": 5698,
      "ishes": 5699,
      "Ġdecades": 5700,
      "Question": 5701,
      "ĠGold": 5702,
      "Ġtraffic": 5703,
      "Ġ(-": 5704,
      "Ġworry": 5705,
      "Ġindeed": 5706,
      "Ġlisten": 5707,
      "Ġ500": 5708,
      "SE": 5709,
      "ipped": 5710,
      "Ġcontribute": 5711,
      "Ġclient": 5712,
      "ĠCouncil": 5713,
      "www": 5714,
      "Ġseek": 5715,
      "Ġ==": 5716,
      "ads": 5717,
      "Ġkit": 5718,
      "ĠToday": 5719,
      "Ġvoltage": 5720,
      "Ġturns": 5721,
      "Ġclar": 5722,
      "ĠJournal": 5723,
      "Ġwealth": 5724,
      "Ġconducted": 5725,
      "icit": 5726,
      "Ġhun": 5727,
      "Ġbright": 5728,
      "Ġlibrary": 5729,
      "Ġtrac": 5730,
      "Ġcert": 5731,
      "ĠOpen": 5732,
      "ĠMake": 5733,
      "Ġgreatest": 5734,
      "ĠAssociation": 5735,
      "Ġparameters": 5736,
      "59": 5737,
      "Ġobtain": 5738,
      "Ġhttp": 5739,
      "Ġpolynomial": 5740,
      "ĠQue": 5741,
      "Ġantib": 5742,
      "Ġriver": 5743,
      "oves": 5744,
      "Ġcong": 5745,
      "type": 5746,
      "Add": 5747,
      "ĠVer": 5748,
      "Stage": 5749,
      "According": 5750,
      "Ġeducational": 5751,
      "Ġaccurate": 5752,
      "ĠService": 5753,
      "ĠLib": 5754,
      "Ġhomes": 5755,
      "Bl": 5756,
      "Ġsuggested": 5757,
      "Ġbutton": 5758,
      "anges": 5759,
      "ĠIslam": 5760,
      "ano": 5761,
      "conf": 5762,
      "Ġderivative": 5763,
      "Ġcorresponding": 5764,
      "Ġdriver": 5765,
      "Ġsettings": 5766,
      "ĠNumbers": 5767,
      "Ġtopics": 5768,
      "Ġalle": 5769,
      "Ġdefinitely": 5770,
      "Ġannounced": 5771,
      "Ġfigures": 5772,
      "Ġcontaining": 5773,
      "ĠWater": 5774,
      "Ġdiscussed": 5775,
      "Ġjump": 5776,
      "Ġran": 5777,
      "Ġrepresented": 5778,
      "xiety": 5779,
      "vin": 5780,
      "ĠBay": 5781,
      "ĠProt": 5782,
      "Ġthanks": 5783,
      "Ġinterval": 5784,
      "ena": 5785,
      "Ġwilling": 5786,
      "abled": 5787,
      "onent": 5788,
      "ĠMil": 5789,
      "Ġextract": 5790,
      "inations": 5791,
      "ĠMo": 5792,
      "free": 5793,
      "Ġnative": 5794,
      "Ġsubstant": 5795,
      "Col": 5796,
      "ĠJer": 5797,
      "Ġamazing": 5798,
      "Then": 5799,
      "ontal": 5800,
      "gers": 5801,
      "Ġrational": 5802,
      "Ġcoe": 5803,
      "icious": 5804,
      "cal": 5805,
      "Ġagricult": 5806,
      "ĠSqu": 5807,
      "sm": 5808,
      "Ġloved": 5809,
      "bert": 5810,
      "lete": 5811,
      "tical": 5812,
      "sembly": 5813,
      "Ġsecure": 5814,
      "Ġpossibly": 5815,
      "Ġforget": 5816,
      "ifications": 5817,
      "udd": 5818,
      "stood": 5819,
      "Ġsurgery": 5820,
      "Ġsubsequ": 5821,
      "Ġentirely": 5822,
      "Ġletters": 5823,
      "Ġconsumption": 5824,
      "enced": 5825,
      "Ġhusband": 5826,
      "Ġmixed": 5827,
      "Ġfacts": 5828,
      "%)": 5829,
      "writ": 5830,
      "Ġsweet": 5831,
      "Ġreferred": 5832,
      "Ġnarr": 5833,
      "Ġq": 5834,
      "Ġconfidence": 5835,
      "ĠSolution": 5836,
      "ita": 5837,
      "Ġbreast": 5838,
      "Ġexpensive": 5839,
      "Ġboot": 5840,
      "Ġlinks": 5841,
      "Ġgenerate": 5842,
      "atural": 5843,
      "uke": 5844,
      "Ġnone": 5845,
      "Ġadministration": 5846,
      "ĠCompany": 5847,
      "ĠWord": 5848,
      "Ġplastic": 5849,
      "gypt": 5850,
      "Ġrevealed": 5851,
      "arp": 5852,
      "Ġcircumst": 5853,
      "Ġjoin": 5854,
      "Ġindicate": 5855,
      "Ġreducing": 5856,
      "ĠFIG": 5857,
      "Ġincred": 5858,
      "ĠUnderstanding": 5859,
      "Ġconsidering": 5860,
      "Name": 5861,
      "ĠMad": 5862,
      "ĠTHE": 5863,
      "ĠRussian": 5864,
      "ĠRob": 5865,
      "alpha": 5866,
      "Ġideal": 5867,
      "Ġadvert": 5868,
      "ĠRev": 5869,
      "Ġmonit": 5870,
      "ĠTexas": 5871,
      "Ġpurposes": 5872,
      "Ġradius": 5873,
      "Another": 5874,
      "Ġwaiting": 5875,
      "ĠMichael": 5876,
      "otes": 5877,
      "ĠCare": 5878,
      "Ġrisks": 5879,
      "Ġprocedure": 5880,
      "Ġnetworks": 5881,
      "Ġrecorded": 5882,
      "Ġadult": 5883,
      "flow": 5884,
      "Ġbattery": 5885,
      "IF": 5886,
      "ĠHen": 5887,
      "ĠMem": 5888,
      "stream": 5889,
      "Ġarms": 5890,
      "Using": 5891,
      "Ġsamples": 5892,
      "Ġcreation": 5893,
      "Ġsector": 5894,
      "ampions": 5895,
      "Ġcurve": 5896,
      "ĠFore": 5897,
      "ĠCap": 5898,
      "Ġpromote": 5899,
      "Ġminute": 5900,
      "62": 5901,
      "Ġafford": 5902,
      "oking": 5903,
      "Ġwidely": 5904,
      "van": 5905,
      "Per": 5906,
      "Ġ2003": 5907,
      "Ġmanufacture": 5908,
      "ĠSing": 5909,
      "soft": 5910,
      "Ġdogs": 5911,
      "Ġaf": 5912,
      "Ġplate": 5913,
      "Ġvan": 5914,
      "Ġvirtual": 5915,
      "ĠBer": 5916,
      "Ġproceed": 5917,
      "Ġslope": 5918,
      "Ġinfect": 5919,
      "antly": 5920,
      "DA": 5921,
      "Ġtrip": 5922,
      "Ġgrav": 5923,
      "Ġwatching": 5924,
      "Ġmanaged": 5925,
      "Ġban": 5926,
      "Ġminim": 5927,
      "Ġconcern": 5928,
      "Rel": 5929,
      "ato": 5930,
      "Ġagreement": 5931,
      "ĠSpe": 5932,
      "infty": 5933,
      "ĠHelp": 5934,
      "ĠEr": 5935,
      "Ġacademic": 5936,
      "phone": 5937,
      "Ġstudied": 5938,
      "IA": 5939,
      "Ġimpossible": 5940,
      "rep": 5941,
      "SP": 5942,
      "Ġtechnical": 5943,
      "Ġbroken": 5944,
      "Ġmm": 5945,
      "Ġattacks": 5946,
      "eal": 5947,
      "Ġrank": 5948,
      "Ġinterests": 5949,
      "Ġfluid": 5950,
      "Ġgarden": 5951,
      "asy": 5952,
      "Ġcro": 5953,
      "Note": 5954,
      "uesday": 5955,
      "ĠProgram": 5956,
      "CL": 5957,
      "Ġicon": 5958,
      "aks": 5959,
      "ansion": 5960,
      "Ġves": 5961,
      "Ġ-\\": 5962,
      "cap": 5963,
      "Ġencourage": 5964,
      "Ġended": 5965,
      "Ġgender": 5966,
      "Ġtro": 5967,
      "Ġends": 5968,
      "Ġpure": 5969,
      "Ġtick": 5970,
      "Ġuns": 5971,
      "Ġquarter": 5972,
      "Ġbacteria": 5973,
      "Ġfeelings": 5974,
      "ota": 5975,
      "eles": 5976,
      "Ġfootball": 5977,
      "Ġfort": 5978,
      "arsh": 5979,
      "enth": 5980,
      "Ġconflict": 5981,
      "Te": 5982,
      "Ġrepeated": 5983,
      "Ġaid": 5984,
      "92": 5985,
      "Ġaccompl": 5986,
      "EO": 5987,
      "Ġgrade": 5988,
      "ĠGraph": 5989,
      "Ġdensity": 5990,
      "Ġassign": 5991,
      "orry": 5992,
      "Ġimplic": 5993,
      "car": 5994,
      "leq": 5995,
      "ednes": 5996,
      "}$": 5997,
      "Ġdx": 5998,
      "Ġspending": 5999,
      "agine": 6000,
      "IR": 6001,
      "inity": 6002,
      "Ġpictures": 6003,
      "Ġgenetic": 6004,
      "Ġju": 6005,
      "Ġdepth": 6006,
      "Ġholding": 6007,
      ".;": 6008,
      "52": 6009,
      "ette": 6010,
      "Ġtox": 6011,
      "alls": 6012,
      "ĠProject": 6013,
      "ĠNor": 6014,
      "Ġterrit": 6015,
      "Ġsurrounding": 6016,
      "Ġcorner": 6017,
      "54": 6018,
      "was": 6019,
      "friend": 6020,
      "Ġmarried": 6021,
      "xygen": 6022,
      "Ġframe": 6023,
      "ogue": 6024,
      "Ð¸": 6025,
      "Of": 6026,
      "VID": 6027,
      "Gen": 6028,
      "Ġpartner": 6029,
      "ella": 6030,
      "Ġdetailed": 6031,
      "Ġconversation": 6032,
      "Ġselection": 6033,
      "Ġou": 6034,
      "ophy": 6035,
      "Ġraise": 6036,
      "isher": 6037,
      "Ġdiverse": 6038,
      "Ġreligion": 6039,
      "imental": 6040,
      "alities": 6041,
      "Ġitem": 6042,
      "pty": 6043,
      "Ġclim": 6044,
      "ĠDoes": 6045,
      "Ġdatabase": 6046,
      "Ġdescription": 6047,
      "ĠCentral": 6048,
      "Ġbone": 6049,
      "Ġcapable": 6050,
      "Ġmarked": 6051,
      "she": 6052,
      "ĠFlor": 6053,
      "ĠConf": 6054,
      "tering": 6055,
      "Ġcritic": 6056,
      "roduct": 6057,
      "Ġrough": 6058,
      "Ġputting": 6059,
      "ĠSmith": 6060,
      "Ġstanding": 6061,
      "Ġstreet": 6062,
      "Man": 6063,
      "{(": 6064,
      "Ġformation": 6065,
      "itle": 6066,
      "ldots": 6067,
      "Ġalbum": 6068,
      "Ġstars": 6069,
      "Ġforg": 6070,
      "Ġsmooth": 6071,
      "anda": 6072,
      "Ġinhib": 6073,
      "Ġentry": 6074,
      "Ġreduction": 6075,
      "Ġvast": 6076,
      "Ġunknown": 6077,
      "ĠHall": 6078,
      "ĠChapter": 6079,
      "Ġcra": 6080,
      "Ġbiggest": 6081,
      "Ġdefend": 6082,
      "Ġinvention": 6083,
      "Ed": 6084,
      "Ġarrange": 6085,
      "Ġdollars": 6086,
      "kin": 6087,
      "Ġelev": 6088,
      "Ġvul": 6089,
      "active": 6090,
      "Ġreject": 6091,
      "Well": 6092,
      "Ġdemoc": 6093,
      "Ġmit": 6094,
      "ĠMass": 6095,
      "Ġaccepted": 6096,
      "Ġluck": 6097,
      "ĠArab": 6098,
      "Ġcloser": 6099,
      "Calcul": 6100,
      "ednesday": 6101,
      "amily": 6102,
      "Ġchart": 6103,
      "Ġ37": 6104,
      "ycl": 6105,
      "Ġ]": 6106,
      "ĠBig": 6107,
      "Ġbuildings": 6108,
      "Ġmeat": 6109,
      "alian": 6110,
      "ĠFund": 6111,
      "Ġearn": 6112,
      "Ġpray": 6113,
      "Ġalt": 6114,
      "Ġremote": 6115,
      "inating": 6116,
      "ĠGovernment": 6117,
      "adian": 6118,
      "Ġparticipants": 6119,
      "ĠPlease": 6120,
      "Ġillness": 6121,
      "Ġunlike": 6122,
      "Ġhero": 6123,
      "Ġappearance": 6124,
      "Ġbegins": 6125,
      "Ġconclusion": 6126,
      "Ġamounts": 6127,
      "Ġchoices": 6128,
      "Ġestimated": 6129,
      "Ġrain": 6130,
      "Ġrecovery": 6131,
      "Ġhousehold": 6132,
      "ching": 6133,
      "ĠHave": 6134,
      "arn": 6135,
      "61": 6136,
      "includ": 6137,
      "Ġcreative": 6138,
      "Ġassume": 6139,
      "ursday": 6140,
      "Ġcart": 6141,
      "ibilities": 6142,
      "Ġchannel": 6143,
      "Ġmedicine": 6144,
      "Ġreaders": 6145,
      "Ġarrest": 6146,
      "ĠEgypt": 6147,
      "Ġcos": 6148,
      "Ġcere": 6149,
      "uts": 6150,
      "ithms": 6151,
      "Ġbirds": 6152,
      "Ġ38": 6153,
      "long": 6154,
      "Ġodd": 6155,
      "ĠIr": 6156,
      "ether": 6157,
      "Ġstret": 6158,
      "ĠThomas": 6159,
      "Ġcolle": 6160,
      "Ġrecommended": 6161,
      "aked": 6162,
      "%.": 6163,
      "Ġcompetition": 6164,
      "Given": 6165,
      "cons": 6166,
      "Ġlies": 6167,
      "Ġconnections": 6168,
      "ĠPhil": 6169,
      "Ġring": 6170,
      "ĠJewish": 6171,
      "ĠBat": 6172,
      "ĠLeague": 6173,
      "ivery": 6174,
      "Ġtun": 6175,
      "night": 6176,
      "ĠAnother": 6177,
      "Ġmanager": 6178,
      "Ġphenomen": 6179,
      "Ġflav": 6180,
      "CA": 6181,
      "ĠBank": 6182,
      ")}{": 6183,
      "Ġexperts": 6184,
      "Ġshift": 6185,
      "va": 6186,
      "ye": 6187,
      "\">": 6188,
      "ĠFree": 6189,
      "Ġ300": 6190,
      "data": 6191,
      "Ġfib": 6192,
      "Ġsoul": 6193,
      "Ġconcerned": 6194,
      "Ġcrisis": 6195,
      "osc": 6196,
      "ĠTom": 6197,
      "Ġingred": 6198,
      "Ġconvent": 6199,
      "ĠAnswer": 6200,
      "Ġcoffee": 6201,
      "ĠSociety": 6202,
      "Ġregul": 6203,
      "Ġaccident": 6204,
      "Ġkinds": 6205,
      "Ġdelay": 6206,
      "itud": 6207,
      "Ġfinished": 6208,
      "Äģ": 6209,
      "ĠĠĠĠĠĠĠĠ": 6210,
      "Ġgenerated": 6211,
      "ĠKnow": 6212,
      "hi": 6213,
      "date": 6214,
      "53": 6215,
      "Ġresponsibility": 6216,
      "ĠWhere": 6217,
      "imensional": 6218,
      "Ġjoined": 6219,
      "ĠEst": 6220,
      "Ġsnow": 6221,
      "ĠPoint": 6222,
      "ĠCommon": 6223,
      "Ġrecon": 6224,
      "win": 6225,
      "ua": 6226,
      "Ġox": 6227,
      "Consider": 6228,
      "Ġpackage": 6229,
      "Ġimmune": 6230,
      "ĠRobert": 6231,
      "Ġdecimal": 6232,
      "stract": 6233,
      "itt": 6234,
      "Ġchosen": 6235,
      "ĠList": 6236,
      "ãĥ": 6237,
      "ht": 6238,
      "Ġspeaking": 6239,
      "ĠMount": 6240,
      "oding": 6241,
      "Ġtrouble": 6242,
      "Ġofficials": 6243,
      "Ġslowly": 6244,
      "Ġmeters": 6245,
      "Ġpush": 6246,
      "Most": 6247,
      "ala": 6248,
      "Ġyouth": 6249,
      "Ġknowing": 6250,
      "Ġtow": 6251,
      "Ġelectro": 6252,
      "ĠWil": 6253,
      "Ġsuppl": 6254,
      "ĠIntroduction": 6255,
      "Ġfle": 6256,
      "Ġadvent": 6257,
      "Ġpositions": 6258,
      "Ġlinked": 6259,
      "Ġtaught": 6260,
      "ĠWhe": 6261,
      "ĠInteg": 6262,
      "ĠSpanish": 6263,
      "OP": 6264,
      "othe": 6265,
      "ĠStr": 6266,
      "Ġurban": 6267,
      "Ġconcentration": 6268,
      "Ġdefine": 6269,
      "Ġcolors": 6270,
      "Ġ33": 6271,
      "chen": 6272,
      "ador": 6273,
      "Ġquadratic": 6274,
      "%,": 6275,
      "Ġremained": 6276,
      "ĠOper": 6277,
      "onymous": 6278,
      "Ġ75": 6279,
      "Ġherself": 6280,
      "htt": 6281,
      "Ġvac": 6282,
      "Ġvital": 6283,
      "Ġconvert": 6284,
      "Ġcrime": 6285,
      "Ġindustrial": 6286,
      "DF": 6287,
      "zed": 6288,
      "Ġod": 6289,
      "Ġtypical": 6290,
      "Ġassessment": 6291,
      "Ġoccurred": 6292,
      "ĠJo": 6293,
      "urday": 6294,
      "Ġsin": 6295,
      "Ġisland": 6296,
      "Ġguys": 6297,
      "ĠAI": 6298,
      "Ġexistence": 6299,
      "ĠApplic": 6300,
      "Ġpaint": 6301,
      "Ġimmig": 6302,
      "Ġrefers": 6303,
      "Ġprecise": 6304,
      "Tr": 6305,
      "ĠIP": 6306,
      "Ġattend": 6307,
      "bi": 6308,
      "Ġconsistent": 6309,
      "Ġpowers": 6310,
      "uracy": 6311,
      "Ġwalking": 6312,
      "ĠOld": 6313,
      "CT": 6314,
      "ĠIran": 6315,
      "nam": 6316,
      "edy": 6317,
      "Ġintelligence": 6318,
      "cknow": 6319,
      "Ġwriter": 6320,
      "Ġengage": 6321,
      "Ġ2001": 6322,
      "dx": 6323,
      "Ġloan": 6324,
      "Ġlimits": 6325,
      "Ġrecip": 6326,
      "ĠFrank": 6327,
      "Ġrealize": 6328,
      "Ġpossess": 6329,
      "Ġhighlight": 6330,
      "Ġauthority": 6331,
      "87": 6332,
      "ĠAcad": 6333,
      "ĠUN": 6334,
      "ĠNav": 6335,
      "Ġrestrict": 6336,
      "Ġsubjects": 6337,
      "ĠStudents": 6338,
      "Ġmarriage": 6339,
      "Ġdiabetes": 6340,
      "Ġsuitable": 6341,
      "ĠFranc": 6342,
      "Ġlie": 6343,
      "han": 6344,
      "ports": 6345,
      "Ġourselves": 6346,
      "Ġlanguages": 6347,
      "Ġjustice": 6348,
      "Ġprimarily": 6349,
      "Ġtang": 6350,
      "cm": 6351,
      "Ġment": 6352,
      "Ġtherm": 6353,
      "Ġkil": 6354,
      "Ġinteger": 6355,
      "Ġfunds": 6356,
      "file": 6357,
      "ĠMuslim": 6358,
      "rates": 6359,
      "Ġthread": 6360,
      "plant": 6361,
      "Ġfeedback": 6362,
      "Ġaccounts": 6363,
      "gent": 6364,
      "Please": 6365,
      "Ġinstitutions": 6366,
      "ĠBill": 6367,
      "Ġguarant": 6368,
      "stall": 6369,
      "mail": 6370,
      "Ġtransition": 6371,
      "Ġ=>": 6372,
      "Ġblow": 6373,
      "Ġtrad": 6374,
      "mathbb": 6375,
      "ints": 6376,
      "Ġ\\(-": 6377,
      "EF": 6378,
      "ĠJe": 6379,
      "Ġaward": 6380,
      "Ġholds": 6381,
      "Ġrid": 6382,
      "Ġterror": 6383,
      "Sp": 6384,
      "Ġrecognize": 6385,
      "?**": 6386,
      "Ġhonest": 6387,
      "uls": 6388,
      "Ġmainly": 6389,
      "Ġneighbor": 6390,
      "Ġfab": 6391,
      "Ġvillage": 6392,
      "ĠBack": 6393,
      "kes": 6394,
      "Ġvertical": 6395,
      "ĠIsland": 6396,
      "Ġtail": 6397,
      "irty": 6398,
      "illa": 6399,
      "86": 6400,
      "ĠÂ·": 6401,
      "Ġlaunch": 6402,
      "Ġiniti": 6403,
      "Ġsick": 6404,
      "erest": 6405,
      "Ġvessel": 6406,
      "Ġanxiety": 6407,
      "Ġoxygen": 6408,
      "Ġdistrict": 6409,
      "Ġtested": 6410,
      "Ġfourth": 6411,
      "See": 6412,
      "faces": 6413,
      "ho": 6414,
      "Ġdrawing": 6415,
      "Ġpor": 6416,
      "Ġ2002": 6417,
      "ĠMa": 6418,
      "Press": 6419,
      "fe": 6420,
      "Ġevaluate": 6421,
      "ĠTor": 6422,
      "rog": 6423,
      "Ġhundreds": 6424,
      "level": 6425,
      "\\_": 6426,
      "Ġpool": 6427,
      "View": 6428,
      "Ġleadership": 6429,
      "Ġexplanation": 6430,
      "Ġmoves": 6431,
      "Ġenable": 6432,
      "Ġbag": 6433,
      "Ġgather": 6434,
      "eah": 6435,
      "ĠOS": 6436,
      "MP": 6437,
      "Ġsalt": 6438,
      "89": 6439,
      "Ġcompare": 6440,
      "ĠDev": 6441,
      "Ġneighb": 6442,
      "CE": 6443,
      "Ġregist": 6444,
      "blems": 6445,
      "Americ": 6446,
      "Ġelectrical": 6447,
      "Ġmassive": 6448,
      "Ġperman": 6449,
      "Ġdefe": 6450,
      "kg": 6451,
      "Ġconsequences": 6452,
      "ĠArea": 6453,
      "position": 6454,
      "rastructure": 6455,
      "Ġuniversity": 6456,
      "ĠPeter": 6457,
      "ĠMont": 6458,
      "ipping": 6459,
      "trans": 6460,
      "ĠBre": 6461,
      "Ġrestaur": 6462,
      "Ġsho": 6463,
      "Ġdocuments": 6464,
      "jo": 6465,
      "ateral": 6466,
      "war": 6467,
      "Ġtheorem": 6468,
      "Ġreform": 6469,
      "Ġped": 6470,
      "ptions": 6471,
      "Ġhorse": 6472,
      "Ġwitness": 6473,
      "ĠJud": 6474,
      "Ġtips": 6475,
      "Ġsitting": 6476,
      "Ġincreasingly": 6477,
      "Ġdepression": 6478,
      "Ġbeat": 6479,
      "sey": 6480,
      "ĠStar": 6481,
      "ceived": 6482,
      "Ref": 6483,
      "ĠLast": 6484,
      "then": 6485,
      "Ġstopped": 6486,
      "clusive": 6487,
      "Up": 6488,
      "ĠSunday": 6489,
      "ocy": 6490,
      "ĠMot": 6491,
      "Ġoffering": 6492,
      "Ġyield": 6493,
      "Ġrub": 6494,
      "Ġnoise": 6495,
      "ĠMain": 6496,
      "road": 6497,
      "Ġflight": 6498,
      "Ġmultiplication": 6499,
      "osph": 6500,
      "Challenge": 6501,
      "ĠJul": 6502,
      "mun": 6503,
      "Ġgall": 6504,
      "Ġapps": 6505,
      "Ġmillions": 6506,
      "âĢĺ": 6507,
      "ĠâĨ": 6508,
      "May": 6509,
      "Pr": 6510,
      "ĠDivision": 6511,
      "ship": 6512,
      "Ġconsists": 6513,
      "Many": 6514,
      "uilding": 6515,
      "ĠFriday": 6516,
      "Ġmas": 6517,
      "ĠKey": 6518,
      "Ġowner": 6519,
      "ĠĠĠ": 6520,
      "Ġsettle": 6521,
      "Ġcircumstances": 6522,
      "igma": 6523,
      "Ġorganic": 6524,
      "ĠOnly": 6525,
      "Ġfighting": 6526,
      "rics": 6527,
      "uy": 6528,
      "Ġadvoc": 6529,
      "ittle": 6530,
      "Ġinterface": 6531,
      "dule": 6532,
      "ĠHuman": 6533,
      "Ġimmun": 6534,
      "Ġchief": 6535,
      "Ġfeels": 6536,
      "Ġskill": 6537,
      "ĠExper": 6538,
      "Ġdeeper": 6539,
      "rating": 6540,
      "Ġgoods": 6541,
      "ipal": 6542,
      "Type": 6543,
      "Ġintegration": 6544,
      "âĪĴ": 6545,
      "ĠCath": 6546,
      "kay": 6547,
      "Ġyellow": 6548,
      "Ġpassword": 6549,
      "Ġhealthcare": 6550,
      "ĠDevelopment": 6551,
      "Ġmechanism": 6552,
      "Ġcaught": 6553,
      "BN": 6554,
      "Ġpotentially": 6555,
      "ussion": 6556,
      "ĠLong": 6557,
      "ĠStat": 6558,
      "hent": 6559,
      "Ġ34": 6560,
      "Ġexploring": 6561,
      "ĠBur": 6562,
      "prove": 6563,
      "Ġphotos": 6564,
      "Ġchallenging": 6565,
      "Ġinner": 6566,
      "ĠMaybe": 6567,
      "nic": 6568,
      "ĠEnergy": 6569,
      "Ġrelation": 6570,
      "Ġshell": 6571,
      "Ġpolitics": 6572,
      "Ġcomparison": 6573,
      "Ġunderstood": 6574,
      "Ġhur": 6575,
      "Ġcub": 6576,
      "agers": 6577,
      "Ġcloud": 6578,
      "ĠUSA": 6579,
      "Ġprofessor": 6580,
      "List": 6581,
      "ĠYear": 6582,
      "ologist": 6583,
      "ĠGreek": 6584,
      "Ġstorm": 6585,
      "Ġfacilit": 6586,
      "Ġhappening": 6587,
      "Ġprinciple": 6588,
      "Ġthin": 6589,
      "Ġextent": 6590,
      "ĠSil": 6591,
      "ĠConsider": 6592,
      "Ġpour": 6593,
      "Ð½": 6594,
      "Just": 6595,
      "tenance": 6596,
      "value": 6597,
      "Ġsuc": 6598,
      "Ġmanip": 6599,
      "Ġ!": 6600,
      "Ġstored": 6601,
      "Ġimplementation": 6602,
      "Ġpil": 6603,
      "ĠDen": 6604,
      "Ġ64": 6605,
      "Ġclients": 6606,
      "ĠInformation": 6607,
      "Ġlaun": 6608,
      "Ġdecrease": 6609,
      "bles": 6610,
      "unte": 6611,
      "ĠCP": 6612,
      "UN": 6613,
      "outs": 6614,
      "Ġinsights": 6615,
      "ĠAnn": 6616,
      "ĠNote": 6617,
      "coming": 6618,
      "93": 6619,
      "(-": 6620,
      "Ġclosely": 6621,
      "Ġsigned": 6622,
      "Ġextended": 6623,
      "ĠLook": 6624,
      "Ġcontrolled": 6625,
      "Ġprogramming": 6626,
      "Val": 6627,
      "iration": 6628,
      "Ġrail": 6629,
      "Ġlisted": 6630,
      "bmatrix": 6631,
      "Ġtrib": 6632,
      "ĠArmy": 6633,
      "atal": 6634,
      "Ġperm": 6635,
      "Ġstone": 6636,
      "CR": 6637,
      "Ġdivis": 6638,
      "Ġprofit": 6639,
      "ĠIdent": 6640,
      "itative": 6641,
      "Ġcollected": 6642,
      "Ġnoticed": 6643,
      "ĠLab": 6644,
      "Ġelectronic": 6645,
      "Ġderived": 6646,
      "Where": 6647,
      "Ġfunding": 6648,
      "Ġtight": 6649,
      "ĠOrgan": 6650,
      "isk": 6651,
      "ĠIns": 6652,
      "erves": 6653,
      "cape": 6654,
      "crib": 6655,
      "Ġmessages": 6656,
      "ĠCirc": 6657,
      "Ġkg": 6658,
      "Ġexposed": 6659,
      "ĠMiddle": 6660,
      "Ġcarefully": 6661,
      "Ġrelax": 6662,
      "Ġartists": 6663,
      "Ġcogn": 6664,
      "Aut": 6665,
      "51": 6666,
      "Ġmarkets": 6667,
      "Ġthank": 6668,
      "Ġjudge": 6669,
      "Ġmatters": 6670,
      "fit": 6671,
      "Ġultimately": 6672,
      "ĠSolving": 6673,
      "Ġsentence": 6674,
      "Ġdesire": 6675,
      "ĠMexico": 6676,
      "eless": 6677,
      "ĠEnd": 6678,
      "Ġawareness": 6679,
      "Ġbought": 6680,
      "osa": 6681,
      "Right": 6682,
      "ĠAnalysis": 6683,
      "oken": 6684,
      "Ġcorrel": 6685,
      "aste": 6686,
      "Ġdivide": 6687,
      "vec": 6688,
      "Ġ1990": 6689,
      "Ġchronic": 6690,
      "Problem": 6691,
      "Ġwalls": 6692,
      "Ġtaste": 6693,
      "Ġturning": 6694,
      "Ġdrawn": 6695,
      "Ġfan": 6696,
      "Ġframework": 6697,
      "ÑĤ": 6698,
      "olars": 6699,
      "Ġarmy": 6700,
      "ĠHam": 6701,
      "Ġpossibility": 6702,
      "Ġartist": 6703,
      "Ġlung": 6704,
      "ĠMean": 6705,
      "Ġdefense": 6706,
      "Ġsession": 6707,
      "Ġdenominator": 6708,
      "var": 6709,
      "Ġnine": 6710,
      "Ġinject": 6711,
      "ĠTimes": 6712,
      "ĠProper": 6713,
      "Ġnecessarily": 6714,
      "ĠBest": 6715,
      "Ġshif": 6716,
      "Ġneut": 6717,
      "Ġfrag": 6718,
      "Ġshel": 6719,
      "Ġindicates": 6720,
      "ĠScott": 6721,
      "Ġcrim": 6722,
      "Ġfant": 6723,
      "lock": 6724,
      "ulum": 6725,
      "Ġeditor": 6726,
      "Ġelectricity": 6727,
      "ounce": 6728,
      "Ġcraft": 6729,
      "ora": 6730,
      "ston": 6731,
      "fortunately": 6732,
      "Ġsegment": 6733,
      "ĠWhich": 6734,
      "Ġagent": 6735,
      "Ġposts": 6736,
      "Ġbigger": 6737,
      "Ġdesired": 6738,
      "ĠProfess": 6739,
      "ĠVis": 6740,
      "Ġ120": 6741,
      "MA": 6742,
      "BS": 6743,
      "Ġreturns": 6744,
      "Ġemergency": 6745,
      "ups": 6746,
      "ĠMedic": 6747,
      "Mod": 6748,
      "Ġnormally": 6749,
      "Ġwest": 6750,
      "Ġsan": 6751,
      "Ġdepartment": 6752,
      "Ġlatter": 6753,
      "ĠTake": 6754,
      "ĠAbout": 6755,
      "Ġinstructions": 6756,
      "Comm": 6757,
      "Ġsubs": 6758,
      "72": 6759,
      "Ø§": 6760,
      "Ġcomprehensive": 6761,
      "inux": 6762,
      "ĠAtl": 6763,
      "ĠCheck": 6764,
      "astern": 6765,
      "Ġsupporting": 6766,
      "Ġresolution": 6767,
      "Ġlessons": 6768,
      "ĠConclusion": 6769,
      "anta": 6770,
      "Data": 6771,
      "ĠMax": 6772,
      "Ã©e": 6773,
      "Ġfans": 6774,
      "ĠMer": 6775,
      "Ġshad": 6776,
      "ighter": 6777,
      "ĠThose": 6778,
      "ĠJose": 6779,
      "Ġachieved": 6780,
      "Ġvulner": 6781,
      "Ġsignals": 6782,
      "Ġmine": 6783,
      "pring": 6784,
      "Ġthousand": 6785,
      "ĠExt": 6786,
      "eding": 6787,
      "Ġdisorder": 6788,
      "Ġseeking": 6789,
      "Ġsad": 6790,
      "ĠAdditionally": 6791,
      "Ġphr": 6792,
      "ĠEngine": 6793,
      "ĠTim": 6794,
      "Ġpin": 6795,
      "imation": 6796,
      "Ġcompound": 6797,
      "Ġfashion": 6798,
      "Ġ42": 6799,
      "Ġerrors": 6800,
      "Ġfly": 6801,
      "ĠCur": 6802,
      "CS": 6803,
      "Over": 6804,
      "ĠParis": 6805,
      "ificial": 6806,
      "Ġpref": 6807,
      "Ġneither": 6808,
      "ourse": 6809,
      "azon": 6810,
      "Ġprompt": 6811,
      "Ġacknow": 6812,
      "EP": 6813,
      "uster": 6814,
      "Posted": 6815,
      "94": 6816,
      "Ġtelling": 6817,
      "Ġwindows": 6818,
      "Ġshock": 6819,
      "Ġspaces": 6820,
      "Am": 6821,
      "Oh": 6822,
      "Ġconscious": 6823,
      "ĠTre": 6824,
      "Ġreplaced": 6825,
      "Ġtheore": 6826,
      "ione": 6827,
      "Ġpayment": 6828,
      "OW": 6829,
      "Ġlargely": 6830,
      "ĠLim": 6831,
      "rency": 6832,
      "obe": 6833,
      "ĠSimilar": 6834,
      "osit": 6835,
      "Ġdisk": 6836,
      "Ġtelevision": 6837,
      "ĠFlorida": 6838,
      "ĠReal": 6839,
      "ĠMonday": 6840,
      "Ġgrew": 6841,
      "ĠCalculus": 6842,
      "Ġphysics": 6843,
      "Ġtiny": 6844,
      "swe": 6845,
      "ls": 6846,
      "Ġath": 6847,
      "eties": 6848,
      "Ġreceiving": 6849,
      "Once": 6850,
      "ĠCharles": 6851,
      "Ġpump": 6852,
      "ĠComple": 6853,
      "Ġgenes": 6854,
      "Ġaccuracy": 6855,
      "ĠStart": 6856,
      "Ġremind": 6857,
      "Ġnarrow": 6858,
      "Ġsongs": 6859,
      "ĠTem": 6860,
      "Ġflood": 6861,
      "hedule": 6862,
      "Ġdelivery": 6863,
      "Ġbes": 6864,
      "ĠAsia": 6865,
      "Ġvehicles": 6866,
      "Ġtemperatures": 6867,
      "ani": 6868,
      "ja": 6869,
      "umes": 6870,
      "Ġadm": 6871,
      "Ġren": 6872,
      "Ġprotected": 6873,
      "Ġvib": 6874,
      "Ġautomatically": 6875,
      "ĠSuch": 6876,
      "Ġpassing": 6877,
      "rants": 6878,
      "Ġmachines": 6879,
      "Ġhyp": 6880,
      "ĠFood": 6881,
      "orough": 6882,
      "ĠLess": 6883,
      "Ġsky": 6884,
      "ĠDesign": 6885,
      "Ġforth": 6886,
      "Ġagreed": 6887,
      "Ġdiagnosis": 6888,
      "76": 6889,
      "Ġmagnetic": 6890,
      "imensions": 6891,
      "Ġexplains": 6892,
      "ais": 6893,
      "Ġacts": 6894,
      "Ġhardware": 6895,
      "ocket": 6896,
      "Ġsuccessfully": 6897,
      "Ġdynamic": 6898,
      "ĠVirgin": 6899,
      "Ġboys": 6900,
      "ĠWomen": 6901,
      "ĠSolve": 6902,
      "Ġton": 6903,
      "gon": 6904,
      "Ġpaying": 6905,
      "Ġdebate": 6906,
      "ĠQuestions": 6907,
      "Ġrevolution": 6908,
      "inite": 6909,
      "mes": 6910,
      "Delta": 6911,
      "ĠProb": 6912,
      "Ġbrows": 6913,
      "Ġoriginally": 6914,
      "pling": 6915,
      "ĠFurthermore": 6916,
      "ircraft": 6917,
      "andon": 6918,
      "ependent": 6919,
      "host": 6920,
      "yer": 6921,
      "ĠdÃ©": 6922,
      "Ġmonitoring": 6923,
      "Ġunable": 6924,
      "RES": 6925,
      "Ġentertain": 6926,
      "mu": 6927,
      "Ġdedicated": 6928,
      "ĠMinister": 6929,
      "ĠFil": 6930,
      "ĠWik": 6931,
      "liament": 6932,
      "ĠReport": 6933,
      "Ġgro": 6934,
      "Ġsplit": 6935,
      "Ġestimate": 6936,
      "Ġinteraction": 6937,
      "azine": 6938,
      "ĠDig": 6939,
      "lines": 6940,
      "ĠAcc": 6941,
      "Ġeast": 6942,
      "Ġmg": 6943,
      "bur": 6944,
      "Ġoutcome": 6945,
      "Ġremark": 6946,
      "ypes": 6947,
      "ĠLouis": 6948,
      "Ġ&=": 6949,
      "raq": 6950,
      "Ġhousing": 6951,
      "imeter": 6952,
      "oral": 6953,
      "ref": 6954,
      "Ġatmosphere": 6955,
      "Chapter": 6956,
      "Ġmeasurement": 6957,
      "xture": 6958,
      "elled": 6959,
      "Ġdiscrim": 6960,
      "Ġparticles": 6961,
      "Ġspiritual": 6962,
      "Ġarrived": 6963,
      "inking": 6964,
      "Ġnutri": 6965,
      "ultane": 6966,
      "ĠCarol": 6967,
      "race": 6968,
      "Ġempty": 6969,
      "Ġcorrectly": 6970,
      "Ġquiet": 6971,
      "Ġstre": 6972,
      "')": 6973,
      "roke": 6974,
      "reens": 6975,
      "Ġgrown": 6976,
      "Ġgrass": 6977,
      "Ġbeauty": 6978,
      "Ġweapons": 6979,
      "Ġcalling": 6980,
      "ogether": 6981,
      "Ġneuro": 6982,
      "ĠAND": 6983,
      "ĠMill": 6984,
      "Ġinvestigation": 6985,
      "Ġemissions": 6986,
      "ãģ": 6987,
      "84": 6988,
      "iac": 6989,
      "dig": 6990,
      "inet": 6991,
      "ĠTotal": 6992,
      "Ġille": 6993,
      "Ġeggs": 6994,
      "ensus": 6995,
      "BA": 6996,
      "ĠPet": 6997,
      "Ġplenty": 6998,
      "Ġsucceed": 6999,
      "ĠPoly": 7000,
      "Ġpropos": 7001,
      "Ġble": 7002,
      "ĠExerc": 7003,
      "cho": 7004,
      "CM": 7005,
      "izer": 7006,
      "Ġwidth": 7007,
      "Ġoccasion": 7008,
      "rive": 7009,
      "Ġdescribes": 7010,
      "Ġrepresentation": 7011,
      "Ġlegs": 7012,
      "Ġconven": 7013,
      "Ġpopulations": 7014,
      "Ġfert": 7015,
      "Ġcomfortable": 7016,
      "Ġseat": 7017,
      "RI": 7018,
      "Ġstrange": 7019,
      "ĠTwitter": 7020,
      "function": 7021,
      "Ġusual": 7022,
      "Ġcreates": 7023,
      "Ġrenew": 7024,
      "Ġmonitor": 7025,
      "Under": 7026,
      "icago": 7027,
      "ĠFunctions": 7028,
      "ca": 7029,
      "Ġrealized": 7030,
      "ĠCamp": 7031,
      "Ġau": 7032,
      "istical": 7033,
      "Ġwherein": 7034,
      "Thanks": 7035,
      "world": 7036,
      "Ġtor": 7037,
      "Ġ1000": 7038,
      "Ġdemonstrate": 7039,
      "Ġappreciate": 7040,
      "lets": 7041,
      "Ġregularly": 7042,
      "Ass": 7043,
      "Ġentered": 7044,
      "Ġhorm": 7045,
      "ĠLearning": 7046,
      "91": 7047,
      "Ġpassion": 7048,
      "Ġnegot": 7049,
      "ĠMoreover": 7050,
      "Ġinfrastructure": 7051,
      "Ġfilms": 7052,
      "Ġocean": 7053,
      "ĠDistrict": 7054,
      "Ġterminal": 7055,
      "eterm": 7056,
      "Ġcomputers": 7057,
      "Ġcommenting": 7058,
      "ĠSar": 7059,
      "Ġsight": 7060,
      "west": 7061,
      "Ġprofile": 7062,
      "bran": 7063,
      "Time": 7064,
      "ĠEU": 7065,
      "Ġblocks": 7066,
      "OC": 7067,
      "Ġborder": 7068,
      "Ġdesk": 7069,
      "Ġroute": 7070,
      "Ġresidents": 7071,
      "run": 7072,
      "Ġprofessionals": 7073,
      "Ġmetab": 7074,
      "Ġuniverse": 7075,
      "udo": 7076,
      "Ġec": 7077,
      "Ġcontemporary": 7078,
      "Ġroutine": 7079,
      "Ġdiameter": 7080,
      "Ġbanks": 7081,
      "ellect": 7082,
      "Ġrig": 7083,
      "Ġrecognized": 7084,
      "Ġresponses": 7085,
      "ĠManagement": 7086,
      "Ġstatements": 7087,
      "burg": 7088,
      "Ġdomestic": 7089,
      "Ġera": 7090,
      "Ġadj": 7091,
      "pecific": 7092,
      "ĠEconom": 7093,
      "Ġformal": 7094,
      "Ġtransmission": 7095,
      "lar": 7096,
      "align": 7097,
      "Ġbuying": 7098,
      "Ġradiation": 7099,
      "Ġshapes": 7100,
      "Ġchair": 7101,
      "Ġclot": 7102,
      "Ġselling": 7103,
      "Ġstands": 7104,
      "post": 7105,
      "Ġstudying": 7106,
      "Ġlos": 7107,
      "Ġna": 7108,
      "Ġbear": 7109,
      "Ġwhereas": 7110,
      "Ġsole": 7111,
      "Although": 7112,
      "Ġabsolutely": 7113,
      "Ġperiods": 7114,
      "ĠHill": 7115,
      "Ġagency": 7116,
      "real": 7117,
      "dev": 7118,
      "Ġprepare": 7119,
      "ĠEmp": 7120,
      "Ġsensitive": 7121,
      "grade": 7122,
      "ĠBritain": 7123,
      "wing": 7124,
      "Ġsustainable": 7125,
      "ĠSpace": 7126,
      "ĠBusiness": 7127,
      "Ġvideos": 7128,
      "Ġmultiply": 7129,
      "being": 7130,
      "Ġconsumers": 7131,
      "Ġbreath": 7132,
      "ican": 7133,
      "oom": 7134,
      "ĠOffice": 7135,
      "Ġbasically": 7136,
      "rage": 7137,
      "step": 7138,
      "Ġattached": 7139,
      "'.": 7140,
      "Ġfairly": 7141,
      "ĠIll": 7142,
      "Ġcomposition": 7143,
      "Expl": 7144,
      "ndrome": 7145,
      "Ġsecondary": 7146,
      "DP": 7147,
      "Ġsport": 7148,
      "Ġrecept": 7149,
      "Ġtrick": 7150,
      "ĠDou": 7151,
      "Ġimprovement": 7152,
      "Ġelectron": 7153,
      "Ġdrinking": 7154,
      "CP": 7155,
      "okes": 7156,
      "Ġprocedures": 7157,
      "Ġpit": 7158,
      "81": 7159,
      "Ġfoundation": 7160,
      "ĠGiven": 7161,
      "Ġvisible": 7162,
      "organ": 7163,
      "Ġdetection": 7164,
      "ĠGrand": 7165,
      "ih": 7166,
      "ĠDifferent": 7167,
      "ÅĤ": 7168,
      "Ġguidelines": 7169,
      "Ġnutrition": 7170,
      "Mar": 7171,
      "Ġtriangles": 7172,
      "Me": 7173,
      "ĠKeep": 7174,
      "Ġabuse": 7175,
      "ĠFederal": 7176,
      "Ġimproving": 7177,
      "ĠThree": 7178,
      "Ġbrings": 7179,
      "ĠVict": 7180,
      "public": 7181,
      "Ġrent": 7182,
      "Ġcriminal": 7183,
      "Ġemotions": 7184,
      "Ġlocations": 7185,
      "ĠDid": 7186,
      "iest": 7187,
      "Ġinflamm": 7188,
      "Ġsurvival": 7189,
      "Ġassistance": 7190,
      "ĠGal": 7191,
      "ĠMel": 7192,
      "Ġhorizontal": 7193,
      "Ġdistributed": 7194,
      "Ġcutting": 7195,
      "Ġbot": 7196,
      "Ġyounger": 7197,
      "rible": 7198,
      "ĠWorks": 7199,
      "GB": 7200,
      "Ġworst": 7201,
      "test": 7202,
      "Ġcoal": 7203,
      "Ġhidden": 7204,
      "Ġthr": 7205,
      "Ġdigits": 7206,
      "Every": 7207,
      "ascular": 7208,
      "ĠSaf": 7209,
      "ĠSometimes": 7210,
      "ĠPo": 7211,
      "Ġdepart": 7212,
      "Ġdim": 7213,
      "Ġusage": 7214,
      "Ġapplying": 7215,
      "Ġtaxes": 7216,
      "Rep": 7217,
      "Ġoblig": 7218,
      "style": 7219,
      "weight": 7220,
      "Ġofficer": 7221,
      "Ġhouses": 7222,
      "Ġfellow": 7223,
      "Ġnull": 7224,
      "Ġdealing": 7225,
      "claim": 7226,
      "cers": 7227,
      "Ġstood": 7228,
      "ĠProblems": 7229,
      "Ġdigit": 7230,
      "Ġstable": 7231,
      "ĠYet": 7232,
      "Ġ150": 7233,
      "Ġtall": 7234,
      "ĠSign": 7235,
      "teen": 7236,
      "Ġregional": 7237,
      "Ġexpansion": 7238,
      "Ġdress": 7239,
      "Ġorg": 7240,
      "Ġcareful": 7241,
      "Ġmovies": 7242,
      "ĠCa": 7243,
      "Use": 7244,
      "ĠCOVID": 7245,
      "Ġinitially": 7246,
      "Ġroles": 7247,
      "ĠCommit": 7248,
      "ĠCy": 7249,
      "ideo": 7250,
      "ĠNov": 7251,
      "Ġdisorders": 7252,
      "lements": 7253,
      "Ġ~": 7254,
      "{-": 7255,
      "Ġpp": 7256,
      "kins": 7257,
      "Ġboost": 7258,
      "ĠAL": 7259,
      "Pe": 7260,
      "Ġtank": 7261,
      "ĠCanadian": 7262,
      "Ġneck": 7263,
      "Ġfunctional": 7264,
      "Ã¢": 7265,
      "Ġaxis": 7266,
      "Ġordered": 7267,
      "Ġensuring": 7268,
      "ĠLeg": 7269,
      "ulating": 7270,
      "acent": 7271,
      ")\\": 7272,
      "ĠIraq": 7273,
      "ĠIT": 7274,
      "Ġconsumer": 7275,
      "Ġnations": 7276,
      "Ġcandidate": 7277,
      "olit": 7278,
      "Ġfacing": 7279,
      "ĠProv": 7280,
      "Ġwet": 7281,
      "Ġsomewhat": 7282,
      "Ġsuddenly": 7283,
      "Ġfinish": 7284,
      "AG": 7285,
      "ĠIII": 7286,
      "Ġencoun": 7287,
      "Ġclassroom": 7288,
      "ologists": 7289,
      "Ġproteins": 7290,
      "isters": 7291,
      "Any": 7292,
      "Ġrapidly": 7293,
      "Other": 7294,
      "Ġexamine": 7295,
      "ĠMuseum": 7296,
      "Ġmaintaining": 7297,
      "ĠPac": 7298,
      "Ġacting": 7299,
      "Ġinvent": 7300,
      "aped": 7301,
      "Ġchick": 7302,
      "\\):": 7303,
      "Ġsister": 7304,
      "Ġprotocol": 7305,
      "Ġsuffering": 7306,
      "}_": 7307,
      "Ġtut": 7308,
      "Ġwinning": 7309,
      "Ġmir": 7310,
      "aren": 7311,
      "Ġarr": 7312,
      "Ġrecognition": 7313,
      "][": 7314,
      "Ġintegers": 7315,
      "Che": 7316,
      "Ġpoet": 7317,
      "Ġexperiments": 7318,
      "Ġ-----": 7319,
      "ervative": 7320,
      "ÑĢ": 7321,
      "EE": 7322,
      "Ġ-----------------": 7323,
      "struction": 7324,
      "Ġcab": 7325,
      "Ġwheel": 7326,
      "Ġseed": 7327,
      "rav": 7328,
      "Ġmovements": 7329,
      "Ġsoldiers": 7330,
      "Ġtables": 7331,
      "Ġstruggle": 7332,
      "rieved": 7333,
      "Ġfacilities": 7334,
      "ĠTechnology": 7335,
      "Ġheads": 7336,
      "Ġsignificance": 7337,
      "Ġlogic": 7338,
      "Ġwine": 7339,
      "axis": 7340,
      "inte": 7341,
      "ailed": 7342,
      "Ġconventional": 7343,
      "ĠItalian": 7344,
      "During": 7345,
      "plify": 7346,
      "Ġcycl": 7347,
      "Ġwaves": 7348,
      "anger": 7349,
      "ĠFunction": 7350,
      "Ġepisode": 7351,
      "Ġpapers": 7352,
      "Ġinstitution": 7353,
      "FL": 7354,
      "Ġfault": 7355,
      "Ġevaluation": 7356,
      "anguage": 7357,
      "Phone": 7358,
      "??": 7359,
      "Ġ400": 7360,
      "Ġbridge": 7361,
      "Ġmaintenance": 7362,
      "ĠRight": 7363,
      "Last": 7364,
      "Ġ65": 7365,
      "onential": 7366,
      "igenous": 7367,
      "abel": 7368,
      "Ġfaces": 7369,
      "lamb": 7370,
      "Ġhole": 7371,
      "Part": 7372,
      "Also": 7373,
      "Ġguard": 7374,
      "Ġbread": 7375,
      "ĠHenry": 7376,
      "Ġintent": 7377,
      "Ġdemonstrated": 7378,
      "Ġuniform": 7379,
      "ĠRoad": 7380,
      "zil": 7381,
      "Ġpig": 7382,
      "Ġcategory": 7383,
      "Ġfilter": 7384,
      "Stud": 7385,
      "ifier": 7386,
      "Ġofficers": 7387,
      "Ġmoral": 7388,
      "ĠLake": 7389,
      "Ġsched": 7390,
      "ket": 7391,
      "Ġ1999": 7392,
      "ithmetic": 7393,
      "making": 7394,
      "Ġsubsc": 7395,
      "herent": 7396,
      "orph": 7397,
      "itage": 7398,
      "Ġconstantly": 7399,
      "Ġdiscipl": 7400,
      "Ġassert": 7401,
      "Ġtotally": 7402,
      "ĠChristmas": 7403,
      "sell": 7404,
      "icing": 7405,
      "ployment": 7406,
      "ĠCalculate": 7407,
      "lers": 7408,
      "ĠEnvironment": 7409,
      "Ġcontrols": 7410,
      "ĠÂ£": 7411,
      "ĠFinally": 7412,
      "stein": 7413,
      "Ġevening": 7414,
      "Ġbath": 7415,
      "Ġmuscles": 7416,
      "Ġnit": 7417,
      "Ġnewsp": 7418,
      "Ġarchitecture": 7419,
      "Section": 7420,
      "Ġtens": 7421,
      "ading": 7422,
      "Ġshop": 7423,
      "ba": 7424,
      "Ġsupports": 7425,
      "Ġposted": 7426,
      "Ġfro": 7427,
      "Ġtwenty": 7428,
      "Ġstatic": 7429,
      "ĠWrit": 7430,
      "Ġlayers": 7431,
      "Reg": 7432,
      "partial": 7433,
      "Ġagents": 7434,
      "Ġstatistics": 7435,
      "lambda": 7436,
      "Ġgent": 7437,
      "ĠNon": 7438,
      "Ġlosing": 7439,
      "Object": 7440,
      "Ġcomplicated": 7441,
      "SD": 7442,
      "ĠMen": 7443,
      "Ġcovers": 7444,
      "ĠBob": 7445,
      "ethyl": 7446,
      "asty": 7447,
      "Ġnaturally": 7448,
      "Ġpanel": 7449,
      "ĠBoard": 7450,
      "ĠLatin": 7451,
      "Ġbrown": 7452,
      "indu": 7453,
      "String": 7454,
      "vals": 7455,
      "Ġpersons": 7456,
      "Ġanywhere": 7457,
      "ĠPractice": 7458,
      "Ġmenu": 7459,
      "Ġworldwide": 7460,
      "share": 7461,
      "Ġaircraft": 7462,
      "Ġdistingu": 7463,
      "urb": 7464,
      "Ġsenior": 7465,
      "Ġhurt": 7466,
      "Ġentre": 7467,
      "Ġ^": 7468,
      "Ġmeasurements": 7469,
      "Back": 7470,
      "aph": 7471,
      "utation": 7472,
      "ĠPan": 7473,
      "71": 7474,
      "person": 7475,
      "Ġspin": 7476,
      "comp": 7477,
      "Ġkne": 7478,
      "path": 7479,
      "Ġpand": 7480,
      "Ġacceleration": 7481,
      "ĠThank": 7482,
      "ĠCam": 7483,
      "Ġunderlying": 7484,
      "Ġnan": 7485,
      "Ġflag": 7486,
      "Ġongoing": 7487,
      "Ġupdated": 7488,
      "Ġ1980": 7489,
      "73": 7490,
      "Ġpounds": 7491,
      "Ġune": 7492,
      "iplying": 7493,
      "Ġcultures": 7494,
      "ĠBrown": 7495,
      "atively": 7496,
      "ĠBefore": 7497,
      "ector": 7498,
      "AA": 7499,
      "Ĥ¬": 7500,
      "Ġadministr": 7501,
      "ĠStatement": 7502,
      "era": 7503,
      "po": 7504,
      "ĠUnit": 7505,
      "Ġuncertain": 7506,
      "ĠSecret": 7507,
      "tra": 7508,
      "estyle": 7509,
      "ĠItaly": 7510,
      "Ġdance": 7511,
      "yles": 7512,
      "ĠChildren": 7513,
      "Ġconference": 7514,
      "Ġteen": 7515,
      "Ġstores": 7516,
      "oir": 7517,
      "ĠChicago": 7518,
      "ĠFire": 7519,
      "ĠAuthor": 7520,
      "pend": 7521,
      "Ġ95": 7522,
      "Ġgovernments": 7523,
      "vironments": 7524,
      "74": 7525,
      "Ġloop": 7526,
      "plate": 7527,
      "Ġbird": 7528,
      "Ġobjective": 7529,
      "ĠRichard": 7530,
      "Ġcompens": 7531,
      "Ġaccum": 7532,
      "ju": 7533,
      "uma": 7534,
      "Ġconfident": 7535,
      "ĠAdv": 7536,
      "Ġfaced": 7537,
      "abil": 7538,
      "Ġconfirmed": 7539,
      "ĠMathematics": 7540,
      "riers": 7541,
      "tex": 7542,
      "Ġnurs": 7543,
      "rypt": 7544,
      "79": 7545,
      "rine": 7546,
      "Ġinformed": 7547,
      "Ġhttps": 7548,
      "ĠSir": 7549,
      "Ġflowers": 7550,
      "Ġdifferential": 7551,
      "Ġske": 7552,
      "ĠEp": 7553,
      "Ġsquares": 7554,
      "Ġrepair": 7555,
      "TP": 7556,
      "ĠControl": 7557,
      "yd": 7558,
      "Ġru": 7559,
      "Ġassets": 7560,
      "ested": 7561,
      "icate": 7562,
      "cules": 7563,
      "Ġdism": 7564,
      "ĠFoundation": 7565,
      "Ġcommitted": 7566,
      "itivity": 7567,
      "Ġsteel": 7568,
      "Ġsensor": 7569,
      "ĠShow": 7570,
      "Def": 7571,
      "ĠTuesday": 7572,
      "Ġconstra": 7573,
      "NS": 7574,
      "grad": 7575,
      "Ġtoler": 7576,
      "eren": 7577,
      "Ġclaimed": 7578,
      "bel": 7579,
      "Ġinsect": 7580,
      "angular": 7581,
      "Ġdiversity": 7582,
      "Ġpairs": 7583,
      "Ġcharges": 7584,
      "aciÃ³n": 7585,
      "oval": 7586,
      "Ġconfiguration": 7587,
      "Ġreasonable": 7588,
      ")\\).": 7589,
      "ĠTable": 7590,
      "ĠVari": 7591,
      "ĠJim": 7592,
      "Ġwonderful": 7593,
      "Ġnode": 7594,
      "ulin": 7595,
      "Ġrom": 7596,
      "Ġengaging": 7597,
      "Ġaffects": 7598,
      "Ġsale": 7599,
      "mic": 7600,
      "Ġradical": 7601,
      "ĠResp": 7602,
      "Ġzone": 7603,
      "Ġmodule": 7604,
      "erver": 7605,
      "ĠWood": 7606,
      "ayer": 7607,
      "Ġauthorities": 7608,
      "Ġsimultane": 7609,
      "Sec": 7610,
      "Ġcapture": 7611,
      "eries": 7612,
      "Ġ55": 7613,
      "Ġft": 7614,
      "Ġkick": 7615,
      "Ġvolunte": 7616,
      "Ġfascinating": 7617,
      "ÂŃ": 7618,
      "Ġkeeps": 7619,
      "Ġdoctors": 7620,
      "ivered": 7621,
      "ĠForce": 7622,
      "TC": 7623,
      "ĠSeries": 7624,
      "group": 7625,
      "ĠSecurity": 7626,
      "array": 7627,
      "Ġliver": 7628,
      "Ġ(\\": 7629,
      "ĠBal": 7630,
      "83": 7631,
      "Act": 7632,
      "ĠAustralian": 7633,
      "Ġmand": 7634,
      "ĠAB": 7635,
      "ãĤ": 7636,
      "Ġorient": 7637,
      "Ġreader": 7638,
      "Have": 7639,
      "user": 7640,
      "Ġmanufacturing": 7641,
      "Ġproducing": 7642,
      "Ġaudio": 7643,
      "Ġswim": 7644,
      "Ġ</": 7645,
      "opt": 7646,
      "Ġindicated": 7647,
      "Ġvoid": 7648,
      "ĠMedical": 7649,
      "Ġseg": 7650,
      "rogen": 7651,
      "Ġcharged": 7652,
      "ĠMP": 7653,
      "Ġcourses": 7654,
      "Ġrevenue": 7655,
      "Ġevil": 7656,
      "utch": 7657,
      "Ġingredients": 7658,
      "Ġfocuses": 7659,
      "stone": 7660,
      "About": 7661,
      "Ġessentially": 7662,
      "Ġtheme": 7663,
      "ĠRom": 7664,
      "Ġstronger": 7665,
      "ĠCup": 7666,
      "unc": 7667,
      "Ġclock": 7668,
      "Ġpra": 7669,
      "ĠPerson": 7670,
      "Ġcoverage": 7671,
      "Ġdrivers": 7672,
      "Jo": 7673,
      "Ġfocusing": 7674,
      "Ġserving": 7675,
      "pes": 7676,
      "Ġexceed": 7677,
      "TH": 7678,
      "Ãº": 7679,
      "Ġquantity": 7680,
      "appy": 7681,
      "Ġscores": 7682,
      "ollowing": 7683,
      "ĠCatholic": 7684,
      "Ġbeliefs": 7685,
      "Ġmountain": 7686,
      "Ġsouthern": 7687,
      "there": 7688,
      "hemical": 7689,
      "ĠSaturday": 7690,
      "roud": 7691,
      "Ġperfectly": 7692,
      "uity": 7693,
      "Ġserves": 7694,
      "ui": 7695,
      "Ġadvis": 7696,
      "forcement": 7697,
      "Ġspr": 7698,
      "Ġsheet": 7699,
      "Ġeld": 7700,
      "rovers": 7701,
      "Ġdimensions": 7702,
      "Ġsomewhere": 7703,
      "Ġdirected": 7704,
      "Ġsections": 7705,
      "Ġexercises": 7706,
      "Ġemployed": 7707,
      "Ġtreatments": 7708,
      "ĠRoyal": 7709,
      "ymph": 7710,
      "istent": 7711,
      "Set": 7712,
      "Ġroof": 7713,
      "Ġsed": 7714,
      "Key": 7715,
      "Ġhate": 7716,
      "Ġseeds": 7717,
      "Ġscan": 7718,
      "Ġcrew": 7719,
      "ĠJews": 7720,
      "Ġmoments": 7721,
      "ĠBC": 7722,
      "ĠPub": 7723,
      "Ġstrict": 7724,
      "Ġpod": 7725,
      "Ġtradition": 7726,
      "ogy": 7727,
      "Ġstages": 7728,
      "Ġhat": 7729,
      "Ġessay": 7730,
      "Ġtooth": 7731,
      "swered": 7732,
      "ĠCr": 7733,
      "Ġsubtract": 7734,
      "Ġmanif": 7735,
      "ĠCivil": 7736,
      "Ġdraft": 7737,
      "agues": 7738,
      "Par": 7739,
      "Ġ44": 7740,
      "Ġsuit": 7741,
      "Ġdecade": 7742,
      "Ġbringing": 7743,
      "ĠGame": 7744,
      "Ġinequality": 7745,
      "EG": 7746,
      "ĠHaw": 7747,
      "Ġincident": 7748,
      "Ġmyth": 7749,
      "Ġraw": 7750,
      "Ġescape": 7751,
      "ĠLo": 7752,
      "Ge": 7753,
      "ĠMicrosoft": 7754,
      "Ġexperimental": 7755,
      "inition": 7756,
      "ĠLand": 7757,
      "Id": 7758,
      "Ãª": 7759,
      "Ġinteractions": 7760,
      "Ġconservation": 7761,
      "ĠComput": 7762,
      "Ġlandscape": 7763,
      "Ġpuzz": 7764,
      "Pre": 7765,
      "Ġimmediate": 7766,
      ",'": 7767,
      "Ġbiological": 7768,
      "Ġcommunicate": 7769,
      "Ġanyway": 7770,
      "Ġinsert": 7771,
      "ĠColor": 7772,
      "ĠFour": 7773,
      "ĠCast": 7774,
      "ĠDer": 7775,
      "ĠCommittee": 7776,
      "ĠâĪĴ": 7777,
      "Ġintroduction": 7778,
      "amber": 7779,
      "82": 7780,
      "Ġenemy": 7781,
      "ĠMS": 7782,
      "ĠRepublican": 7783,
      "Ġnearby": 7784,
      "ĠMartin": 7785,
      "ĠExamples": 7786,
      "Ġpm": 7787,
      "Ġimper": 7788,
      "iler": 7789,
      "Ġversions": 7790,
      "Ġcheap": 7791,
      "ĠWednesday": 7792,
      "Ġregardless": 7793,
      "ĠRemember": 7794,
      "Ġthy": 7795,
      "Ġmeal": 7796,
      "Ġlistening": 7797,
      "Ġmoon": 7798,
      "normal": 7799,
      "Ġschedule": 7800,
      "acks": 7801,
      "ĠRock": 7802,
      "ĠPage": 7803,
      "ĠJun": 7804,
      "Ġproportion": 7805,
      "ĠUk": 7806,
      "Ġpip": 7807,
      "inem": 7808,
      "parent": 7809,
      "Ġwithd": 7810,
      "sts": 7811,
      "Ġcyl": 7812,
      "Ġdiscovery": 7813,
      "onds": 7814,
      "Ġenvironments": 7815,
      "Ġtoxic": 7816,
      "Ġunus": 7817,
      "Even": 7818,
      "Ġnorthern": 7819,
      "orted": 7820,
      "eting": 7821,
      "Ġauthent": 7822,
      "icted": 7823,
      "ĠSand": 7824,
      "hered": 7825,
      "Ġpartition": 7826,
      "ĠFractions": 7827,
      "ĠBible": 7828,
      "Date": 7829,
      "Ġperforming": 7830,
      "Ġages": 7831,
      "Ġintellect": 7832,
      "Ġmechanisms": 7833,
      "ĠNOT": 7834,
      "TER": 7835,
      "Ġlaugh": 7836,
      "Ġvotes": 7837,
      "Ġsuspect": 7838,
      "code": 7839,
      "ĠThursday": 7840,
      "Ġgap": 7841,
      "ĠPop": 7842,
      "Car": 7843,
      "Ġmerely": 7844,
      "ĠNetwork": 7845,
      "zer": 7846,
      "Ġboat": 7847,
      "earing": 7848,
      "Ġmail": 7849,
      "ĠWal": 7850,
      "Ġimplemented": 7851,
      "Ġelected": 7852,
      "ker": 7853,
      "Ġbin": 7854,
      "Ġbranch": 7855,
      "pled": 7856,
      "ji": 7857,
      "Ãł": 7858,
      "Ġreviews": 7859,
      "Ġcalculations": 7860,
      "ĠSup": 7861,
      "Ġscholars": 7862,
      "hus": 7863,
      "Ġfinds": 7864,
      "Rem": 7865,
      "Ġsuffer": 7866,
      "Ġtag": 7867,
      "Ġcenturies": 7868,
      "Ġinjuries": 7869,
      "Ġprev": 7870,
      "Ġadopted": 7871,
      "page": 7872,
      "Ġvegetables": 7873,
      "Ġgrid": 7874,
      "ĠIre": 7875,
      "ĠLu": 7876,
      "Ġstability": 7877,
      "Ġinverse": 7878,
      "Ġvo": 7879,
      "yan": 7880,
      "Ġdifficulty": 7881,
      "Ġdropped": 7882,
      "Ġtransformation": 7883,
      "Ġoperate": 7884,
      "Ġmagic": 7885,
      "ĠLiber": 7886,
      "ĠInvest": 7887,
      "Ġsam": 7888,
      "Ġshouldn": 7889,
      "Two": 7890,
      "ulas": 7891,
      "Ġfarmers": 7892,
      "ythag": 7893,
      "adium": 7894,
      "Ġpharm": 7895,
      "Ġdust": 7896,
      "Ġassociation": 7897,
      "Ġissued": 7898,
      "Ġalign": 7899,
      "Related": 7900,
      "Ġtip": 7901,
      "iner": 7902,
      "reated": 7903,
      "rot": 7904,
      "Ġfewer": 7905,
      "Ġ1998": 7906,
      "ĠJoe": 7907,
      "Ġprincipal": 7908,
      "ĠModel": 7909,
      "ĠCult": 7910,
      "Ġwearing": 7911,
      "ĠNext": 7912,
      "sis": 7913,
      "Ġrural": 7914,
      "Ġadequ": 7915,
      "Next": 7916,
      "Ġpresents": 7917,
      "ilateral": 7918,
      "Ġeveryday": 7919,
      "Ġfra": 7920,
      "ĠDeterm": 7921,
      "Ġbehaviour": 7922,
      "ĠSov": 7923,
      "Ġregulations": 7924,
      "Ġsupplement": 7925,
      "Ġjoy": 7926,
      "Ġgreatly": 7927,
      "ĠClub": 7928,
      "rats": 7929,
      "such": 7930,
      "ĠDespite": 7931,
      "Ñģ": 7932,
      "fast": 7933,
      "Ġcooking": 7934,
      "ribution": 7935,
      "Ġanalyze": 7936,
      "ĠJohnson": 7937,
      "Ġinstruction": 7938,
      "cor": 7939,
      "Ġsurprise": 7940,
      "Ġbare": 7941,
      "cosystem": 7942,
      "Ġcriteria": 7943,
      "Ġconversion": 7944,
      "Ġlaunched": 7945,
      "Ġgeometry": 7946,
      "Ġembodiment": 7947,
      "Ġfrust": 7948,
      "sk": 7949,
      "ĠWall": 7950,
      "ĠTry": 7951,
      "Ġspoke": 7952,
      "ĠHistor": 7953,
      "Ġreliable": 7954,
      "Ġtom": 7955,
      "actions": 7956,
      "Ġcognitive": 7957,
      "Ġtab": 7958,
      "Before": 7959,
      "ĠMusic": 7960,
      "Ġplug": 7961,
      "Ġsymmet": 7962,
      "Ġwestern": 7963,
      "dimensional": 7964,
      "ĠExpress": 7965,
      "ĠSquare": 7966,
      "orney": 7967,
      "Ġneighborhood": 7968,
      "Ġfing": 7969,
      "ĠEarly": 7970,
      "ĠDown": 7971,
      "ĠTeam": 7972,
      "ĠCreat": 7973,
      "ĠWrite": 7974,
      "Ġorders": 7975,
      "Ġampl": 7976,
      "ĠSea": 7977,
      "ASA": 7978,
      "rons": 7979,
      "Ġthorough": 7980,
      "Ġreward": 7981,
      "Ġscheme": 7982,
      "Ġfabric": 7983,
      "Ã±": 7984,
      "Ġsubstance": 7985,
      "âĢĻ.": 7986,
      "ĠStudy": 7987,
      "fol": 7988,
      "ima": 7989,
      "sl": 7990,
      "Ġflash": 7991,
      "Ġ39": 7992,
      "ĠAR": 7993,
      "Ġ1970": 7994,
      "itar": 7995,
      "Ġsod": 7996,
      "estival": 7997,
      "igan": 7998,
      "Ġinspired": 7999,
      "Ġcontained": 8000,
      "esh": 8001,
      "Ġobviously": 8002,
      "Med": 8003,
      "ĠLight": 8004,
      "rance": 8005,
      "Ġconfirm": 8006,
      "ĠLinear": 8007,
      "Ġbutter": 8008,
      "Ġsurvive": 8009,
      "raid": 8010,
      "Ġcrypt": 8011,
      "Ġcommission": 8012,
      "Connect": 8013,
      "ao": 8014,
      "Mat": 8015,
      "ĠMrs": 8016,
      "Ġoptimal": 8017,
      "isco": 8018,
      "Ġgained": 8019,
      "ĠCard": 8020,
      "umps": 8021,
      "Ġlights": 8022,
      "Ġdiscl": 8023,
      "Ġstom": 8024,
      "Ġequally": 8025,
      "ĠPrime": 8026,
      "Co": 8027,
      "ĠHor": 8028,
      "ĠPenn": 8029,
      "ruption": 8030,
      "teries": 8031,
      "Ġparticipate": 8032,
      "Ġestate": 8033,
      "rin": 8034,
      "Ã©t": 8035,
      "version": 8036,
      "ĠValue": 8037,
      "Ġclassic": 8038,
      "ĠOly": 8039,
      "ĠWild": 8040,
      "Source": 8041,
      "Ġshares": 8042,
      "opic": 8043,
      "Ġmoist": 8044,
      "icide": 8045,
      "olicy": 8046,
      "Ġfurn": 8047,
      "Ġdependent": 8048,
      "Ġpromin": 8049,
      "ĠTH": 8050,
      "Ġagencies": 8051,
      "Ġcarrying": 8052,
      "Ġexplo": 8053,
      "ela": 8054,
      "Ġguidance": 8055,
      "urning": 8056,
      "Ġstem": 8057,
      "Ġgal": 8058,
      "Ġcultiv": 8059,
      "Ġpolar": 8060,
      "ĠCode": 8061,
      "ĠSpecial": 8062,
      "Ġalive": 8063,
      "Ġcoach": 8064,
      "Ġgenerations": 8065,
      "Ġarguments": 8066,
      "iana": 8067,
      "Ġalgorithms": 8068,
      "itudes": 8069,
      "Ġtroops": 8070,
      "Ġtough": 8071,
      "Ġ->": 8072,
      "ĠUSB": 8073,
      "à¦": 8074,
      "Ġmurder": 8075,
      "Ġblind": 8076,
      "Dr": 8077,
      "ĠHIV": 8078,
      "ĠThough": 8079,
      "ĠTreat": 8080,
      "essions": 8081,
      "\\_\\_": 8082,
      "ĠSection": 8083,
      "Ġintegrated": 8084,
      "Ġrelief": 8085,
      "ĠKar": 8086,
      "vol": 8087,
      "ĠLar": 8088,
      "Ġmagnitude": 8089,
      "iously": 8090,
      "ĠGlobal": 8091,
      "Ġsilver": 8092,
      "Ġtrained": 8093,
      "John": 8094,
      "Ġmixture": 8095,
      "last": 8096,
      "cribed": 8097,
      "obile": 8098,
      "Ġrising": 8099,
      "Ġpermanent": 8100,
      "brid": 8101,
      "Ġpursu": 8102,
      "onal": 8103,
      "they": 8104,
      "ĠLos": 8105,
      "ĠAndroid": 8106,
      "ounded": 8107,
      "amma": 8108,
      "Ġsatell": 8109,
      "ervice": 8110,
      "Ġcentre": 8111,
      "American": 8112,
      "Ġextensive": 8113,
      "ĠServices": 8114,
      "\":": 8115,
      "ĠVirginia": 8116,
      "Ġattempts": 8117,
      "ĠAmazon": 8118,
      "Ġstead": 8119,
      "Ġplanned": 8120,
      "Ġfulf": 8121,
      "Ġharder": 8122,
      "Ġkilling": 8123,
      "Ġresid": 8124,
      "Ġhonor": 8125,
      "bered": 8126,
      "++": 8127,
      "Art": 8128,
      "Ġdelivered": 8129,
      "vate": 8130,
      "wa": 8131,
      "ĠOnline": 8132,
      "Ġorganized": 8133,
      "Ġtill": 8134,
      "press": 8135,
      "Ġinstrument": 8136,
      "Ġ49": 8137,
      "Ġoral": 8138,
      "Inter": 8139,
      "Ġtea": 8140,
      "Ġemployee": 8141,
      "ĠFort": 8142,
      "ĠGeorg": 8143,
      "Ġclothes": 8144,
      "________": 8145,
      "Who": 8146,
      "Ġwaters": 8147,
      "ĠBrazil": 8148,
      "irus": 8149,
      "Ġgate": 8150,
      "riculum": 8151,
      "Ġargue": 8152,
      "Ġconcrete": 8153,
      "Ġdetermining": 8154,
      "ĠPot": 8155,
      "Ġemployment": 8156,
      "Ġextension": 8157,
      "cut": 8158,
      "Ġexception": 8159,
      "ympt": 8160,
      "ĠLee": 8161,
      "Ġfounded": 8162,
      "ĠYoung": 8163,
      "rection": 8164,
      "isp": 8165,
      "Ġtack": 8166,
      "Ġ180": 8167,
      "Ġbuff": 8168,
      "ĠFigure": 8169,
      "erman": 8170,
      "Ġretail": 8171,
      "Ġoverw": 8172,
      "Ġ*/": 8173,
      "Ġinfections": 8174,
      "ĠPacific": 8175,
      "Ġapparently": 8176,
      "ĠDC": 8177,
      "ĠSystems": 8178,
      "Ġsubsequent": 8179,
      "Ġdriven": 8180,
      "ells": 8181,
      "Ġengaged": 8182,
      "Ġpresentation": 8183,
      "Ġplas": 8184,
      "Ġplatforms": 8185,
      "Ġcircul": 8186,
      "Ġresulted": 8187,
      "Ġspecified": 8188,
      "Ġintervention": 8189,
      "oxide": 8190,
      "Ġimpacts": 8191,
      "*}": 8192,
      "Ġcollaboration": 8193,
      "ĠEquation": 8194,
      "Ġauto": 8195,
      "orean": 8196,
      "ĠAcademy": 8197,
      "ĠMember": 8198,
      "Ġwhenever": 8199,
      "pendicular": 8200,
      "Ġpregnancy": 8201,
      "ĠSP": 8202,
      "ester": 8203,
      "Ġarc": 8204,
      "Ġunion": 8205,
      "Ġrely": 8206,
      "Ġvectors": 8207,
      "Ġadvantages": 8208,
      "ko": 8209,
      "Ġmodified": 8210,
      "Ġhall": 8211,
      "ĠSpain": 8212,
      "etime": 8213,
      "ĠScot": 8214,
      "ĠPak": 8215,
      "Ġfinger": 8216,
      "ersion": 8217,
      "ali": 8218,
      "Ġstrongly": 8219,
      "Ġimplications": 8220,
      "Ġbreaking": 8221,
      "DS": 8222,
      "ĠMur": 8223,
      "Mult": 8224,
      "verty": 8225,
      "ĠPythag": 8226,
      "ĠComments": 8227,
      "after": 8228,
      "rape": 8229,
      "Ġinnovation": 8230,
      "Equ": 8231,
      "Ġfalls": 8232,
      "Ġexciting": 8233,
      "Ġcrack": 8234,
      "Ġvitamin": 8235,
      "ĠCurrent": 8236,
      "inated": 8237,
      "Ġillegal": 8238,
      "Ġcalculation": 8239,
      "Figure": 8240,
      "ĠVictor": 8241,
      "ĠAgain": 8242,
      "Ġexcited": 8243,
      "ĠIreland": 8244,
      "Ġbinary": 8245,
      "Ã§Ã£o": 8246,
      "Ġmusical": 8247,
      "imp": 8248,
      "\";": 8249,
      "Ġpoverty": 8250,
      "valu": 8251,
      "Ġfalling": 8252,
      "Ġsaved": 8253,
      "ulous": 8254,
      "Ġscenario": 8255,
      "lib": 8256,
      "Ġdanger": 8257,
      "Ġseriously": 8258,
      "Trans": 8259,
      "izz": 8260,
      "ishment": 8261,
      "ĠPass": 8262,
      "ĠType": 8263,
      "Ġinsight": 8264,
      "Ġcomplexity": 8265,
      "Ġpeak": 8266,
      "law": 8267,
      "Ġsuperior": 8268,
      "Ġdiagram": 8269,
      "uct": 8270,
      "Ġgeometric": 8271,
      "Book": 8272,
      "ĠJoseph": 8273,
      "erior": 8274,
      "iro": 8275,
      "Ġcombat": 8276,
      "!âĢĿ": 8277,
      "Ġpy": 8278,
      "Ġpublish": 8279,
      "Ġconsideration": 8280,
      "Ġconstitution": 8281,
      "iÄ": 8282,
      "ĠMu": 8283,
      "Ġcategories": 8284,
      "Ġexpectations": 8285,
      "Ġmechanical": 8286,
      "called": 8287,
      "sen": 8288,
      "isdom": 8289,
      "ĠContin": 8290,
      "Ġstuck": 8291,
      "LA": 8292,
      "ĠCH": 8293,
      "User": 8294,
      "Ġpandemic": 8295,
      "ĠChampions": 8296,
      "Ġsoc": 8297,
      "iva": 8298,
      "ĠNever": 8299,
      "Ġvoc": 8300,
      "ĠKorea": 8301,
      "Ġhell": 8302,
      "Ġaimed": 8303,
      "apped": 8304,
      "Ġlip": 8305,
      "pack": 8306,
      "ĠOrder": 8307,
      "ati": 8308,
      "haust": 8309,
      "Ġcable": 8310,
      "Ġrepresenting": 8311,
      "atar": 8312,
      "Ġbomb": 8313,
      "Ġabandon": 8314,
      "ĠMaster": 8315,
      "ĠCost": 8316,
      "Ġcorporate": 8317,
      "unning": 8318,
      "Ġfer": 8319,
      "ĠÃĹ": 8320,
      "Ġmembran": 8321,
      "ĠFamily": 8322,
      "Ġcomputing": 8323,
      "Ġmice": 8324,
      "ĠLove": 8325,
      "Ġven": 8326,
      "Ġconj": 8327,
      "TR": 8328,
      "Ġdecline": 8329,
      "Ġobservations": 8330,
      "Ġborrow": 8331,
      "size": 8332,
      "Ġinvestigate": 8333,
      "Ġcontrovers": 8334,
      "Ġproduces": 8335,
      "Ġcalculus": 8336,
      "ATION": 8337,
      "prise": 8338,
      "itting": 8339,
      "Ġadds": 8340,
      "State": 8341,
      "Ġproved": 8342,
      "ĠCross": 8343,
      "isted": 8344,
      "Ġcandidates": 8345,
      "Ġsurprising": 8346,
      "ĠProduct": 8347,
      "ĠBab": 8348,
      "ĠLi": 8349,
      "Form": 8350,
      "Ġanswered": 8351,
      "azz": 8352,
      "aft": 8353,
      "Ġpartial": 8354,
      "Ġouter": 8355,
      "oids": 8356,
      "encing": 8357,
      "Because": 8358,
      "ĠISBN": 8359,
      "igation": 8360,
      "aven": 8361,
      "Ġride": 8362,
      "spe": 8363,
      "Ġ52": 8364,
      "Ġecosystem": 8365,
      "ĠAdminist": 8366,
      "Ġdestroyed": 8367,
      "Ġdesigns": 8368,
      "Ġinfo": 8369,
      "ĠSolutions": 8370,
      "Ġwel": 8371,
      "ila": 8372,
      "ĠKingdom": 8373,
      "Mr": 8374,
      "Ġpulled": 8375,
      "Ġmeaningful": 8376,
      "Ġlect": 8377,
      "expected": 8378,
      "])": 8379,
      "Ġ41": 8380,
      "Supp": 8381,
      "etal": 8382,
      "Ġchemicals": 8383,
      "raine": 8384,
      "Ġassigned": 8385,
      "Ġopposed": 8386,
      "Ġsmoke": 8387,
      "Ġpointed": 8388,
      "Ġ43": 8389,
      "Ġrecru": 8390,
      "Ġtrends": 8391,
      "Ġhaz": 8392,
      "ĠWay": 8393,
      "DE": 8394,
      "ĠRights": 8395,
      "Ġathlet": 8396,
      "Ġlens": 8397,
      "Ġvariation": 8398,
      "df": 8399,
      "arks": 8400,
      "Ġfiber": 8401,
      "Ġrhy": 8402,
      "Ġdeaths": 8403,
      "Ġ\\([": 8404,
      "Ġpasseng": 8405,
      "Ġrecover": 8406,
      "Ġwed": 8407,
      "2013": 8408,
      "Ġaims": 8409,
      "iger": 8410,
      "Ġdefic": 8411,
      "Ġcoordinates": 8412,
      "lie": 8413,
      "Ġengagement": 8414,
      "tract": 8415,
      "Ġapt": 8416,
      "case": 8417,
      "omer": 8418,
      "UM": 8419,
      "imer": 8420,
      "Ġsyndrome": 8421,
      "Ġ1997": 8422,
      "Ġpron": 8423,
      "Ġbeneficial": 8424,
      "Ġlaid": 8425,
      "Ġnom": 8426,
      "onia": 8427,
      "Ġvictory": 8428,
      "stra": 8429,
      "charge": 8430,
      "lected": 8431,
      "ello": 8432,
      "];": 8433,
      "ĠMedia": 8434,
      "beta": 8435,
      "amine": 8436,
      "Ġdeeply": 8437,
      "Ġfacility": 8438,
      "lights": 8439,
      "ĠJeff": 8440,
      "apse": 8441,
      "ĠSenate": 8442,
      "Ġaer": 8443,
      "aul": 8444,
      "Ġdose": 8445,
      "terday": 8446,
      "ĠBir": 8447,
      "Ġveter": 8448,
      "Ġaccessible": 8449,
      "Ġapproved": 8450,
      "chers": 8451,
      "Ġheavily": 8452,
      "ĠColumb": 8453,
      "LC": 8454,
      "erving": 8455,
      "aria": 8456,
      "Ġversus": 8457,
      "Ġplain": 8458,
      "Ġartificial": 8459,
      "aze": 8460,
      "ĠiPhone": 8461,
      "ĠOlymp": 8462,
      "di": 8463,
      "ĠPython": 8464,
      "orous": 8465,
      "300": 8466,
      "Ġappeal": 8467,
      "Ġsought": 8468,
      "Ġrose": 8469,
      "acher": 8470,
      "aus": 8471,
      "iture": 8472,
      "ĠCho": 8473,
      "ĠValley": 8474,
      "Ġtransportation": 8475,
      "ĠPers": 8476,
      "anned": 8477,
      "Ġexplicit": 8478,
      "Ġanalys": 8479,
      "TA": 8480,
      "ograp": 8481,
      "Ġextend": 8482,
      "rightarrow": 8483,
      "Ġpreferred": 8484,
      "Ġsharp": 8485,
      "ommod": 8486,
      "Ġlapt": 8487,
      "Ġparameter": 8488,
      "cycl": 8489,
      "Ġdetected": 8490,
      "ĠRam": 8491,
      "otype": 8492,
      "redit": 8493,
      "ĠMach": 8494,
      "Ġafraid": 8495,
      "Ġcolour": 8496,
      "Ġgentle": 8497,
      "Ġbusy": 8498,
      "Ġrecording": 8499,
      "elle": 8500,
      "Ġduty": 8501,
      "ĠEll": 8502,
      "Ġlegisl": 8503,
      "Ġdirectory": 8504,
      "Ġlegislation": 8505,
      "Ġowned": 8506,
      "Ġ1996": 8507,
      "aine": 8508,
      "Ġtrading": 8509,
      "Ġchrom": 8510,
      "Ġexecutive": 8511,
      "Ġpollution": 8512,
      "Er": 8513,
      "Ġwalked": 8514,
      "cepts": 8515,
      "ĠResults": 8516,
      "Ġtrials": 8517,
      "Ġdil": 8518,
      "Ġvaccine": 8519,
      "ĠConstitution": 8520,
      "ĠFar": 8521,
      "Å¡": 8522,
      "ito": 8523,
      "ĠJac": 8524,
      "Ġ(\"": 8525,
      "!)": 8526,
      "Ġinvestors": 8527,
      "Ġbroke": 8528,
      "Ġasks": 8529,
      "Ġdecreased": 8530,
      "Ġcalc": 8531,
      "\");": 8532,
      "ĠUt": 8533,
      "Ġmolecules": 8534,
      "Ġresident": 8535,
      "ĠÂ»": 8536,
      "''": 8537,
      "ĠCub": 8538,
      "Ġchildhood": 8539,
      "Ġ:)": 8540,
      "craft": 8541,
      "ĠDar": 8542,
      "ĠAp": 8543,
      "ocolate": 8544,
      "Ġfruits": 8545,
      "ĠSoviet": 8546,
      "Ġwriters": 8547,
      "oston": 8548,
      "Ġmood": 8549,
      "Ġchest": 8550,
      "Ġproven": 8551,
      "ĠDirector": 8552,
      "Ġlifestyle": 8553,
      "Ġsurprised": 8554,
      "ĠGM": 8555,
      "gra": 8556,
      "Ġastron": 8557,
      "improve": 8558,
      "ĠLibrary": 8559,
      "Ġnerv": 8560,
      "Ġoptical": 8561,
      "Today": 8562,
      "Ġfriendly": 8563,
      "Ġfolks": 8564,
      "Ġdefect": 8565,
      "Ġpainting": 8566,
      "ĠDemocratic": 8567,
      "Ġ72": 8568,
      "esis": 8569,
      "obs": 8570,
      "Ġfo": 8571,
      "Comp": 8572,
      "gener": 8573,
      "à¸": 8574,
      "eness": 8575,
      "Ġinterior": 8576,
      "Ġabilities": 8577,
      "iral": 8578,
      "Ġdating": 8579,
      "Ġlad": 8580,
      "SC": 8581,
      "Ġbon": 8582,
      "ĠInit": 8583,
      "FIG": 8584,
      "==": 8585,
      "Ġwelcome": 8586,
      "prene": 8587,
      "elly": 8588,
      "Ġchannels": 8589,
      "Ġpromise": 8590,
      "ĠEnter": 8591,
      "idity": 8592,
      "Ġmistake": 8593,
      "Ġcompetitive": 8594,
      "ften": 8595,
      "arters": 8596,
      "ĠMulti": 8597,
      "hr": 8598,
      "aylor": 8599,
      "Facebook": 8600,
      "Ġforming": 8601,
      "Ġchances": 8602,
      "Ġacute": 8603,
      "Ġstrike": 8604,
      "asant": 8605,
      "Ġproud": 8606,
      "Ġscal": 8607,
      "Ġdinner": 8608,
      "ĠRequ": 8609,
      "Ġvictims": 8610,
      "Ġhypothesis": 8611,
      "opyright": 8612,
      "Ġfolder": 8613,
      "Ġcream": 8614,
      "Ġcommitment": 8615,
      "ĠSwed": 8616,
      "Ġmanaging": 8617,
      "ĠView": 8618,
      "ĠPay": 8619,
      "Ġpasses": 8620,
      "Ġhyd": 8621,
      "Ġordinary": 8622,
      "Ġvon": 8623,
      "Ġreporting": 8624,
      "agraph": 8625,
      "Lear": 8626,
      "Ġwarning": 8627,
      "Ġinnovative": 8628,
      "return": 8629,
      "ĠBlue": 8630,
      "Ġphilosophy": 8631,
      "mo": 8632,
      "ĠPsych": 8633,
      "Ġsmile": 8634,
      "Ġsacr": 8635,
      "Ġaside": 8636,
      "Ġho": 8637,
      "Ġdispl": 8638,
      "Ġintense": 8639,
      "ernel": 8640,
      "ĠSouthern": 8641,
      "Ġdynamics": 8642,
      "everal": 8643,
      "Ġstomach": 8644,
      "Ġwebsites": 8645,
      "ĠRetrieved": 8646,
      "asts": 8647,
      "ori": 8648,
      "Ġtone": 8649,
      "string": 8650,
      "ĠWeek": 8651,
      "Ġexamination": 8652,
      "ostic": 8653,
      "ĠBudd": 8654,
      "wan": 8655,
      "ĠEffect": 8656,
      ".âĢĻ": 8657,
      "Ġtub": 8658,
      "Ġkitchen": 8659,
      "Ġchat": 8660,
      "Ġsymbols": 8661,
      "Ġschedul": 8662,
      "Ġweekend": 8663,
      ")**": 8664,
      "Ġhel": 8665,
      "kl": 8666,
      "holders": 8667,
      "ĠScient": 8668,
      "ĠSupreme": 8669,
      "Ġchose": 8670,
      "arest": 8671,
      "Ġpromoting": 8672,
      "Ġpenal": 8673,
      "rip": 8674,
      "RS": 8675,
      "vy": 8676,
      "Ġconstructed": 8677,
      "hist": 8678,
      "ĠProfessor": 8679,
      "Ġphosph": 8680,
      "Ġalongside": 8681,
      "Ġreveal": 8682,
      "Ġassembly": 8683,
      "throp": 8684,
      "Ġ54": 8685,
      "roat": 8686,
      "Ġmouse": 8687,
      "Eng": 8688,
      "gr": 8689,
      "Ġwal": 8690,
      "Ġtrigger": 8691,
      "max": 8692,
      "Pub": 8693,
      "ĠStudies": 8694,
      "ĠKen": 8695,
      "aka": 8696,
      "Ġtap": 8697,
      "Ġ1960": 8698,
      "uan": 8699,
      "ĠThink": 8700,
      "Ġgift": 8701,
      "Ġmarks": 8702,
      "Cor": 8703,
      "Ġhence": 8704,
      "ureau": 8705,
      "BI": 8706,
      "ĠJava": 8707,
      "Ġtact": 8708,
      "utor": 8709,
      "ĠTown": 8710,
      "rous": 8711,
      "onometric": 8712,
      "Ġstreets": 8713,
      "arios": 8714,
      "Ġfiction": 8715,
      "Â·": 8716,
      "clusions": 8717,
      "Ġgiant": 8718,
      "Ġintroduce": 8719,
      "ĠIV": 8720,
      "Ġabsence": 8721,
      "ĠContent": 8722,
      "ĠAsian": 8723,
      "Ġforgot": 8724,
      "Ġsurfaces": 8725,
      "Ġreactions": 8726,
      "ĠFed": 8727,
      "Ġancest": 8728,
      "Ġoverwhel": 8729,
      "etary": 8730,
      "Ġbio": 8731,
      "unicip": 8732,
      "Ġmolecular": 8733,
      "Ġhabits": 8734,
      "Ġarts": 8735,
      "Ġpayments": 8736,
      "ĠPerhaps": 8737,
      "phi": 8738,
      "Ġgrab": 8739,
      "HS": 8740,
      "Ġsending": 8741,
      "essage": 8742,
      "Ġunw": 8743,
      "operation": 8744,
      "Ġcomposed": 8745,
      "Ġpassage": 8746,
      "Ġ56": 8747,
      "Ġsizes": 8748,
      "Ġdeclared": 8749,
      "ipher": 8750,
      "Ġmaxim": 8751,
      "Ġexploration": 8752,
      "Ġcompounds": 8753,
      "olt": 8754,
      "ĠNorthern": 8755,
      "Ġdiscussions": 8756,
      "ĠLinux": 8757,
      "Ġnewly": 8758,
      "ĠCommunity": 8759,
      "Ġdies": 8760,
      "Ġrice": 8761,
      "Ġinterpre": 8762,
      "Ġsmoking": 8763,
      "uality": 8764,
      "rank": 8765,
      "ght": 8766,
      "etch": 8767,
      "Ġsupplies": 8768,
      "Ġships": 8769,
      "Su": 8770,
      "heet": 8771,
      "Ġretire": 8772,
      "Ġphotograph": 8773,
      "CF": 8774,
      "Disc": 8775,
      "ami": 8776,
      "orters": 8777,
      "ortion": 8778,
      "ĠAN": 8779,
      "Ġproviders": 8780,
      "Rightarrow": 8781,
      "dt": 8782,
      "Ġpreparation": 8783,
      "Ġgrad": 8784,
      "ĠGuide": 8785,
      "inction": 8786,
      "neg": 8787,
      "Ġdirections": 8788,
      "atern": 8789,
      "umer": 8790,
      "Ġmyst": 8791,
      "ĠHead": 8792,
      "Ġedges": 8793,
      "ĠLabor": 8794,
      "ĠPakistan": 8795,
      "rays": 8796,
      "Ġtube": 8797,
      "Ġmic": 8798,
      "ĠStandard": 8799,
      "Ġ46": 8800,
      "Ne": 8801,
      "ĠFormula": 8802,
      "py": 8803,
      "ĠCarolina": 8804,
      "bridge": 8805,
      "Ġhem": 8806,
      "iki": 8807,
      "oga": 8808,
      "ĠUnfortunately": 8809,
      "Ġaccommod": 8810,
      "ĠMathematical": 8811,
      "Ġreverse": 8812,
      "ĠCapt": 8813,
      "Ġregulation": 8814,
      "Ġcleaning": 8815,
      "scale": 8816,
      "Ġreaching": 8817,
      "Ġinstallation": 8818,
      "through": 8819,
      "Ġrarely": 8820,
      "ĠCat": 8821,
      "Ġlowest": 8822,
      "Ġleaf": 8823,
      "stant": 8824,
      "Ġsle": 8825,
      "Ġ1995": 8826,
      "his": 8827,
      "ĠHD": 8828,
      "Hz": 8829,
      "ci": 8830,
      "Ġsolved": 8831,
      "Ġgluc": 8832,
      "ĠName": 8833,
      "Ġupdates": 8834,
      "Ġinstant": 8835,
      "PM": 8836,
      "Ġdemands": 8837,
      "Ġresc": 8838,
      "illy": 8839,
      "Ġflying": 8840,
      "orses": 8841,
      "Ġsurve": 8842,
      "VD": 8843,
      "III": 8844,
      "oured": 8845,
      "Ġgravity": 8846,
      "Ġfoss": 8847,
      "Ġloans": 8848,
      "ĠObject": 8849,
      "Ġtumor": 8850,
      "Ġcenters": 8851,
      "ĠHand": 8852,
      "Ġwatched": 8853,
      "reshold": 8854,
      "mers": 8855,
      "aux": 8856,
      "Ġkin": 8857,
      "noon": 8858,
      "ĠAmong": 8859,
      "ĠEmpire": 8860,
      "uten": 8861,
      "ĠRome": 8862,
      "Ġ47": 8863,
      "Ġimplies": 8864,
      "Ġconvin": 8865,
      "Thank": 8866,
      "iano": 8867,
      "Out": 8868,
      "Ġpersonality": 8869,
      "allow": 8870,
      "Ġmeasuring": 8871,
      "Ġexamined": 8872,
      "ĠÂ±": 8873,
      "icy": 8874,
      "ĠSpec": 8875,
      "\\%": 8876,
      "ECT": 8877,
      "Ġinterpretation": 8878,
      "Ġuncom": 8879,
      "Ġwireless": 8880,
      "iov": 8881,
      "geq": 8882,
      "Ġenthus": 8883,
      "Ġchoosing": 8884,
      "Ġmedication": 8885,
      "door": 8886,
      "Ġthereby": 8887,
      "ĠPlace": 8888,
      "PR": 8889,
      "aded": 8890,
      "Ġlengths": 8891,
      "Ġexhaust": 8892,
      "umns": 8893,
      "Ġhealing": 8894,
      "Ġmild": 8895,
      "cies": 8896,
      "rus": 8897,
      "Ġflour": 8898,
      "asive": 8899,
      "Ġcorrelation": 8900,
      "disc": 8901,
      "ĠMedicine": 8902,
      "Ġpicked": 8903,
      "Ġclothing": 8904,
      "Ġanymore": 8905,
      "^{\\": 8906,
      "har": 8907,
      "Ġbreathing": 8908,
      "Ġsees": 8909,
      "iar": 8910,
      "power": 8911,
      "Ġbehaviors": 8912,
      "Ġdans": 8913,
      "stal": 8914,
      "Ġcontainer": 8915,
      "Ġpurs": 8916,
      "Ġcharacterized": 8917,
      "Ġabund": 8918,
      "Ġreduces": 8919,
      "Ġstake": 8920,
      "ĠHard": 8921,
      "Ġlaser": 8922,
      "Ġwrites": 8923,
      "ipedia": 8924,
      "Ġpara": 8925,
      "Ġbasket": 8926,
      "Ġspat": 8927,
      "Ġtension": 8928,
      "Ġeliminate": 8929,
      "effect": 8930,
      "Ġsubstantial": 8931,
      "ĠPut": 8932,
      "Ġterritory": 8933,
      "ĠChief": 8934,
      "Ġnose": 8935,
      "Ġliterally": 8936,
      "dep": 8937,
      "Ġalter": 8938,
      "ĠTurn": 8939,
      "who": 8940,
      "Ġconcerning": 8941,
      "Ġstructural": 8942,
      "ĠEth": 8943,
      "Ġcoefficient": 8944,
      "Ġemotion": 8945,
      "Ġminds": 8946,
      "ĠDie": 8947,
      "Ġpsychological": 8948,
      "Ðº": 8949,
      "}\\),": 8950,
      "ĠBush": 8951,
      "bour": 8952,
      "Ġscope": 8953,
      "Ġbelieves": 8954,
      "Ġpreced": 8955,
      "Ġhydrogen": 8956,
      "itals": 8957,
      "Ġdisag": 8958,
      "Ġopposition": 8959,
      "endar": 8960,
      "open": 8961,
      "Ġlicense": 8962,
      "theless": 8963,
      "riction": 8964,
      "Ġrotation": 8965,
      "Ġcomprom": 8966,
      "Ġcounsel": 8967,
      "Ġinstruments": 8968,
      "hav": 8969,
      "Ġprivacy": 8970,
      "sim": 8971,
      "Ġthinks": 8972,
      "weet": 8973,
      "Ġtheoretical": 8974,
      "Ġye": 8975,
      "Ġenjoyed": 8976,
      "Ġcircles": 8977,
      "ĠColl": 8978,
      "Ġaccord": 8979,
      "rium": 8980,
      "Ġjur": 8981,
      "Ġintensity": 8982,
      "ĠIndust": 8983,
      "Ġdish": 8984,
      "Ġending": 8985,
      "Ġidentifying": 8986,
      "una": 8987,
      "only": 8988,
      "Ġunusual": 8989,
      "ĠLittle": 8990,
      "ĠABC": 8991,
      "Ġeverywhere": 8992,
      "ĠQuad": 8993,
      "vi": 8994,
      "Ġcontributions": 8995,
      "Ġblank": 8996,
      "Ġenables": 8997,
      "ĠOrig": 8998,
      "Ġstatistical": 8999,
      "ashed": 9000,
      "ĠDaniel": 9001,
      "Ġincredible": 9002,
      "âĢĻ,": 9003,
      "Ġestimates": 9004,
      "inson": 9005,
      "ĠWithout": 9006,
      "param": 9007,
      "ĠLearn": 9008,
      "ĠEs": 9009,
      "Ġlists": 9010,
      "Ġpublication": 9011,
      "Ġindustries": 9012,
      "ĠPen": 9013,
      "Image": 9014,
      "2012": 9015,
      "Ġhal": 9016,
      "ĠJones": 9017,
      "iche": 9018,
      "iatric": 9019,
      "Ġfrequent": 9020,
      "Ġidentical": 9021,
      "http": 9022,
      "ĠProbability": 9023,
      "ĠNO": 9024,
      "Ġpreval": 9025,
      "ĠCase": 9026,
      ")$": 9027,
      "ĠAngeles": 9028,
      "Ġquantities": 9029,
      "Ġlogical": 9030,
      "Ġthemes": 9031,
      "Ġdys": 9032,
      "Ġcapabilities": 9033,
      "Ġsuffered": 9034,
      "ĠGar": 9035,
      "Fact": 9036,
      "Ġfuck": 9037,
      "zo": 9038,
      "ools": 9039,
      "Ġsimultaneously": 9040,
      "Ġtargets": 9041,
      "Ġprovider": 9042,
      "fs": 9043,
      "Ġ($": 9044,
      "omething": 9045,
      "Ġloud": 9046,
      "Ġbones": 9047,
      "pa": 9048,
      "esome": 9049,
      "EX": 9050,
      "ĠAge": 9051,
      "ĠEastern": 9052,
      "ĠString": 9053,
      "Like": 9054,
      "Ġcovering": 9055,
      "ĠZeal": 9056,
      "including": 9057,
      "Ġcaptured": 9058,
      "ĠMid": 9059,
      "Take": 9060,
      "Ġweren": 9061,
      "ĠBased": 9062,
      "eli": 9063,
      "ictionary": 9064,
      "Ġnutrients": 9065,
      "Ġcounty": 9066,
      "ĠRepresent": 9067,
      "ĠAri": 9068,
      "inton": 9069,
      "Ġinhab": 9070,
      "ĠQueen": 9071,
      "OU": 9072,
      "yal": 9073,
      "iology": 9074,
      "Ġcats": 9075,
      "Ġallerg": 9076,
      "Ġsimplify": 9077,
      "Ġacquired": 9078,
      "Ġcommittee": 9079,
      "Ġrepeat": 9080,
      "placement": 9081,
      "ÙĦ": 9082,
      "Ġsequences": 9083,
      "Ġethnic": 9084,
      "Ġforever": 9085,
      "gage": 9086,
      "Ġovercome": 9087,
      "ĠLead": 9088,
      "Ġdoors": 9089,
      "ĠEss": 9090,
      "Ġrestaurant": 9091,
      "Ġvisitors": 9092,
      "uine": 9093,
      "ĠJustice": 9094,
      "aret": 9095,
      "ido": 9096,
      "idation": 9097,
      "Ġpermission": 9098,
      "rub": 9099,
      "Ġcolleagues": 9100,
      "anes": 9101,
      "ĠIrish": 9102,
      "Ġlosses": 9103,
      "Ġprocessed": 9104,
      "ĠHa": 9105,
      "ĠNature": 9106,
      "ivo": 9107,
      "eping": 9108,
      "ĠProcess": 9109,
      "ðŁ": 9110,
      "rooms": 9111,
      "cup": 9112,
      "Ġresil": 9113,
      "400": 9114,
      "Ġdecor": 9115,
      "Ġsummary": 9116,
      "Ġinqu": 9117,
      "His": 9118,
      "ĠPolicy": 9119,
      "Ġcompos": 9120,
      "ĠBoston": 9121,
      "Ġfingers": 9122,
      "AF": 9123,
      "Ġmarg": 9124,
      "Ġexplos": 9125,
      "iden": 9126,
      "Ġreplacement": 9127,
      "ibl": 9128,
      "Ġmonthly": 9129,
      "Ġintellectual": 9130,
      "aneous": 9131,
      "Ġdifferently": 9132,
      "ĠFred": 9133,
      "Ġcorn": 9134,
      "Math": 9135,
      "abeth": 9136,
      "ĠViet": 9137,
      "Ġsomehow": 9138,
      "Ġtherap": 9139,
      "Look": 9140,
      "Ġ99": 9141,
      "Ġhandling": 9142,
      "Ġneutral": 9143,
      "Ġwise": 9144,
      "Ġeffectiveness": 9145,
      "stac": 9146,
      "Ġisolated": 9147,
      "heast": 9148,
      "Ġmaps": 9149,
      "Ġgranted": 9150,
      "ĠPrinc": 9151,
      "Ġburning": 9152,
      "Ġglad": 9153,
      "PC": 9154,
      "ĠLow": 9155,
      "Ġstack": 9156,
      "iability": 9157,
      "ĠPhysics": 9158,
      "Ġstup": 9159,
      "QL": 9160,
      "Ġspectrum": 9161,
      "ĠJon": 9162,
      "Ġharmful": 9163,
      "operative": 9164,
      "ĠGames": 9165,
      "Ġquot": 9166,
      "hop": 9167,
      "ĠEnt": 9168,
      "Ġmissed": 9169,
      "ĠAsk": 9170,
      "base": 9171,
      "Äį": 9172,
      "Ġtruck": 9173,
      "ĠVan": 9174,
      "ĠInterest": 9175,
      "Ġfir": 9176,
      "sters": 9177,
      "Ġindependence": 9178,
      "ĠComment": 9179,
      "uh": 9180,
      "Ġ1994": 9181,
      "oded": 9182,
      "Ġparticle": 9183,
      "Ġagricultural": 9184,
      "ĠShould": 9185,
      "Ġimaging": 9186,
      "eps": 9187,
      "aug": 9188,
      "Ġperpendicular": 9189,
      ")-": 9190,
      "ĠCB": 9191,
      "Ġ00": 9192,
      "Ġstations": 9193,
      "Ġreasoning": 9194,
      "Ġanticip": 9195,
      "ĠKh": 9196,
      "rolled": 9197,
      "Log": 9198,
      "Ġconnecting": 9199,
      "Ġshooting": 9200,
      "ocument": 9201,
      "agen": 9202,
      "Ġrecycl": 9203,
      "Ġmask": 9204,
      "Ġreson": 9205,
      "ghan": 9206,
      "je": 9207,
      "onom": 9208,
      "iary": 9209,
      "Ġsetup": 9210,
      "Ġbless": 9211,
      "ĠNa": 9212,
      "pectives": 9213,
      "bro": 9214,
      "dri": 9215,
      "opl": 9216,
      "Ġrectangle": 9217,
      "cin": 9218,
      "ĠApplications": 9219,
      "vo": 9220,
      "oked": 9221,
      "ĠZealand": 9222,
      "Ġnervous": 9223,
      "mann": 9224,
      "fficients": 9225,
      "rapeut": 9226,
      "Inf": 9227,
      "ushing": 9228,
      "Ġtexts": 9229,
      "Ġstimul": 9230,
      "Ġscar": 9231,
      "omatic": 9232,
      "ĠPythagorean": 9233,
      "isement": 9234,
      "Ġdeviation": 9235,
      "Ġunexpected": 9236,
      "ĠON": 9237,
      "Ġcontribution": 9238,
      "Share": 9239,
      "Ġtech": 9240,
      "Sm": 9241,
      "ĠÎ¼": 9242,
      "Ġharvest": 9243,
      "sudo": 9244,
      "Ġsavings": 9245,
      "ranch": 9246,
      "Will": 9247,
      "Ġfed": 9248,
      "Solve": 9249,
      "ben": 9250,
      "abling": 9251,
      "Ġintention": 9252,
      "ulty": 9253,
      "ĠSn": 9254,
      "Ġdent": 9255,
      "La": 9256,
      "Ġregister": 9257,
      "aning": 9258,
      "Ġsubstr": 9259,
      "Ġphrase": 9260,
      "Ġintake": 9261,
      "Ġcoc": 9262,
      "Ġminimal": 9263,
      "ĠSimilarly": 9264,
      "een": 9265,
      "emia": 9266,
      "Ð¾Ð": 9267,
      "Ġjudgment": 9268,
      "enny": 9269,
      "ĠMars": 9270,
      "uits": 9271,
      "ĠGrade": 9272,
      "Ġhang": 9273,
      "sem": 9274,
      "Ġopinions": 9275,
      "ĠOx": 9276,
      "Ġattach": 9277,
      "ÃŃa": 9278,
[...]
