{
  "version": "1.0",
  "truncation": null,
  "padding": null,
  "added_tokens": [
    {
      "id": 0,
      "content": "<pad>",
      "single_word": false,
      "lstrip": false,
      "rstrip": false,
      "normalized": false,
      "special": true
    },
    {
      "id": 1,
      "content": "<bos>",
      "single_word": false,
      "lstrip": false,
      "rstrip": false,
      "normalized": false,
      "special": true
    },
    {
      "id": 2,
      "content": "<eos>",
      "single_word": false,
      "lstrip": false,
      "rstrip": false,
      "normalized": false,
      "special": true
    },
    {
      "id": 3,
      "content": "<unk>",
      "single_word": false,
      "lstrip": false,
      "rstrip": false,
      "normalized": false,
      "special": true
    }
  ],
  "normalizer": {
    "type": "Sequence",
    "normalizers": [
      {
        "type": "NFKC"
      }
    ]
  },
  "pre_tokenizer": {
    "type": "ByteLevel",
    "add_prefix_space": false,
    "trim_offsets": true,
    "use_regex": true
  },
  "post_processor": {
    "type": "TemplateProcessing",
    "single": [
      {
        "SpecialToken": {
          "id": "<bos>",
          "type_id": 0
        }
      },
      {
        "Sequence": {
          "id": "A",
          "type_id": 0
        }
      },
      {
        "SpecialToken": {
          "id": "<eos>",
          "type_id": 0
        }
      }
    ],
    "pair": [
      {
        "Sequence": {
          "id": "A",
          "type_id": 0
        }
      },
      {
        "Sequence": {
          "id": "B",
          "type_id": 1
        }
      }
    ],
    "special_tokens": {
      "<bos>": {
        "id": "<bos>",
        "ids": [
          1
        ],
        "tokens": [
          "<bos>"
        ]
      },
      "<eos>": {
        "id": "<eos>",
        "ids": [
          2
        ],
        "tokens": [
          "<eos>"
        ]
      }
    }
  },
  "decoder": {
    "type": "ByteLevel",
    "add_prefix_space": true,
    "trim_offsets": true,
    "use_regex": true
  },
  "model": {
    "type": "BPE",
    "dropout": null,
    "unk_token": "<unk>",
    "continuing_subword_prefix": null,
    "end_of_word_suffix": null,
    "fuse_unk": false,
    "byte_fallback": false,
    "ignore_merges": false,
    "vocab": {
      "<pad>": 0,
      "<bos>": 1,
      "<eos>": 2,
      "<unk>": 3,
      "!": 4,
      "\"": 5,
      "#": 6,
      "$": 7,
      "%": 8,
      "&": 9,
      "'": 10,
      "(": 11,
      ")": 12,
      "*": 13,
      "+": 14,
      ",": 15,
      "-": 16,
      ".": 17,
      "/": 18,
      "0": 19,
      "1": 20,
      "2": 21,
      "3": 22,
      "4": 23,
      "5": 24,
      "6": 25,
      "7": 26,
      "8": 27,
      "9": 28,
      ":": 29,
      ";": 30,
      "<": 31,
      "=": 32,
      ">": 33,
      "?": 34,
      "@": 35,
      "A": 36,
      "B": 37,
      "C": 38,
      "D": 39,
      "E": 40,
      "F": 41,
      "G": 42,
      "H": 43,
      "I": 44,
      "J": 45,
      "K": 46,
      "L": 47,
      "M": 48,
      "N": 49,
      "O": 50,
      "P": 51,
      "Q": 52,
      "R": 53,
      "S": 54,
      "T": 55,
      "U": 56,
      "V": 57,
      "W": 58,
      "X": 59,
      "Y": 60,
      "Z": 61,
      "[": 62,
      "\\": 63,
      "]": 64,
      "^": 65,
      "_": 66,
      "`": 67,
      "a": 68,
      "b": 69,
      "c": 70,
      "d": 71,
      "e": 72,
      "f": 73,
      "g": 74,
      "h": 75,
      "i": 76,
      "j": 77,
      "k": 78,
      "l": 79,
      "m": 80,
      "n": 81,
      "o": 82,
      "p": 83,
      "q": 84,
      "r": 85,
      "s": 86,
      "t": 87,
      "u": 88,
      "v": 89,
      "w": 90,
      "x": 91,
      "y": 92,
      "z": 93,
      "{": 94,
      "|": 95,
      "}": 96,
      "~": 97,
      "¡": 98,
      "¢": 99,
      "£": 100,
      "¤": 101,
      "¥": 102,
      "¦": 103,
      "§": 104,
      "¨": 105,
      "©": 106,
      "ª": 107,
      "«": 108,
      "¬": 109,
      "®": 110,
      "¯": 111,
      "°": 112,
      "±": 113,
      "²": 114,
      "³": 115,
      "´": 116,
      "µ": 117,
      "¶": 118,
      "·": 119,
      "¸": 120,
      "¹": 121,
      "º": 122,
      "»": 123,
      "¼": 124,
      "½": 125,
      "¾": 126,
      "¿": 127,
      "Â": 128,
      "Ã": 129,
      "Ä": 130,
      "Å": 131,
      "Æ": 132,
      "Ç": 133,
      "È": 134,
      "É": 135,
      "Ê": 136,
      "Ë": 137,
      "Ì": 138,
      "Í": 139,
      "Î": 140,
      "Ï": 141,
      "Ð": 142,
      "Ñ": 143,
      "Ò": 144,
      "Ó": 145,
      "Ô": 146,
      "Õ": 147,
      "Ö": 148,
      "×": 149,
      "Ø": 150,
      "Ù": 151,
      "Ú": 152,
      "Û": 153,
      "Ü": 154,
      "Ý": 155,
      "Þ": 156,
      "ß": 157,
      "à": 158,
      "á": 159,
      "â": 160,
      "ã": 161,
      "ä": 162,
      "å": 163,
      "æ": 164,
      "ç": 165,
      "è": 166,
      "é": 167,
      "ê": 168,
      "ë": 169,
      "ì": 170,
      "í": 171,
      "î": 172,
      "ï": 173,
      "ð": 174,
      "ò": 175,
      "ó": 176,
      "ô": 177,
      "ĉ": 178,
      "Ċ": 179,
      "Ġ": 180,
      "Ģ": 181,
      "ģ": 182,
      "Ĥ": 183,
      "ĥ": 184,
      "Ħ": 185,
      "ħ": 186,
      "Ĩ": 187,
      "ĩ": 188,
      "Ī": 189,
      "ī": 190,
      "Ĭ": 191,
      "ĭ": 192,
      "Į": 193,
      "į": 194,
      "İ": 195,
      "ı": 196,
      "Ĳ": 197,
      "ĳ": 198,
      "Ĵ": 199,
      "ĵ": 200,
      "Ķ": 201,
      "ķ": 202,
      "ĸ": 203,
      "Ĺ": 204,
      "ĺ": 205,
      "Ļ": 206,
      "ļ": 207,
      "Ľ": 208,
      "ľ": 209,
      "Ŀ": 210,
      "ŀ": 211,
      "Ł": 212,
      "ł": 213,
      "Ń": 214,
      "Ġt": 215,
      "Ġa": 216,
      "in": 217,
      "he": 218,
      "re": 219,
      "on": 220,
      "er": 221,
      "Ġthe": 222,
      "at": 223,
      "Ġs": 224,
      "Ġo": 225,
      "en": 226,
      "Ġc": 227,
      "es": 228,
      "or": 229,
      "is": 230,
      "it": 231,
      "Ġw": 232,
      "an": 233,
      "al": 234,
      "Ġp": 235,
      "Ġf": 236,
      "ing": 237,
      "Ġan": 238,
      "ed": 239,
      "Ġb": 240,
      "ar": 241,
      "ou": 242,
      "Ġof": 243,
      "Ġin": 244,
      "ion": 245,
      "Ġm": 246,
      "Ġd": 247,
      "ic": 248,
      "Ġto": 249,
      "le": 250,
      "Ġand": 251,
      "ro": 252,
      "as": 253,
      "el": 254,
      "ent": 255,
      "ct": 256,
      "Ġth": 257,
      "Ġh": 258,
      "Ġre": 259,
      "st": 260,
      "et": 261,
      "il": 262,
      "Ġn": 263,
      "Ġe": 264,
      "om": 265,
      "Ġl": 266,
      "Ġis": 267,
      "im": 268,
      "ol": 269,
      "id": 270,
      "ve": 271,
      "se": 272,
      "ut": 273,
      "Ġg": 274,
      "ur": 275,
      "ĠT": 276,
      "am": 277,
      "ation": 278,
      "ce": 279,
      "ot": 280,
      "âĢ": 281,
      "ig": 282,
      "ow": 283,
      "ly": 284,
      "ch": 285,
      "Ġbe": 286,
      "Ġu": 287,
      "Ġfor": 288,
      "ra": 289,
      "ĠA": 290,
      "Ġst": 291,
      "ĠS": 292,
      "ver": 293,
      "ul": 294,
      "Ġy": 295,
      "if": 296,
      "Ġon": 297,
      "Ġthat": 298,
      "ir": 299,
      "ĠI": 300,
      "ĠC": 301,
      "od": 302,
      "ad": 303,
      "ay": 304,
      "Ġ(": 305,
      "Ġ=": 306,
      "ith": 307,
      "Ġcon": 308,
      "Ġas": 309,
      "Ġpro": 310,
      "Ġ1": 311,
      "ter": 312,
      "Ġyou": 313,
      "her": 314,
      "ge": 315,
      "um": 316,
      "ate": 317,
      "Ġwith": 318,
      "Ġare": 319,
      "Ġor": 320,
      "Ġde": 321,
      "Ġit": 322,
      "est": 323,
      "nd": 324,
      "qu": 325,
      "ist": 326,
      "ab": 327,
      "pe": 328,
      "Ġal": 329,
      "Ġwh": 330,
      "ess": 331,
      "Ġex": 332,
      "ers": 333,
      "th": 334,
      "ĠM": 335,
      "Ġv": 336,
      "ri": 337,
      "ĠP": 338,
      "res": 339,
      "op": 340,
      "ac": 341,
      "em": 342,
      "us": 343,
      "ĠThe": 344,
      "ment": 345,
      "and": 346,
      "ill": 347,
      "ore": 348,
      "Ġcom": 349,
      "nt": 350,
      "ort": 351,
      "rom": 352,
      "Ġhe": 353,
      "ke": 354,
      "ect": 355,
      "Ġwe": 356,
      "oc": 357,
      "ity": 358,
      "ĠB": 359,
      "os": 360,
      "elf": 361,
      "iv": 362,
      "un": 363,
      "ies": 364,
      "igh": 365,
      "pp": 366,
      "Ġ2": 367,
      "Ġsu": 368,
      "ain": 369,
      "ld": 370,
      "ĠW": 371,
      "ant": 372,
      "Ġr": 373,
      "Ġby": 374,
      "ĠH": 375,
      "ive": 376,
      "ĠF": 377,
      "âĢĻ": 378,
      "Ġat": 379,
      "ĠD": 380,
      "Ġcan": 381,
      "Ġne": 382,
      "ĠE": 383,
      "Ġch": 384,
      "pt": 385,
      "Ġ\"": 386,
      "ud": 387,
      "Ġha": 388,
      "00": 389,
      "ĠR": 390,
      "ĠN": 391,
      "Ġfrom": 392,
      "art": 393,
      "Ġse": 394,
      "pl": 395,
      "ure": 396,
      "Ġnot": 397,
      "ial": 398,
      "Ġ'": 399,
      "og": 400,
      "end": 401,
      "all": 402,
      "ĠL": 403,
      "Ġle": 404,
      "ight": 405,
      "ions": 406,
      "ĊĊ": 407,
      "Ġthis": 408,
      "ame": 409,
      "ass": 410,
      "ag": 411,
      "ue": 412,
      "Ġwas": 413,
      "ical": 414,
      "Ġsh": 415,
      "rou": 416,
      "ine": 417,
      "ĠG": 418,
      "Ġim": 419,
      "age": 420,
      "Ġhave": 421,
      "out": 422,
      "our": 423,
      "per": 424,
      "ĠâĢ": 425,
      "red": 426,
      "ult": 427,
      "iz": 428,
      "cl": 429,
      "Ġus": 430,
      "ost": 431,
      "Ġab": 432,
      "act": 433,
      "Ġint": 434,
      "Ġwor": 435,
      "ould": 436,
      "Ġself": 437,
      "ust": 438,
      "ff": 439,
      "ome": 440,
      "The": 441,
      "Ġen": 442,
      "gh": 443,
      "ĠO": 444,
      "ard": 445,
      "ated": 446,
      "Ġpl": 447,
      "ell": 448,
      "ich": 449,
      "port": 450,
      "Ġif": 451,
      "ther": 452,
      "ex": 453,
      "ide": 454,
      "ans": 455,
      "Ġk": 456,
      "orm": 457,
      "Ġres": 458,
      "able": 459,
      "ap": 460,
      "ast": 461,
      "Ġyour": 462,
      "ind": 463,
      "Ġwhe": 464,
      "ip": 465,
      "Ġcl": 466,
      "ak": 467,
      "Ġcont": 468,
      "ib": 469,
      "Ġtheir": 470,
      "du": 471,
      "Ġad": 472,
      "ĠU": 473,
      "ction": 474,
      "are": 475,
      "ations": 476,
      "one": 477,
      "cc": 478,
      "Ġwill": 479,
      "Ġall": 480,
      "Ġcomp": 481,
      "ous": 482,
      "ew": 483,
      "con": 484,
      "Ġthey": 485,
      "ry": 486,
      "urn": 487,
      "ack": 488,
      "ru": 489,
      "ile": 490,
      "ere": 491,
      "int": 492,
      "ong": 493,
      "ance": 494,
      "Ġdis": 495,
      "):": 496,
      "Ġwhich": 497,
      "ary": 498,
      "'s": 499,
      "Ġdo": 500,
      "ents": 501,
      "ime": 502,
      "ase": 503,
      "',": 504,
      "ĠIn": 505,
      "vel": 506,
      "ĠTh": 507,
      "Ġ-": 508,
      "ear": 509,
      "ĠJ": 510,
      "Ġmore": 511,
      "Ġhas": 512,
      "ood": 513,
      "ild": 514,
      "ign": 515,
      "),": 516,
      "ub": 517,
      "ep": 518,
      "ok": 519,
      "ber": 520,
      "ress": 521,
      "ice": 522,
      "ual": 523,
      "ach": 524,
      "ang": 525,
      "Ġ0": 526,
      "Ġj": 527,
      "ater": 528,
      "so": 529,
      "ence": 530,
      "Ġme": 531,
      "self": 532,
      "ace": 533,
      "ia": 534,
      "Ġper": 535,
      "Ġar": 536,
      "Ġother": 537,
      "ake": 538,
      "()": 539,
      "Ġun": 540,
      "av": 541,
      "ord": 542,
      "âĢĿ": 543,
      "ef": 544,
      "Ġman": 545,
      "Ġ{": 546,
      "Ġbut": 547,
      "Ġone": 548,
      "Ġout": 549,
      "ath": 550,
      "ount": 551,
      "Ġ3": 552,
      "ition": 553,
      "get": 554,
      "ose": 555,
      "Ġ*": 556,
      "ert": 557,
      "form": 558,
      "ens": 559,
      "Ġso": 560,
      "Ġdef": 561,
      "ject": 562,
      "ite": 563,
      "ory": 564,
      "ors": 565,
      "ire": 566,
      "..": 567,
      "ks": 568,
      "ces": 569,
      "Ġabout": 570,
      ").": 571,
      "Ġev": 572,
      "ail": 573,
      "ely": 574,
      "Ġret": 575,
      "ĠSt": 576,
      "ple": 577,
      "Ġalso": 578,
      "au": 579,
      "ound": 580,
      "very": 581,
      "Ġsc": 582,
      "ata": 583,
      "Ġqu": 584,
      "reat": 585,
      "Ġsy": 586,
      "Ġpart": 587,
      "Ġsp": 588,
      "Ġte": 589,
      "Ġwere": 590,
      "ĠâĢľ": 591,
      "now": 592,
      "ook": 593,
      "ob": 594,
      "Ġup": 595,
      "Ġstud": 596,
      "Ġcomm": 597,
      "##": 598,
      "Ġli": 599,
      "ree": 600,
      "ph": 601,
      "pec": 602,
      "ric": 603,
      "vers": 604,
      "lic": 605,
      "iff": 606,
      "ings": 607,
      "nder": 608,
      "Ġthem": 609,
      "Ġpe": 610,
      "Ġpre": 611,
      ");": 612,
      "Ġapp": 613,
      "ays": 614,
      "Ġwho": 615,
      "low": 616,
      "Ġro": 617,
      "Ġ$": 618,
      "Ġtr": 619,
      "__": 620,
      "ish": 621,
      "eth": 622,
      "Ġ19": 623,
      "Ġ[": 624,
      "Ġreturn": 625,
      "Ġwhen": 626,
      "Ġbec": 627,
      "Ġthan": 628,
      "erv": 629,
      "Ġinto": 630,
      "ĠK": 631,
      "Ġmay": 632,
      "Ġtime": 633,
      "ates": 634,
      "ĠV": 635,
      "Ġsome": 636,
      "Ġhow": 637,
      "Ġnew": 638,
      "ext": 639,
      "ype": 640,
      "ĠIt": 641,
      "01": 642,
      "Ġcol": 643,
      "cre": 644,
      "ĠThis": 645,
      "Ġ#": 646,
      "ys": 647,
      "olog": 648,
      "Ġind": 649,
      "Ġuse": 650,
      "Ġthere": 651,
      "Ġthese": 652,
      "lect": 653,
      "ove": 654,
      "rib": 655,
      "Ġtra": 656,
      "we": 657,
      "clud": 658,
      "ient": 659,
      "Ġits": 660,
      "rit": 661,
      "ck": 662,
      "Ġdiff": 663,
      "rough": 664,
      "Ġgo": 665,
      "Ġwork": 666,
      "ople": 667,
      "In": 668,
      "row": 669,
      "Ġ+": 670,
      "Ġra": 671,
      "ific": 672,
      "te": 673,
      "Ġhis": 674,
      "Ġnum": 675,
      "ĠCh": 676,
      "Ġyear": 677,
      "Ġ4": 678,
      "tern": 679,
      "irst": 680,
      "Ġover": 681,
      "Ġrec": 682,
      "Ġbet": 683,
      "Ġag": 684,
      "Ġour": 685,
      "ally": 686,
      "Ġunder": 687,
      "ie": 688,
      "ms": 689,
      "ities": 690,
      "ll": 691,
      "ough": 692,
      "cess": 693,
      "mer": 694,
      "ool": 695,
      "ren": 696,
      "Ġtw": 697,
      "eld": 698,
      "Ġass": 699,
      "Ġimport": 700,
      "\"\"": 701,
      "stem": 702,
      "Ġacc": 703,
      "ari": 704,
      "les": 705,
      "ĠY": 706,
      "ause": 707,
      "lp": 708,
      "Ġknow": 709,
      "ons": 710,
      "ode": 711,
      "Ġdes": 712,
      "pro": 713,
      "Ġact": 714,
      "Ġsa": 715,
      "Ġcons": 716,
      "Ġbeen": 717,
      "Ġneed": 718,
      "Ġget": 719,
      "Ġbl": 720,
      "Ġpeople": 721,
      "('": 722,
      "ating": 723,
      "ft": 724,
      "Ġval": 725,
      "Ġany": 726,
      "arn": 727,
      "ield": 728,
      "Ġ5": 729,
      "Ġob": 730,
      "cept": 731,
      "ock": 732,
      "Ġhelp": 733,
      "ange": 734,
      "Ġwould": 735,
      "Ġrel": 736,
      "ise": 737,
      "ener": 738,
      "Ġwhat": 739,
      "ov": 740,
      "ink": 741,
      "ments": 742,
      "\",": 743,
      "ize": 744,
      "Ġsuch": 745,
      "':": 746,
      "hed": 747,
      "alth": 748,
      "--": 749,
      "ian": 750,
      "als": 751,
      "Ġadd": 752,
      "ics": 753,
      "ram": 754,
      "Ġ}": 755,
      "Ġlike": 756,
      "ble": 757,
      "Ġpr": 758,
      "round": 759,
      "ular": 760,
      "Ġspec": 761,
      "ark": 762,
      "pect": 763,
      "Ġmost": 764,
      "Ġinclud": 765,
      "ffect": 766,
      "Ġtwo": 767,
      "Ġused": 768,
      "Ġ\\": 769,
      "ict": 770,
      "Ġem": 771,
      "name": 772,
      "oint": 773,
      "velop": 774,
      "ful": 775,
      "com": 776,
      "ring": 777,
      "Ġthrough": 778,
      "ne": 779,
      "Ġam": 780,
      "Ġhad": 781,
      "Ġfirst": 782,
      "Ġfe": 783,
      "Ġonly": 784,
      "Ġmod": 785,
      "Ġno": 786,
      "Ġprov": 787,
      "ced": 788,
      "Ġoff": 789,
      "Ġreg": 790,
      "ational": 791,
      "ract": 792,
      "old": 793,
      "Ġdiffere": 794,
      "ative": 795,
      "Ġpos": 796,
      "ible": 797,
      "ility": 798,
      "Ġchild": 799,
      "Ġprodu": 800,
      "iss": 801,
      "Ġ<": 802,
      "arg": 803,
      "Ġtest": 804,
      "Ġmany": 805,
      "Ġph": 806,
      "de": 807,
      "uring": 808,
      "ures": 809,
      "own": 810,
      "oth": 811,
      "erm": 812,
      "Ġset": 813,
      "fter": 814,
      "ied": 815,
      "Ġfl": 816,
      "its": 817,
      "hen": 818,
      "ĠUn": 819,
      "ĠâĢĵ": 820,
      "Ġsub": 821,
      "ution": 822,
      "ss": 823,
      "ont": 824,
      "eg": 825,
      "ruct": 826,
      "))": 827,
      "Ġrem": 828,
      "Ġfun": 829,
      "Ġsystem": 830,
      "Ġatt": 831,
      "Ġinst": 832,
      "Ġform": 833,
      "Ġshould": 834,
      "ower": 835,
      "ax": 836,
      "Ġdevelop": 837,
      "Ġbu": 838,
      "Ġco": 839,
      "arch": 840,
      "roup": 841,
      "ween": 842,
      "ick": 843,
      "vent": 844,
      "val": 845,
      "ased": 846,
      "iew": 847,
      "Ġinf": 848,
      "::": 849,
      "Ġwhere": 850,
      "ious": 851,
      "ues": 852,
      "Ġbetween": 853,
      "ars": 854,
      "ix": 855,
      "Ġke": 856,
      "Ġdata": 857,
      "Ġsur": 858,
      "hat": 859,
      "Ġdi": 860,
      "hes": 861,
      "Ġ201": 862,
      "Ġinter": 863,
      "Ġexam": 864,
      "cy": 865,
      "ten": 866,
      "Ġac": 867,
      "Ġsupp": 868,
      "put": 869,
      "Ġtrans": 870,
      "wn": 871,
      "Ġsm": 872,
      "ng": 873,
      "Ġresult": 874,
      "ork": 875,
      "up": 876,
      "Ġrequ": 877,
      "Ġpol": 878,
      "ublic": 879,
      "Ġx": 880,
      "Ġ6": 881,
      "St": 882,
      "ines": 883,
      "Ġclass": 884,
      "Ġexp": 885,
      "Ġthen": 886,
      "Ġcould": 887,
      "ife": 888,
      "Ġmake": 889,
      "ec": 890,
      "par": 891,
      "yp": 892,
      "Ġsim": 893,
      "fore": 894,
      "Ġel": 895,
      "ting": 896,
      "ond": 897,
      "=\"": 898,
      "Ġwater": 899,
      "Ġcall": 900,
      "ident": 901,
      "Ġwell": 902,
      "ists": 903,
      "Ġnumber": 904,
      "chn": 905,
      "ts": 906,
      "Ġ/": 907,
      "read": 908,
      "Ġhealth": 909,
      "Ġeach": 910,
      "ins": 911,
      "Ġinv": 912,
      "Ġyears": 913,
      "(\"": 914,
      "Ġdifferent": 915,
      "aw": 916,
      "']": 917,
      "ade": 918,
      "ily": 919,
      "Ġjust": 920,
      "Ġlearn": 921,
      "Ġdist": 922,
      "')": 923,
      "Ġequ": 924,
      "Ġpers": 925,
      "ĠHe": 926,
      "gan": 927,
      "uch": 928,
      "els": 929,
      "ollow": 930,
      "ants": 931,
      "Ġhigh": 932,
      "Ġvari": 933,
      "Ġpres": 934,
      "ever": 935,
      "set": 936,
      "ience": 937,
      "ural": 938,
      "ethod": 939,
      "Ġher": 940,
      "Ġ&": 941,
      "Ġ200": 942,
      "eng": 943,
      "Ġcre": 944,
      "Ġeven": 945,
      "Ġdet": 946,
      "Th": 947,
      "ature": 948,
      "Ġsee": 949,
      "Ġcur": 950,
      "Ġrese": 951,
      "ute": 952,
      "->": 953,
      "Ġexper": 954,
      "uc": 955,
      "ages": 956,
      "Ġlong": 957,
      "Ġsign": 958,
      "formation": 959,
      "mod": 960,
      "oci": 961,
      "chool": 962,
      "other": 963,
      "ology": 964,
      "ror": 965,
      "Ġevery": 966,
      "Ġbecause": 967,
      "Ġfind": 968,
      "Ġfound": 969,
      "aking": 970,
      "ĠIf": 971,
      "gy": 972,
      "li": 973,
      "Ġsol": 974,
      "Ġref": 975,
      "ices": 976,
      "Ġend": 977,
      "ection": 978,
      "ually": 979,
      "Ġway": 980,
      "Ġworld": 981,
      "Ġext": 982,
      "Ġcount": 983,
      "ER": 984,
      "ull": 985,
      "ĠPro": 986,
      "ited": 987,
      "imes": 988,
      "Ġed": 989,
      "Ġconst": 990,
      "Ġdisc": 991,
      "cent": 992,
      "oy": 993,
      "Ġgener": 994,
      "ns": 995,
      "ness": 996,
      "ives": 997,
      "Ġfact": 998,
      "Ġafter": 999,
      "Ġstr": 1000,
      "Ġ\"\"\"": 1001,
      "ically": 1002,
      "rue": 1003,
      "ning": 1004,
      "ands": 1005,
      "Ġbel": 1006,
      "meric": 1007,
      "def": 1008,
      "Ġcent": 1009,
      "Ġusing": 1010,
      "Ġprog": 1011,
      "Ġmed": 1012,
      "Ġfollow": 1013,
      "to": 1014,
      "Ġexpl": 1015,
      "Ġent": 1016,
      "ule": 1017,
      "Ġ10": 1018,
      "add": 1019,
      "ĠWe": 1020,
      "Ġgra": 1021,
      "ody": 1022,
      "Ġincre": 1023,
      "['": 1024,
      "Ġprocess": 1025,
      "Ġche": 1026,
      "Ġeffect": 1027,
      "Ġpat": 1028,
      "Ġproble": 1029,
      "Ġread": 1030,
      "stand": 1031,
      "Ġright": 1032,
      "Ġdoes": 1033,
      "Ġloc": 1034,
      "Ġthose": 1035,
      "inal": 1036,
      "Ġdec": 1037,
      "Ġ7": 1038,
      "ism": 1039,
      "ty": 1040,
      "arm": 1041,
      "Ġmy": 1042,
      "uth": 1043,
      "Ġsaid": 1044,
      "Ġback": 1045,
      "'t": 1046,
      "ases": 1047,
      "led": 1048,
      "ward": 1049,
      "iron": 1050,
      "rent": 1051,
      "ption": 1052,
      "Ġtechn": 1053,
      "000": 1054,
      "Ġhum": 1055,
      "Ġ:": 1056,
      "Ġsame": 1057,
      "ource": 1058,
      "Ġmin": 1059,
      "Ġvery": 1060,
      "oid": 1061,
      "ized": 1062,
      "app": 1063,
      "Ġ8": 1064,
      "Ġ.": 1065,
      "</": 1066,
      "the": 1067,
      "ug": 1068,
      "Ġsk": 1069,
      "Ġfunction": 1070,
      "cer": 1071,
      "Ġ==": 1072,
      "Ġpoint": 1073,
      "._": 1074,
      "Ġins": 1075,
      "ense": 1076,
      "ety": 1077,
      "ds": 1078,
      "Ġshe": 1079,
      "ential": 1080,
      "ator": 1081,
      "ĠCom": 1082,
      "pr": 1083,
      "Ġcommun": 1084,
      "Ġresp": 1085,
      "Ġstudents": 1086,
      "ved": 1087,
      "ĠAmeric": 1088,
      "Ġcomple": 1089,
      "Ġear": 1090,
      "nce": 1091,
      "Ġ18": 1092,
      "sh": 1093,
      "ĠFor": 1094,
      "Ġconf": 1095,
      "io": 1096,
      "Ġpartic": 1097,
      "Ġwhile": 1098,
      "Ġmat": 1099,
      "IN": 1100,
      "Ġca": 1101,
      "ving": 1102,
      "Ġart": 1103,
      "10": 1104,
      "Ġcar": 1105,
      "Ġbeing": 1106,
      "Ġcor": 1107,
      "rop": 1108,
      "ON": 1109,
      "ĠHow": 1110,
      "Ġmuch": 1111,
      "Ġduring": 1112,
      "Ġinformation": 1113,
      "irect": 1114,
      "Ġ%": 1115,
      "Ġdep": 1116,
      "Ġgroup": 1117,
      "ined": 1118,
      "ĠAl": 1119,
      "Ġstart": 1120,
      "Ġboth": 1121,
      "],": 1122,
      "...": 1123,
      "Ġmon": 1124,
      "Ġgl": 1125,
      "Ġown": 1126,
      "tle": 1127,
      "Ġlook": 1128,
      "any": 1129,
      "ĠRe": 1130,
      "Ġvalue": 1131,
      "Ġlife": 1132,
      "Ġchildren": 1133,
      "ted": 1134,
      "Ġimportant": 1135,
      "Ġlead": 1136,
      "Ġlevel": 1137,
      "Ġshow": 1138,
      "Ġstate": 1139,
      "Ġfam": 1140,
      "Ġname": 1141,
      "ather": 1142,
      "ivid": 1143,
      "sc": 1144,
      "ale": 1145,
      "bers": 1146,
      "from": 1147,
      "ave": 1148,
      "ivers": 1149,
      "der": 1150,
      "Ġav": 1151,
      "viron": 1152,
      "Ġ9": 1153,
      "ĠThey": 1154,
      "und": 1155,
      "atic": 1156,
      "tt": 1157,
      "lo": 1158,
      "work": 1159,
      "ĠEx": 1160,
      "Ġbefore": 1161,
      "Ġpar": 1162,
      "Ġgrow": 1163,
      "ince": 1164,
      "ĠAs": 1165,
      "Ġperson": 1166,
      "Ġhist": 1167,
      "Ġimp": 1168,
      ".âĢĿ": 1169,
      "over": 1170,
      "Ġfood": 1171,
      "Ġsmall": 1172,
      "ality": 1173,
      "ired": 1174,
      "Ġstudy": 1175,
      "Ġpublic": 1176,
      "Ġrep": 1177,
      "Ġmain": 1178,
      "ify": 1179,
      "Ġser": 1180,
      "dition": 1181,
      "Ġexample": 1182,
      "Ġless": 1183,
      "line": 1184,
      "iven": 1185,
      "Ġmade": 1186,
      "akes": 1187,
      "ves": 1188,
      "ner": 1189,
      "ets": 1190,
      "air": 1191,
      "ash": 1192,
      "Ġgood": 1193,
      "ĠAn": 1194,
      "rol": 1195,
      "Ġop": 1196,
      "Ġschool": 1197,
      "gg": 1198,
      "Ġmust": 1199,
      "Ġnow": 1200,
      "ray": 1201,
      "Ġprovid": 1202,
      "Ġtake": 1203,
      "AT": 1204,
      "ĠYou": 1205,
      "ĠAr": 1206,
      "Ġmem": 1207,
      "Ġbre": 1208,
      "tr": 1209,
      "Ġdown": 1210,
      "Ġpower": 1211,
      "iqu": 1212,
      "Ġposs": 1213,
      "Ġpop": 1214,
      "arge": 1215,
      "ven": 1216,
      "19": 1217,
      "Ġprot": 1218,
      "ters": 1219,
      "Ġprogram": 1220,
      "Ġserv": 1221,
      "Ġunderstand": 1222,
      "ien": 1223,
      "Ġ_": 1224,
      "Ġvis": 1225,
      "ox": 1226,
      "This": 1227,
      "Ġaround": 1228,
      "ĠSe": 1229,
      "alse": 1230,
      "type": 1231,
      "Ġquest": 1232,
      "Ġ20": 1233,
      "Ġoften": 1234,
      "ron": 1235,
      "class": 1236,
      "assert": 1237,
      "Ġday": 1238,
      "Ġcontin": 1239,
      "Ġagain": 1240,
      "Ġpass": 1241,
      "uss": 1242,
      "Ġlit": 1243,
      ".\"": 1244,
      "sp": 1245,
      "ished": 1246,
      "Ġsupport": 1247,
      "ains": 1248,
      "day": 1249,
      "20": 1250,
      "hip": 1251,
      "Ġtype": 1252,
      "arent": 1253,
      "ĠĠ": 1254,
      "vironment": 1255,
      "Ġallow": 1256,
      "itions": 1257,
      "Ġcalled": 1258,
      "Ġlist": 1259,
      "Ġactiv": 1260,
      "Ġdesign": 1261,
      "ES": 1262,
      "cul": 1263,
      "Ġap": 1264,
      "Ġthree": 1265,
      "Ġsom": 1266,
      "Ġmet": 1267,
      "Ġelse": 1268,
      "âĢ¢": 1269,
      "ĠQ": 1270,
      "Ġbuild": 1271,
      "Ġplan": 1272,
      "land": 1273,
      "ross": 1274,
      "Ġbody": 1275,
      "Ġi": 1276,
      "Ġtreat": 1277,
      "Ġcle": 1278,
      "ral": 1279,
      "path": 1280,
      "ared": 1281,
      "ank": 1282,
      "12": 1283,
      "omen": 1284,
      "Ġwrit": 1285,
      "Ġresearch": 1286,
      "||": 1287,
      "ider": 1288,
      "Ġris": 1289,
      "ead": 1290,
      "ault": 1291,
      "right": 1292,
      "hers": 1293,
      "ĠInd": 1294,
      "Ġcommon": 1295,
      "Ġredu": 1296,
      "//": 1297,
      "ames": 1298,
      "cond": 1299,
      "oss": 1300,
      "Ġline": 1301,
      "Ġocc": 1302,
      "min": 1303,
      "AR": 1304,
      "Ġmethod": 1305,
      "ional": 1306,
      "ĠBut": 1307,
      "ware": 1308,
      "ital": 1309,
      "Ġorgan": 1310,
      "Ġer": 1311,
      "Ġmight": 1312,
      "Ġobject": 1313,
      "anc": 1314,
      "Ġcare": 1315,
      "Ġtem": 1316,
      "Ġpract": 1317,
      "ĠNew": 1318,
      "Ġthink": 1319,
      "Ġdid": 1320,
      "cont": 1321,
      "Ġest": 1322,
      "ery": 1323,
      "Ġgu": 1324,
      "Ġdise": 1325,
      "raph": 1326,
      "ources": 1327,
      "Ġelect": 1328,
      "ability": 1329,
      "Ġwant": 1330,
      "itive": 1331,
      "Ġcour": 1332,
      "Ġcell": 1333,
      "âĢĶ": 1334,
      "mon": 1335,
      "ret": 1336,
      "ĠSc": 1337,
      "``": 1338,
      "requ": 1339,
      "ergy": 1340,
      "ization": 1341,
      "It": 1342,
      "Ex": 1343,
      "oh": 1344,
      "Ġcal": 1345,
      "rain": 1346,
      "ocial": 1347,
      "Ġ@": 1348,
      "ĠNone": 1349,
      "Ġgover": 1350,
      "Ġwithin": 1351,
      "Ġplay": 1352,
      "not": 1353,
      "ier": 1354,
      "rac": 1355,
      "pos": 1356,
      "ries": 1357,
      "Ġhuman": 1358,
      "data": 1359,
      "**": 1360,
      "view": 1361,
      "ah": 1362,
      "ument": 1363,
      "Ġadv": 1364,
      "ask": 1365,
      "way": 1366,
      "Ġchange": 1367,
      "atch": 1368,
      "ton": 1369,
      "amp": 1370,
      "\")": 1371,
      "import": 1372,
      "Ġtyp": 1373,
      "Ġhand": 1374,
      "ccess": 1375,
      "Ġappro": 1376,
      "angu": 1377,
      "Ġdon": 1378,
      "True": 1379,
      "Ġinc": 1380,
      "iversity": 1381,
      "hem": 1382,
      "Ġchang": 1383,
      "aterial": 1384,
      "ffic": 1385,
      "Ġtry": 1386,
      "ividual": 1387,
      "Ġincluding": 1388,
      "ered": 1389,
      "Ġthough": 1390,
      "ately": 1391,
      "dd": 1392,
      "Ġeas": 1393,
      "acter": 1394,
      "Ġele": 1395,
      "ĠCon": 1396,
      "Ġdesc": 1397,
      "ĠAnd": 1398,
      "test": 1399,
      "Ġwithout": 1400,
      "Ġreport": 1401,
      "ouse": 1402,
      "Ġfield": 1403,
      ".,": 1404,
      "file": 1405,
      "aj": 1406,
      "Ġgre": 1407,
      "ulation": 1408,
      "erest": 1409,
      "ering": 1410,
      "OR": 1411,
      "str": 1412,
      "Ġbeh": 1413,
      "of": 1414,
      "Ġproject": 1415,
      "nect": 1416,
      "Ġident": 1417,
      "ĠThese": 1418,
      "ury": 1419,
      "less": 1420,
      "bs": 1421,
      "Ġenergy": 1422,
      "Ġproduct": 1423,
      "ote": 1424,
      "Ġsym": 1425,
      "ision": 1426,
      "Ġeng": 1427,
      "Ġchar": 1428,
      "ĠWh": 1429,
      "ified": 1430,
      "Ġcurrent": 1431,
      "Ġdirect": 1432,
      "ĠThere": 1433,
      "ples": 1434,
      "\">": 1435,
      "Ġstill": 1436,
      "Ġknown": 1437,
      ",âĢĿ": 1438,
      "Ġmeas": 1439,
      "ination": 1440,
      "Ġide": 1441,
      "Ġdev": 1442,
      "Ġmult": 1443,
      "ids": 1444,
      "EN": 1445,
      "Ġfil": 1446,
      "py": 1447,
      "Ġplace": 1448,
      "Ġgreat": 1449,
      "Ġgovern": 1450,
      "Ġspe": 1451,
      "man": 1452,
      "Ġhim": 1453,
      "fo": 1454,
      "ribut": 1455,
      "ole": 1456,
      "ember": 1457,
      "Ġreal": 1458,
      "Ġeduc": 1459,
      "Ġbook": 1460,
      "Ġpot": 1461,
      "Ġgiven": 1462,
      "Ġoper": 1463,
      "Ġindividual": 1464,
      "Ġarea": 1465,
      "Ġproper": 1466,
      "alk": 1467,
      "ats": 1468,
      "ength": 1469,
      "IT": 1470,
      "Ġ12": 1471,
      "Ġpri": 1472,
      "Ġanother": 1473,
      "ason": 1474,
      "conom": 1475,
      "ium": 1476,
      "oms": 1477,
      "Ġkey": 1478,
      "Ġtop": 1479,
      "ration": 1480,
      "Ġcase": 1481,
      "rite": 1482,
      "for": 1483,
      "iod": 1484,
      "Ġiss": 1485,
      "olum": 1486,
      "agn": 1487,
      "cle": 1488,
      "='": 1489,
      "sy": 1490,
      "here": 1491,
      "Ġenvironment": 1492,
      "iving": 1493,
      "AS": 1494,
      "11": 1495,
      "ively": 1496,
      "Ġz": 1497,
      "gs": 1498,
      "orn": 1499,
      "50": 1500,
      "Ġmark": 1501,
      "Ch": 1502,
      "by": 1503,
      "Ġstand": 1504,
      "ertain": 1505,
      "\":": 1506,
      "sw": 1507,
      "Ġ>": 1508,
      "ape": 1509,
      "}{": 1510,
      "###": 1511,
      "ĠDe": 1512,
      "face": 1513,
      "ording": 1514,
      "Ġlight": 1515,
      "lish": 1516,
      "Ġmaterial": 1517,
      "Ġve": 1518,
      "ways": 1519,
      "ern": 1520,
      "Ġfew": 1521,
      "Ġlet": 1522,
      "Ġmean": 1523,
      "Ġhere": 1524,
      "bl": 1525,
      "ining": 1526,
      "âĢľ": 1527,
      "Ġlast": 1528,
      "Ġinclude": 1529,
      "ially": 1530,
      "param": 1531,
      "Ġimpro": 1532,
      "opy": 1533,
      "Ġcult": 1534,
      "ĠIs": 1535,
      "Ġphys": 1536,
      "Ġcap": 1537,
      "ior": 1538,
      "inc": 1539,
      "Ġsl": 1540,
      "az": 1541,
      "Ġpresent": 1542,
      "qual": 1543,
      "Ġpur": 1544,
      "Ġrun": 1545,
      "gen": 1546,
      "outh": 1547,
      "ĠRes": 1548,
      "be": 1549,
      "xt": 1550,
      "Ġgen": 1551,
      "imate": 1552,
      "Ġdel": 1553,
      "Ġfollowing": 1554,
      "Ġanal": 1555,
      "ories": 1556,
      ",\"": 1557,
      "Ġinterest": 1558,
      "Ġorder": 1559,
      "iness": 1560,
      "Ġopen": 1561,
      "br": 1562,
      "Ġcreate": 1563,
      "onse": 1564,
      "Ġcaus": 1565,
      "Ġprof": 1566,
      "key": 1567,
      "Er": 1568,
      "Ġair": 1569,
      "$$": 1570,
      "Ġbo": 1571,
      "Ġbetter": 1572,
      "Ġhome": 1573,
      "cur": 1574,
      "Ġlarge": 1575,
      "Ġter": 1576,
      "ĠSh": 1577,
      "Ġsit": 1578,
      "Ġopp": 1579,
      "version": 1580,
      "Ġ)": 1581,
      "----": 1582,
      "resent": 1583,
      "Ġmeans": 1584,
      "Ġben": 1585,
      "Ġrest": 1586,
      "Ġgr": 1587,
      "erc": 1588,
      "Ġold": 1589,
      "ots": 1590,
      "Ġbest": 1591,
      "Ġproblem": 1592,
      "ĠWhat": 1593,
      "tain": 1594,
      "esc": 1595,
      "arc": 1596,
      "Ġlim": 1597,
      "Ġfin": 1598,
      "Ġpercent": 1599,
      "])": 1600,
      "Ġstruct": 1601,
      "ĠCl": 1602,
      "play": 1603,
      "Ġkeep": 1604,
      "32": 1605,
      "Ġmill": 1606,
      "Ġ|": 1607,
      "Ġbas": 1608,
      "Ġinvol": 1609,
      "oun": 1610,
      "ps": 1611,
      "Ġtoo": 1612,
      "Ġtri": 1613,
      "Ġmove": 1614,
      "We": 1615,
      "Ġsocial": 1616,
      "ems": 1617,
      "rem": 1618,
      "ID": 1619,
      "Ġimm": 1620,
      "ission": 1621,
      "ĠSo": 1622,
      "uthor": 1623,
      "ST": 1624,
      "ends": 1625,
      "ĠEng": 1626,
      "ression": 1627,
      "anguage": 1628,
      "Ġdevelopment": 1629,
      "Ġlog": 1630,
      "ental": 1631,
      "ser": 1632,
      "ailable": 1633,
      "ently": 1634,
      "ĠâĢĺ": 1635,
      "Ġhead": 1636,
      "ream": 1637,
      "ides": 1638,
      "Ġbecome": 1639,
      "Ġnon": 1640,
      "raw": 1641,
      "ients": 1642,
      "Ġperform": 1643,
      "Ġhapp": 1644,
      "Error": 1645,
      "atural": 1646,
      "ived": 1647,
      "Ġlaw": 1648,
      "Ġcreat": 1649,
      "ills": 1650,
      "Ġbr": 1651,
      "Ġpossible": 1652,
      "Ġorig": 1653,
      "uro": 1654,
      "ilar": 1655,
      "Ġlearning": 1656,
      "AL": 1657,
      "yn": 1658,
      "icle": 1659,
      "ances": 1660,
      "ĠAmerican": 1661,
      "yle": 1662,
      "essage": 1663,
      "ĠWhen": 1664,
      "AN": 1665,
      "Ġess": 1666,
      "Ġsever": 1667,
      "ĠUniversity": 1668,
      "eter": 1669,
      "Ġmus": 1670,
      "Ġfile": 1671,
      "Ġopt": 1672,
      "use": 1673,
      "Ġsay": 1674,
      "Ġcontrol": 1675,
      "Ġdisease": 1676,
      "Ġcir": 1677,
      "Ġsaf": 1678,
      "RE": 1679,
      "Pro": 1680,
      "Ġsecond": 1681,
      "Ġappe": 1682,
      "ĠHowever": 1683,
      "ym": 1684,
      "field": 1685,
      "Ġsignific": 1686,
      "Ġbeg": 1687,
      "duct": 1688,
      "mit": 1689,
      "Ġwomen": 1690,
      "olution": 1691,
      "ards": 1692,
      "Ġpain": 1693,
      "lished": 1694,
      "ref": 1695,
      "Ġpo": 1696,
      "Ġprovide": 1697,
      "Ġhistory": 1698,
      "Ġanim": 1699,
      "Ġtext": 1700,
      "If": 1701,
      "Ġrisk": 1702,
      "por": 1703,
      "arget": 1704,
      "Ġtimes": 1705,
      "ocus": 1706,
      "18": 1707,
      "ething": 1708,
      "16": 1709,
      "lu": 1710,
      "Ġ15": 1711,
      "frac": 1712,
      "Ġbased": 1713,
      "atus": 1714,
      "Ġlow": 1715,
      "Ġsince": 1716,
      "Ġpost": 1717,
      "Ġassert": 1718,
      "ajor": 1719,
      "ĠSp": 1720,
      "Ġblood": 1721,
      "ĠTo": 1722,
      "ĠAd": 1723,
      "list": 1724,
      "ological": 1725,
      "etwork": 1726,
      "back": 1727,
      "Ġaddition": 1728,
      "Ġmil": 1729,
      "Ġparticular": 1730,
      "ateg": 1731,
      "Ġlab": 1732,
      "orth": 1733,
      "ables": 1734,
      "To": 1735,
      "Ġthings": 1736,
      "Ġcost": 1737,
      "ĠPl": 1738,
      "ann": 1739,
      "date": 1740,
      "Ġaccess": 1741,
      "ication": 1742,
      "ek": 1743,
      "Ġturn": 1744,
      "Ġunt": 1745,
      "Ġfeel": 1746,
      "What": 1747,
      "ception": 1748,
      "Ġlo": 1749,
      "Ġexpect": 1750,
      "Ġ__": 1751,
      "Ġant": 1752,
      "aces": 1753,
      "Ġeconom": 1754,
      "reg": 1755,
      "Ġagainst": 1756,
      "Ġoccur": 1757,
      "Ġcho": 1758,
      "ither": 1759,
      "Ġfore": 1760,
      "fig": 1761,
      "Ġsays": 1762,
      "Ġbus": 1763,
      "ils": 1764,
      "ĠPh": 1765,
      "ique": 1766,
      "Ġearly": 1767,
      "args": 1768,
      "Ġview": 1769,
      "Ġseveral": 1770,
      "Ġfamily": 1771,
      "ope": 1772,
      "Ġsum": 1773,
      "Ġenc": 1774,
      "ians": 1775,
      "Ġothers": 1776,
      "uture": 1777,
      "ĠâĢĶ": 1778,
      "Ġscient": 1779,
      "ample": 1780,
      "Ġet": 1781,
      "Ġ199": 1782,
      "ograph": 1783,
      "Ġcr": 1784,
      "value": 1785,
      "Ġlocal": 1786,
      "osed": 1787,
      "Ġsomething": 1788,
      "Ġperiod": 1789,
      "Ġnear": 1790,
      "Ġproblems": 1791,
      "ane": 1792,
      "ogn": 1793,
      "Ġprint": 1794,
      "30": 1795,
      "Ġ16": 1796,
      "Ġ*/": 1797,
      "Ġavailable": 1798,
      "Ġable": 1799,
      "ript": 1800,
      "Ġtre": 1801,
      "Ġland": 1802,
      "Ġcause": 1803,
      "Ġaut": 1804,
      "Ġamong": 1805,
      "Ġsuccess": 1806,
      "Ġfour": 1807,
      "Ġhig": 1808,
      "ention": 1809,
      "ger": 1810,
      "Ġgovernment": 1811,
      "ml": 1812,
      "Ġsize": 1813,
      "Ġnext": 1814,
      "Ġprom": 1815,
      "Ġrece": 1816,
      "Ġbenef": 1817,
      "As": 1818,
      "Ġaffect": 1819,
      "ploy": 1820,
      "Ġalong": 1821,
      "Ġcond": 1822,
      "Ġcomput": 1823,
      "Ġlik": 1824,
      "Ġfr": 1825,
      "Ġspecific": 1826,
      "idd": 1827,
      "Ġbi": 1828,
      "ending": 1829,
      "Ġrad": 1830,
      "Ġpath": 1831,
      "new": 1832,
      "idence": 1833,
      "Ġcourse": 1834,
      "db": 1835,
      "ĠZ": 1836,
      "ised": 1837,
      "Ġcontain": 1838,
      "LE": 1839,
      "Ġdeterm": 1840,
      "verse": 1841,
      "Ġparent": 1842,
      "urther": 1843,
      "Ġleg": 1844,
      "ended": 1845,
      "aster": 1846,
      "Ġareas": 1847,
      "15": 1848,
      "Ġamount": 1849,
      "aper": 1850,
      "Ġmajor": 1851,
      "ĠCan": 1852,
      "Ġcome": 1853,
      "Ġput": 1854,
      "Ġfree": 1855,
      "Ġpress": 1856,
      "vert": 1857,
      "Ġresults": 1858,
      "Ġsw": 1859,
      "dis": 1860,
      "Ġhard": 1861,
      "cing": 1862,
      "ieve": 1863,
      "Ġmonth": 1864,
      "âĢĵ": 1865,
      "rist": 1866,
      "Ġtoget": 1867,
      "Ġcertain": 1868,
      "ĠX": 1869,
      "Ġtogether": 1870,
      "module": 1871,
      "Ġmaking": 1872,
      "obal": 1873,
      "For": 1874,
      "Ġstep": 1875,
      "Ġdue": 1876,
      "Ġpotential": 1877,
      "ortun": 1878,
      "ators": 1879,
      "ĠUnited": 1880,
      "ush": 1881,
      "25": 1882,
      "Ġnumbers": 1883,
      "text": 1884,
      "Ġalways": 1885,
      "Ġlarg": 1886,
      "Ġarg": 1887,
      "Ġvarious": 1888,
      "Ġapplic": 1889,
      "IC": 1890,
      "SE": 1891,
      "lection": 1892,
      "aps": 1893,
      "Ġ17": 1894,
      "Ġspace": 1895,
      "Ġsignificant": 1896,
      "inter": 1897,
      "Ġcomb": 1898,
      "Ġconsider": 1899,
      "Ġfocus": 1900,
      "Ġrange": 1901,
      "Ġprotect": 1902,
      "Ġintern": 1903,
      "af": 1904,
      "Ġmen": 1905,
      "Ġplant": 1906,
      "ina": 1907,
      "serv": 1908,
      "Ġmodel": 1909,
      "Ġ`": 1910,
      "Ġflow": 1911,
      "Ġfac": 1912,
      "ik": 1913,
      "ĠBy": 1914,
      "ĠLe": 1915,
      "Ġur": 1916,
      "Ġprevent": 1917,
      "Ġleft": 1918,
      "oring": 1919,
      "Ġabove": 1920,
      "osp": 1921,
      "Ġwhy": 1922,
      "ling": 1923,
      "rect": 1924,
      "ww": 1925,
      "ones": 1926,
      "vious": 1927,
      "Re": 1928,
      "Con": 1929,
      "Ġassoci": 1930,
      "Ġimpact": 1931,
      "omet": 1932,
      "ĠOr": 1933,
      "Ġansw": 1934,
      "Ġconnect": 1935,
      "Ġnatural": 1936,
      "Ġexist": 1937,
      "Ġsing": 1938,
      "Ġlanguage": 1939,
      "Ġuntil": 1940,
      "Ġdri": 1941,
      "Ġworks": 1942,
      "ably": 1943,
      "ey": 1944,
      "son": 1945,
      "Ġspecies": 1946,
      "Ġshort": 1947,
      "Ġbro": 1948,
      "ored": 1949,
      "agement": 1950,
      "Ġcheck": 1951,
      "roll": 1952,
      "heck": 1953,
      "user": 1954,
      "Ġsystems": 1955,
      "Ġchall": 1956,
      "Ġrepresent": 1957,
      "init": 1958,
      "ured": 1959,
      "Ġcountry": 1960,
      "Ġlittle": 1961,
      "Ġside": 1962,
      "Ġinit": 1963,
      "though": 1964,
      "struct": 1965,
      "ĠAt": 1966,
      "Ġtreatment": 1967,
      "log": 1968,
      "ird": 1969,
      "ilities": 1970,
      "load": 1971,
      "14": 1972,
      "etic": 1973,
      "Ġinvest": 1974,
      "Ġage": 1975,
      "An": 1976,
      "Ġtool": 1977,
      "rag": 1978,
      "Ġfar": 1979,
      "rel": 1980,
      "ours": 1981,
      "Ġinteg": 1982,
      "co": 1983,
      "Ġask": 1984,
      "Ġrele": 1985,
      "Ġlater": 1986,
      "Ġmov": 1987,
      "let": 1988,
      "Ġacross": 1989,
      "Ġcrit": 1990,
      "bu": 1991,
      "ribute": 1992,
      "Ġvir": 1993,
      "time": 1994,
      "ĠAll": 1995,
      "Ġlevels": 1996,
      "icense": 1997,
      "Ġdig": 1998,
      "stit": 1999,
      "Ġspecial": 2000,
      "icult": 2001,
      "Ġquestion": 2002,
      "Ġdiscuss": 2003,
      "erence": 2004,
      "ession": 2005,
      "Ġ//": 2006,
      "Ġevent": 2007,
      "aring": 2008,
      "Ġdays": 2009,
      "ormal": 2010,
      "Ġtrue": 2011,
      "Equal": 2012,
      "Ġens": 2013,
      "stance": 2014,
      "There": 2015,
      "Ġyoung": 2016,
      "ĠStates": 2017,
      "col": 2018,
      "ĠCol": 2019,
      "ency": 2020,
      "ache": 2021,
      "How": 2022,
      "Ġsimilar": 2023,
      "Ġrecord": 2024,
      "rodu": 2025,
      "Com": 2026,
      "Ġways": 2027,
      "Ġvalues": 2028,
      "Ġwar": 2029,
      "ĠCent": 2030,
      "Ġtoday": 2031,
      "asing": 2032,
      "Ġbehav": 2033,
      "Ġgive": 2034,
      "une": 2035,
      "();": 2036,
      "ledge": 2037,
      "ĠIm": 2038,
      "Ġindust": 2039,
      "fil": 2040,
      "orld": 2041,
      "Ġfuture": 2042,
      "ma": 2043,
      "ee": 2044,
      "Ġsugg": 2045,
      "Ġsuggest": 2046,
      "hy": 2047,
      "Ġtechnology": 2048,
      "lab": 2049,
      "Ġheart": 2050,
      "Ġconditions": 2051,
      "Ġterm": 2052,
      "Ġuser": 2053,
      "Ġprob": 2054,
      "Ġwords": 2055,
      "Ġ14": 2056,
      "eral": 2057,
      "side": 2058,
      "ĠOn": 2059,
      "ĠTe": 2060,
      "code": 2061,
      "Type": 2062,
      "iple": 2063,
      "action": 2064,
      "urope": 2065,
      "Ġ('": 2066,
      "Ġrequire": 2067,
      "64": 2068,
      "iting": 2069,
      "Ġ100": 2070,
      "AC": 2071,
      "Ġpast": 2072,
      "Ġneeds": 2073,
      "Ġcommunity": 2074,
      "atory": 2075,
      "ĠGod": 2076,
      "ires": 2077,
      "thing": 2078,
      "ĠFr": 2079,
      "Ġcells": 2080,
      "ystem": 2081,
      "Ġsource": 2082,
      "\"\"\"": 2083,
      "ler": 2084,
      "Ġtot": 2085,
      "13": 2086,
      "Ġcalcul": 2087,
      "Ġbegin": 2088,
      "Ġtemper": 2089,
      "Ġ30": 2090,
      "opt": 2091,
      "Ġrequired": 2092,
      "Ġclear": 2093,
      "Ġchanges": 2094,
      "Ġworking": 2095,
      "Ġrelations": 2096,
      "Ġpub": 2097,
      "ready": 2098,
      "ĠNational": 2099,
      "Ġes": 2100,
      "atures": 2101,
      "ctor": 2102,
      "ises": 2103,
      "Ġteac": 2104,
      "Ġconsum": 2105,
      "ĠUS": 2106,
      "Ġeither": 2107,
      "aken": 2108,
      "ĠThat": 2109,
      "Ġtypes": 2110,
      "aut": 2111,
      "Ġfull": 2112,
      "acy": 2113,
      "ĠAf": 2114,
      "Ġsoci": 2115,
      "Ġeducation": 2116,
      "oot": 2117,
      "Ġâ": 2118,
      "ysis": 2119,
      "Ġmar": 2120,
      "mand": 2121,
      "Ġnecess": 2122,
      "Ġaddress": 2123,
      "Ġlikely": 2124,
      "Ġgoing": 2125,
      "Ġleast": 2126,
      "Ġsure": 2127,
      "{\\": 2128,
      "Ġkind": 2129,
      "place": 2130,
      "Ġill": 2131,
      "Ġcharacter": 2132,
      "Ġmot": 2133,
      "icy": 2134,
      "icro": 2135,
      "Ġteam": 2136,
      "sel": 2137,
      "ription": 2138,
      "Ġwhether": 2139,
      "ibr": 2140,
      "17": 2141,
      "Ġ!": 2142,
      "Ġbreak": 2143,
      "Ġusually": 2144,
      "Ġincrease": 2145,
      "ruction": 2146,
      "Ġfri": 2147,
      "Ġdr": 2148,
      "Ġexperience": 2149,
      "most": 2150,
      "plic": 2151,
      "Ġrespons": 2152,
      "Ġhy": 2153,
      "Ġpolit": 2154,
      "Ġport": 2155,
      "Ġdescrib": 2156,
      "Ġcomplex": 2157,
      "ott": 2158,
      "verage": 2159,
      "Ġdoc": 2160,
      "ification": 2161,
      "iation": 2162,
      "empt": 2163,
      "Ġrole": 2164,
      "order": 2165,
      "DE": 2166,
      "Ġauthor": 2167,
      "Ġenough": 2168,
      "Field": 2169,
      "Ġresearc": 2170,
      "istic": 2171,
      "alf": 2172,
      "Ġbusiness": 2173,
      "Ġfail": 2174,
      "Ġey": 2175,
      "Ġstrong": 2176,
      "Ġquestions": 2177,
      "ivity": 2178,
      "Ġexcept": 2179,
      "ĠEurope": 2180,
      "Al": 2181,
      "Ġbig": 2182,
      "clus": 2183,
      "Ġsqu": 2184,
      "Cl": 2185,
      "Ġmillion": 2186,
      "rec": 2187,
      "Ġcy": 2188,
      "Ġtoward": 2189,
      "Ġdifficult": 2190,
      "apt": 2191,
      "oney": 2192,
      "ights": 2193,
      "aves": 2194,
      "Ġbelow": 2195,
      "Ġaway": 2196,
      "Ġns": 2197,
      "inary": 2198,
      "Ġcancer": 2199,
      "ĠEar": 2200,
      "Ġmakes": 2201,
      "Ġsuper": 2202,
      "ibility": 2203,
      "Ġunderstanding": 2204,
      "Res": 2205,
      "ales": 2206,
      "ttp": 2207,
      "Ġdeg": 2208,
      "pecially": 2209,
      "ĠChrist": 2210,
      "org": 2211,
      "ister": 2212,
      "Ġhigher": 2213,
      "Ġimprove": 2214,
      "Ġprim": 2215,
      "selves": 2216,
      "ĠOne": 2217,
      "ctions": 2218,
      "Cont": 2219,
      "Ġaccount": 2220,
      "Ġhaving": 2221,
      "itle": 2222,
      "head": 2223,
      "ele": 2224,
      "ips": 2225,
      "Test": 2226,
      "Ġpriv": 2227,
      "ĠWith": 2228,
      "Ġsimple": 2229,
      "ĠEn": 2230,
      "Ġpred": 2231,
      "Ġneg": 2232,
      "Ġpopulation": 2233,
      "Ġalready": 2234,
      "Ġmass": 2235,
      "Ġdam": 2236,
      "ules": 2237,
      "Ġ$$": 2238,
      "None": 2239,
      "object": 2240,
      "assertEqual": 2241,
      "Ġresources": 2242,
      "Ġremain": 2243,
      "Ġdetail": 2244,
      "Ġbrain": 2245,
      "Ġsoft": 2246,
      "omes": 2247,
      "unt": 2248,
      "ĠCal": 2249,
      "Ġparam": 2250,
      "Ġwind": 2251,
      "Ġnever": 2252,
      "ED": 2253,
      "Ġsens": 2254,
      "Ġ{'": 2255,
      "80": 2256,
      "ening": 2257,
      "ging": 2258,
      "ĠMed": 2259,
      "Ġ11": 2260,
      "my": 2261,
      "ĠSome": 2262,
      "Ġge": 2263,
      "}}": 2264,
      "ION": 2265,
      "Ġdeath": 2266,
      "Ġsingle": 2267,
      "info": 2268,
      "40": 2269,
      "].": 2270,
      "IS": 2271,
      "Ġresponse": 2272,
      "Ġrate": 2273,
      "aching": 2274,
      "utions": 2275,
      "rict": 2276,
      "Ġcountries": 2277,
      "Ġdone": 2278,
      "Ġut": 2279,
      "Ġreally": 2280,
      "word": 2281,
      "ptoms": 2282,
      "ilt": 2283,
      "att": 2284,
      "alue": 2285,
      "Ġplants": 2286,
      "ĠBe": 2287,
      "Ġtarget": 2288,
      "plement": 2289,
      "ET": 2290,
      "ounds": 2291,
      "Ġestab": 2292,
      "Ġconcept": 2293,
      "Name": 2294,
      "AM": 2295,
      "Ġtotal": 2296,
      "acc": 2297,
      "fficient": 2298,
      "UT": 2299,
      "Ġgroups": 2300,
      "Ġcases": 2301,
      "Ġ,": 2302,
      "22": 2303,
      "size": 2304,
      "oin": 2305,
      "Ġ13": 2306,
      "Ġgeneral": 2307,
      "ĠAfric": 2308,
      "60": 2309,
      "Ġlower": 2310,
      "Ġword": 2311,
      "Ġstory": 2312,
      "ising": 2313,
      "lam": 2314,
      "Ġreason": 2315,
      "mp": 2316,
      "ison": 2317,
      "Ġcollect": 2318,
      "Ġground": 2319,
      "rad": 2320,
      "://": 2321,
      "Ġchem": 2322,
      "ued": 2323,
      "iction": 2324,
      "ief": 2325,
      "izing": 2326,
      "Ġabs": 2327,
      "ipp": 2328,
      "Ġinflu": 2329,
      "Ġhowever": 2330,
      "Ġeff": 2331,
      "Ġred": 2332,
      "Ġvol": 2333,
      "Ġ25": 2334,
      "Ġmind": 2335,
      "bol": 2336,
      "fun": 2337,
      "Ġdom": 2338,
      "Ġscience": 2339,
      "Ġfurther": 2340,
      "aim": 2341,
      "RO": 2342,
      "Ġsubject": 2343,
      "Ġskills": 2344,
      "num": 2345,
      "201": 2346,
      "bo": 2347,
      "aging": 2348,
      "Ġcentury": 2349,
      "ites": 2350,
      "method": 2351,
      "Ġconcer": 2352,
      "fact": 2353,
      "Ġknowledge": 2354,
      "lying": 2355,
      "Ġphysical": 2356,
      "epend": 2357,
      "met": 2358,
      "Ġterms": 2359,
      "med": 2360,
      "Ġfund": 2361,
      "ĠAss": 2362,
      "Ġespecially": 2363,
      "Ġcontext": 2364,
      "Ġcontent": 2365,
      "Ġgrowth": 2366,
      "UL": 2367,
      "Ġlay": 2368,
      "earch": 2369,
      "eds": 2370,
      "Ġcreated": 2371,
      "ta": 2372,
      "Ġang": 2373,
      "ĠCont": 2374,
      "ags": 2375,
      "200": 2376,
      "Ġpatients": 2377,
      "Ġrelationship": 2378,
      "dir": 2379,
      "Ġindic": 2380,
      "ĠLicense": 2381,
      "Ġdest": 2382,
      "Ġsurface": 2383,
      "Ġeffects": 2384,
      "Ġraise": 2385,
      "Ġmax": 2386,
      "ĠQu": 2387,
      "Ġpaper": 2388,
      "Ġexc": 2389,
      "raft": 2390,
      "Ġdiv": 2391,
      "Ġaction": 2392,
      "state": 2393,
      "dev": 2394,
      "upp": 2395,
      "itud": 2396,
      "Ġexperien": 2397,
      "Ġbir": 2398,
      "Ġpay": 2399,
      "resp": 2400,
      "Ġmeasure": 2401,
      "ĠTrue": 2402,
      "Ġtell": 2403,
      "ump": 2404,
      "ĠBl": 2405,
      "apter": 2406,
      "iver": 2407,
      "When": 2408,
      "ustom": 2409,
      "Ġissues": 2410,
      "Ġeffort": 2411,
      "Ġglobal": 2412,
      "Ġcolor": 2413,
      "overed": 2414,
      "olume": 2415,
      "tml": 2416,
      "uation": 2417,
      "Ġonce": 2418,
      "Ġfall": 2419,
      "Ġactivities": 2420,
      "Ġanswer": 2421,
      "eb": 2422,
      "Ġhold": 2423,
      "ango": 2424,
      "Ġessential": 2425,
      "ĠTr": 2426,
      "ĠJoh": 2427,
      "Ġinstance": 2428,
      "Ġemploy": 2429,
      "Ġaccording": 2430,
      "Ġfactors": 2431,
      "Ġlot": 2432,
      "Ġtradition": 2433,
      "Ġbuilding": 2434,
      "Ġfrequ": 2435,
      "Ġpattern": 2436,
      "Ġresearchers": 2437,
      "Ġach": 2438,
      "Ġlength": 2439,
      "Ġneeded": 2440,
      "append": 2441,
      "nal": 2442,
      "leep": 2443,
      "itor": 2444,
      "wh": 2445,
      "ged": 2446,
      "But": 2447,
      "Ġrecogn": 2448,
      "Ġrequest": 2449,
      "Ġ...": 2450,
      "return": 2451,
      "Ġcut": 2452,
      "Ġpoints": 2453,
      "Ġseen": 2454,
      "_{": 2455,
      "'),": 2456,
      "Ġcode": 2457,
      "Ġphot": 2458,
      "You": 2459,
      "left": 2460,
      "Ġloss": 2461,
      "hern": 2462,
      "Ġopportun": 2463,
      "Ġversion": 2464,
      "ĠBrit": 2465,
      "sub": 2466,
      "ev": 2467,
      "fer": 2468,
      "Ġcity": 2469,
      "ĠWorld": 2470,
      "Ġfig": 2471,
      "24": 2472,
      "Ġhouse": 2473,
      "config": 2474,
      "Ġproducts": 2475,
      "asc": 2476,
      "Ġrather": 2477,
      "bon": 2478,
      "Ġimage": 2479,
      "Ġstudies": 2480,
      "rap": 2481,
      "augh": 2482,
      "Ġbecame": 2483,
      "tings": 2484,
      "uments": 2485,
      "ley": 2486,
      "Ġactually": 2487,
      "Ġpractice": 2488,
      "Ġ--": 2489,
      "Ġassociated": 2490,
      "Ġflu": 2491,
      "Ġsymptoms": 2492,
      "Ġengine": 2493,
      "Id": 2494,
      "illed": 2495,
      "Ġfive": 2496,
      "Ġsite": 2497,
      "Ġquality": 2498,
      "ties": 2499,
      "Ġnut": 2500,
      "sych": 2501,
      "CT": 2502,
      "Ġwhole": 2503,
      "Ġsun": 2504,
      "ĠStud": 2505,
      "len": 2506,
      "Ġparticip": 2507,
      "Ġos": 2508,
      "nection": 2509,
      "^{": 2510,
      "Ġactivity": 2511,
      "ches": 2512,
      "==": 2513,
      "ae": 2514,
      "Ġhistor": 2515,
      "Ġjob": 2516,
      "ĠShe": 2517,
      "group": 2518,
      "../": 2519,
      "Ġreduce": 2520,
      "Ġproduction": 2521,
      "Ġpressure": 2522,
      "Ġcannot": 2523,
      "ager": 2524,
      "Ġ50": 2525,
      "Ġever": 2526,
      "Ġweight": 2527,
      "Ġcomes": 2528,
      "oman": 2529,
      "imum": 2530,
      "sequ": 2531,
      "Ġparts": 2532,
      "Ġforce": 2533,
      "reen": 2534,
      "omm": 2535,
      "Ġann": 2536,
      "Ġmeet": 2537,
      "Ar": 2538,
      "comp": 2539,
      "jango": 2540,
      "Ġupon": 2541,
      "Ġcorrect": 2542,
      "aries": 2543,
      "Ġobserv": 2544,
      "ges": 2545,
      "Ġclimate": 2546,
      "ĠMay": 2547,
      "Ġ**": 2548,
      "atter": 2549,
      "Ġcontinue": 2550,
      "Ġsent": 2551,
      "mission": 2552,
      ".)": 2553,
      "Ġmembers": 2554,
      "Ġweek": 2555,
      "utes": 2556,
      "Ġposition": 2557,
      "Ġlive": 2558,
      "ply": 2559,
      "Im": 2560,
      "ĠWar": 2561,
      "Ġquick": 2562,
      "List": 2563,
      "ĠGe": 2564,
      "By": 2565,
      "Ġtable": 2566,
      "fl": 2567,
      "Ġblack": 2568,
      "Ġstudent": 2569,
      "Ġmaterials": 2570,
      "ground": 2571,
      "Ġlink": 2572,
      "hold": 2573,
      "Ġcirc": 2574,
      "imal": 2575,
      "oes": 2576,
      "ney": 2577,
      "Ġchalleng": 2578,
      "CO": 2579,
      "Ġpositive": 2580,
      "Ġwriting": 2581,
      "Ġunit": 2582,
      "oon": 2583,
      "Ġpage": 2584,
      "ĠEnglish": 2585,
      "nces": 2586,
      "Get": 2587,
      "ĠFalse": 2588,
      "ĠInt": 2589,
      "ival": 2590,
      "Un": 2591,
      "this": 2592,
      "ension": 2593,
      "AP": 2594,
      "ĠIntern": 2595,
      "'):": 2596,
      "Ġmedical": 2597,
      "andom": 2598,
      "Ġpie": 2599,
      "string": 2600,
      "ĠHealth": 2601,
      "Ġrelated": 2602,
      "anced": 2603,
      "iter": 2604,
      "Ġtaken": 2605,
      "enc": 2606,
      "lease": 2607,
      "Ġarticle": 2608,
      "33": 2609,
      "\".": 2610,
      "ences": 2611,
      "Ġstop": 2612,
      "Ġequal": 2613,
      "Ġoffic": 2614,
      "Ġcondition": 2615,
      "__(": 2616,
      "iol": 2617,
      "part": 2618,
      "arr": 2619,
      "Ġfamil": 2620,
      "istance": 2621,
      "ribution": 2622,
      "Ġselect": 2623,
      "Ġbase": 2624,
      "iddle": 2625,
      "ĠGerm": 2626,
      "Ġintrodu": 2627,
      "Ġpublished": 2628,
      "Ġliving": 2629,
      "Ġdat": 2630,
      "Ġprovides": 2631,
      "Ġpack": 2632,
      "Ġdefault": 2633,
      "ffer": 2634,
      "Ġidea": 2635,
      "Ġstates": 2636,
      "Ġwrite": 2637,
      "Ġthought": 2638,
      "Ġrights": 2639,
      "Ġdeveloped": 2640,
      "Ġcompon": 2641,
      "ĠEarth": 2642,
      "Ġdru": 2643,
      "},": 2644,
      "aced": 2645,
      "Ġstring": 2646,
      "Ġservice": 2647,
      "Ġwhite": 2648,
      "Ġrecomm": 2649,
      "Ġmarket": 2650,
      "Ġmaintain": 2651,
      "Ġthroughout": 2652,
      "Ġnature": 2653,
      "Ġindividuals": 2654,
      "chan": 2655,
      "Ġentire": 2656,
      "Ġhalf": 2657,
      "Wh": 2658,
      "Ġmodern": 2659,
      "ults": 2660,
      "ift": 2661,
      "ĠGener": 2662,
      "Ġanimals": 2663,
      "'re": 2664,
      "Ġavoid": 2665,
      "go": 2666,
      "html": 2667,
      "Ġonline": 2668,
      "fully": 2669,
      "ened": 2670,
      "Ġrespect": 2671,
      "([": 2672,
      "Ġexpress": 2673,
      "Ġthemselves": 2674,
      "ĠPr": 2675,
      "dom": 2676,
      "fields": 2677,
      "Ġmethods": 2678,
      "99": 2679,
      "reed": 2680,
      "ĠMan": 2681,
      "eed": 2682,
      "Ġstandard": 2683,
      "td": 2684,
      "Ġsix": 2685,
      "Ġclean": 2686,
      "Ġeffective": 2687,
      "mber": 2688,
      "Ġarch": 2689,
      "Ġmoney": 2690,
      "mb": 2691,
      "osis": 2692,
      "ĠAmerica": 2693,
      "}\\": 2694,
      "Ġsal": 2695,
      "ivil": 2696,
      "Ġoutput": 2697,
      "Ġexerc": 2698,
      "Ġevidence": 2699,
      "Ġcame": 2700,
      "odes": 2701,
      "idered": 2702,
      "atives": 2703,
      "thon": 2704,
      "Ġpersonal": 2705,
      "aged": 2706,
      "Ġunique": 2707,
      "rs": 2708,
      "call": 2709,
      "Ġnecessary": 2710,
      "ula": 2711,
      "ender": 2712,
      "Ġprofess": 2713,
      "ows": 2714,
      "Ġprevious": 2715,
      "False": 2716,
      "lex": 2717,
      "me": 2718,
      "Ġemer": 2719,
      "Ġgas": 2720,
      "70": 2721,
      "iate": 2722,
      "AD": 2723,
      "models": 2724,
      "Ġincreased": 2725,
      "Ġmach": 2726,
      "Ġwid": 2727,
      "Ġexpected": 2728,
      "Ġhours": 2729,
      "Ġrelig": 2730,
      "Ġ!=": 2731,
      "Ġjour": 2732,
      "istics": 2733,
      "Ġapproach": 2734,
      "Ġnational": 2735,
      "Ġstress": 2736,
      "Ġshows": 2737,
      "ched": 2738,
      "Ġyet": 2739,
      "Ġprovided": 2740,
      "Ġla": 2741,
      "ls": 2742,
      "ĠNorth": 2743,
      "urch": 2744,
      "AB": 2745,
      "pre": 2746,
      "like": 2747,
      "ze": 2748,
      "So": 2749,
      "ĠPol": 2750,
      "ideo": 2751,
      "amin": 2752,
      "Ġconsidered": 2753,
      "Ġtalk": 2754,
      "Ġdraw": 2755,
      "Ġskin": 2756,
      "Ġanalysis": 2757,
      "Ġliter": 2758,
      "ĠDr": 2759,
      "ĠSouth": 2760,
      "Ġmanagement": 2761,
      "enge": 2762,
      "Ġhealthy": 2763,
      "issions": 2764,
      "light": 2765,
      "Ġitself": 2766,
      "Ġprinc": 2767,
      "Ġfinal": 2768,
      "max": 2769,
      "ned": 2770,
      "Ġtaking": 2771,
      "Ġcomputer": 2772,
      "Ġservices": 2773,
      "Ġdoesn": 2774,
      "Ġability": 2775,
      "bject": 2776,
      "ĠAb": 2777,
      "}$": 2778,
      "elling": 2779,
      "off": 2780,
      "Ġver": 2781,
      "Ġ##": 2782,
      "Ġexplain": 2783,
      "Ġsat": 2784,
      "orks": 2785,
      "Ġattack": 2786,
      "HE": 2787,
      "Ġaverage": 2788,
      "Ġvoid": 2789,
      "pid": 2790,
      "Ġevents": 2791,
      "uel": 2792,
      "Ġnormal": 2793,
      "ĠĠĠĠ": 2794,
      "sing": 2795,
      "Ġregard": 2796,
      "Ġsepar": 2797,
      "ai": 2798,
      "index": 2799,
      "Ġimplement": 2800,
      "Ġoil": 2801,
      "Ġregion": 2802,
      "Ġoriginal": 2803,
      "Ġcopy": 2804,
      "Ġgraph": 2805,
      "Ġhelps": 2806,
      "ait": 2807,
      "Ġhost": 2808,
      "artment": 2809,
      "ĠCar": 2810,
      "Ġri": 2811,
      "OT": 2812,
      "loc": 2813,
      "Ġreading": 2814,
      "23": 2815,
      "Ġprivate": 2816,
      "Ġcat": 2817,
      "ming": 2818,
      "Ġfish": 2819,
      "Ġdeep": 2820,
      "Ġcls": 2821,
      "''": 2822,
      "amed": 2823,
      "Ġmonths": 2824,
      "based": 2825,
      "rate": 2826,
      "ores": 2827,
      "Ġsolution": 2828,
      "create": 2829,
      "Ġinstead": 2830,
      "Ġproduce": 2831,
      "ĠAct": 2832,
      "Ġincreasing": 2833,
      "ĠApp": 2834,
      "Ġ[],": 2835,
      "Ġinput": 2836,
      "oph": 2837,
      "print": 2838,
      "Ġconfig": 2839,
      "())": 2840,
      "Ġsomet": 2841,
      "yl": 2842,
      "String": 2843,
      "Ġpolitical": 2844,
      "21": 2845,
      "ero": 2846,
      "isc": 2847,
      "ĠState": 2848,
      "Ġgreen": 2849,
      "ĠTest": 2850,
      "ĠNo": 2851,
      "Ġeconomic": 2852,
      "Ġparents": 2853,
      "Ġpopular": 2854,
      "Ġensure": 2855,
      "astic": 2856,
      "Ġsense": 2857,
      "Ġ$\\": 2858,
      "start": 2859,
      "Ġclos": 2860,
      "Ġmeaning": 2861,
      "Ġlives": 2862,
      "Ġblock": 2863,
      "Ġmedic": 2864,
      "Ġeasy": 2865,
      "Set": 2866,
      "Ġnetwork": 2867,
      "0000": 2868,
      "Sc": 2869,
      "Ġ24": 2870,
      "ĠDep": 2871,
      "Ġgreater": 2872,
      "():": 2873,
      "Ġwritten": 2874,
      "Ġshare": 2875,
      "ributed": 2876,
      "ING": 2877,
      "Add": 2878,
      "iment": 2879,
      "Ġsomeone": 2880,
      "div": 2881,
      "Ġtemperature": 2882,
      "itch": 2883,
      "Ġfeed": 2884,
      "Ġerror": 2885,
      "ĠAm": 2886,
      "On": 2887,
      "(),": 2888,
      "Ġroot": 2889,
      "Ġid": 2890,
      "hib": 2891,
      "tes": 2892,
      "curity": 2893,
      "Ġclose": 2894,
      "ĠGu": 2895,
      "Ġemb": 2896,
      "Ġsoftware": 2897,
      "ached": 2898,
      "Ġalmost": 2899,
      "[\"": 2900,
      "reng": 2901,
      "Ġmicro": 2902,
      "rix": 2903,
      "md": 2904,
      "Ġregular": 2905,
      "Ġseem": 2906,
      "Ġrev": 2907,
      "Ġseries": 2908,
      "instance": 2909,
      "lt": 2910,
      "imately": 2911,
      "where": 2912,
      "point": 2913,
      "ung": 2914,
      "ops": 2915,
      "Ġfat": 2916,
      "ĠAfter": 2917,
      "Ġmodels": 2918,
      "Ġgot": 2919,
      "aily": 2920,
      "One": 2921,
      "Ġbegan": 2922,
      "Ġanc": 2923,
      "Ġconduct": 2924,
      "Ġheat": 2925,
      "Ġstructure": 2926,
      "Ġtook": 2927,
      "default": 2928,
      "trans": 2929,
      "math": 2930,
      "Ġmultiple": 2931,
      "Ġsometimes": 2932,
      "Ġdoing": 2933,
      "ober": 2934,
      "Ġdou": 2935,
      "aving": 2936,
      "Ġuses": 2937,
      "aling": 2938,
      "erous": 2939,
      "45": 2940,
      "Ġcompany": 2941,
      "format": 2942,
      "Ġdiet": 2943,
      "aff": 2944,
      "Ġassess": 2945,
      "xy": 2946,
      "ĠPar": 2947,
      "ropri": 2948,
      "ulations": 2949,
      "hemat": 2950,
      "lim": 2951,
      "Ġdeb": 2952,
      "Ġthing": 2953,
      "Ġbal": 2954,
      "Ġbar": 2955,
      "Ġenvironmental": 2956,
      "ĠAust": 2957,
      "Ġdog": 2958,
      "Ġbehavior": 2959,
      "emic": 2960,
      "fect": 2961,
      "Ġsimply": 2962,
      "iet": 2963,
      "Ġappear": 2964,
      "Ġlines": 2965,
      "ĠWhile": 2966,
      "Ġmatter": 2967,
      "Ġelements": 2968,
      "ried": 2969,
      "Ġflo": 2970,
      "eters": 2971,
      "igned": 2972,
      "clude": 2973,
      "Ġlonger": 2974,
      "Ġ</": 2975,
      "Ġ40": 2976,
      "Value": 2977,
      "Ġtraining": 2978,
      "Int": 2979,
      "Ġchemical": 2980,
      "hood": 2981,
      "Ġbuilt": 2982,
      "dict": 2983,
      "Ġrecent": 2984,
      "vere": 2985,
      "Ġcou": 2986,
      "pose": 2987,
      "Ġencou": 2988,
      "Ġfarm": 2989,
      "Ġsociety": 2990,
      "ĠHist": 2991,
      "eration": 2992,
      "Ġshown": 2993,
      "itation": 2994,
      "icles": 2995,
      "UR": 2996,
      "ĠÃ": 2997,
      "Ġlen": 2998,
      "aches": 2999,
      "const": 3000,
      "Ġcomplete": 3001,
      "Ġexact": 3002,
      "Ġmor": 3003,
      "Ġfire": 3004,
      "oration": 3005,
      "Ġforms": 3006,
      "Ġetc": 3007,
      "Ġdifference": 3008,
      "itude": 3009,
      "ensive": 3010,
      "ĠJohn": 3011,
      "ccording": 3012,
      "ĠAN": 3013,
      "pper": 3014,
      "ĠNot": 3015,
      "Ġallows": 3016,
      "style": 3017,
      "Ġidentify": 3018,
      "with": 3019,
      "mun": 3020,
      "Ġoptions": 3021,
      "Ġmix": 3022,
      "Ġscientists": 3023,
      "ipl": 3024,
      "IG": 3025,
      "Mod": 3026,
      "IL": 3027,
      "Ġdesigned": 3028,
      "Ġmagn": 3029,
      "Ġaccept": 3030,
      "Ġerr": 3031,
      "().": 3032,
      "Ġcamp": 3033,
      "ene": 3034,
      "iques": 3035,
      "Ġsoil": 3036,
      "Ġcontact": 3037,
      "rapy": 3038,
      "Ġdocument": 3039,
      "Ġbasic": 3040,
      "Ġdecl": 3041,
      "Ġbring": 3042,
      "itary": 3043,
      "Ġspread": 3044,
      "count": 3045,
      "Ġbenefits": 3046,
      "het": 3047,
      "ĠMar": 3048,
      "Ġhab": 3049,
      "Ġpict": 3050,
      "vey": 3051,
      "ners": 3052,
      "And": 3053,
      "Ġtravel": 3054,
      "></": 3055,
      "Ġindustry": 3056,
      "angle": 3057,
      "avor": 3058,
      "Ġtakes": 3059,
      "ĠCO": 3060,
      "Ġface": 3061,
      "ike": 3062,
      "75": 3063,
      "rown": 3064,
      "bit": 3065,
      "book": 3066,
      "su": 3067,
      "ĠPer": 3068,
      "Ġremov": 3069,
      "Ġsleep": 3070,
      "Ġfeet": 3071,
      "Ġmusic": 3072,
      "ius": 3073,
      "II": 3074,
      "Ġtree": 3075,
      "Ġemot": 3076,
      "ĠYork": 3077,
      "Ġspeed": 3078,
      "Ġbill": 3079,
      "nov": 3080,
      "Ġslow": 3081,
      "Ġincludes": 3082,
      "Ġequation": 3083,
      "Ġclaim": 3084,
      "Ġprote": 3085,
      "Ġschools": 3086,
      "ese": 3087,
      "ĠCo": 3088,
      "raction": 3089,
      "ĠMe": 3090,
      "ster": 3091,
      "Data": 3092,
      "IV": 3093,
      "Ġnp": 3094,
      "Ġste": 3095,
      "ĠRet": 3096,
      "Ġelectric": 3097,
      "Ġmessage": 3098,
      "Ġtools": 3099,
      "equ": 3100,
      "uration": 3101,
      "Ġwild": 3102,
      "ENT": 3103,
      "Ġdevice": 3104,
      "Ġadded": 3105,
      "ĠHis": 3106,
      "Ġstreng": 3107,
      "PE": 3108,
      "Ġheav": 3109,
      "ĠÂ": 3110,
      "Is": 3111,
      "Ġissue": 3112,
      "Ġprograms": 3113,
      "Ġprec": 3114,
      "Ġbit": 3115,
      "Ġeval": 3116,
      "lor": 3117,
      "Ġsurv": 3118,
      "Ġdiagn": 3119,
      "enn": 3120,
      "Ġharm": 3121,
      "lege": 3122,
      "ounter": 3123,
      "valid": 3124,
      "come": 3125,
      "Ġund": 3126,
      "ĠSchool": 3127,
      "____": 3128,
      "Ġgain": 3129,
      "Ġdetermine": 3130,
      "inks": 3131,
      "Ġload": 3132,
      "Ġextrem": 3133,
      "wise": 3134,
      "100": 3135,
      "Ġtowards": 3136,
      "minist": 3137,
      "Ġoutside": 3138,
      "Ġcommand": 3139,
      "plit": 3140,
      "Ġsources": 3141,
      "ided": 3142,
      "active": 3143,
      "Ġdemon": 3144,
      "erve": 3145,
      "Ã©": 3146,
      "cos": 3147,
      "ibrary": 3148,
      "plate": 3149,
      "Ġinside": 3150,
      "apan": 3151,
      "que": 3152,
      "Ġcaused": 3153,
      "Ġoption": 3154,
      "Ġmom": 3155,
      "lation": 3156,
      "Ġsearch": 3157,
      "Ġcauses": 3158,
      "Ġcommunities": 3159,
      "Ġsex": 3160,
      "Ġago": 3161,
      "Ġreview": 3162,
      "Ġassum": 3163,
      "amples": 3164,
      "Ġgetting": 3165,
      "anks": 3166,
      "><": 3167,
      "mat": 3168,
      "Ġinj": 3169,
      "Ġobjects": 3170,
      "With": 3171,
      "Ġ+=": 3172,
      "ervation": 3173,
      "oll": 3174,
      "ufact": 3175,
      "Ġlooking": 3176,
      "Ġlove": 3177,
      "ename": 3178,
      "CH": 3179,
      "Ġstarted": 3180,
      "arily": 3181,
      "url": 3182,
      "Ġculture": 3183,
      "Ġcompet": 3184,
      "uck": 3185,
      "Ġfru": 3186,
      "IM": 3187,
      "vention": 3188,
      "Ġmechan": 3189,
      "isions": 3190,
      "Ġsust": 3191,
      "Ġobtain": 3192,
      "'],": 3193,
      "stitute": 3194,
      "28": 3195,
      "ederal": 3196,
      "ĠJew": 3197,
      "Ġaspect": 3198,
      "ypes": 3199,
      "Ġcustom": 3200,
      "ĠCanad": 3201,
      "Ġorigin": 3202,
      "LO": 3203,
      "Ġinvolved": 3204,
      "ĠPe": 3205,
      "Ġconsist": 3206,
      "Now": 3207,
      "ĠResearch": 3208,
      "Sh": 3209,
      "array": 3210,
      "\"]": 3211,
      "do": 3212,
      "Ġstat": 3213,
      "host": 3214,
      "Ġinfect": 3215,
      "Ġvisit": 3216,
      "Ġcritical": 3217,
      "duc": 3218,
      "estern": 3219,
      "Ġbelieve": 3220,
      "Ġcompan": 3221,
      "cles": 3222,
      "Ġir": 3223,
      "rc": 3224,
      "Ġhor": 3225,
      "35": 3226,
      "ronic": 3227,
      "Ġled": 3228,
      "ocol": 3229,
      "rt": 3230,
      "ĠSystem": 3231,
      "Ġindepend": 3232,
      "oad": 3233,
      "Ġsection": 3234,
      "Ġearth": 3235,
      "Ġ198": 3236,
      "Ġwebs": 3237,
      "Ġ[]": 3238,
      "resh": 3239,
      "know": 3240,
      "ricult": 3241,
      "Ġuseful": 3242,
      "Ġlimit": 3243,
      "65": 3244,
      "Ġappl": 3245,
      "Ġsequ": 3246,
      "Ġanaly": 3247,
      "Ġcapt": 3248,
      "Ġattention": 3249,
      "display": 3250,
      "Ġcarbon": 3251,
      "ades": 3252,
      "erson": 3253,
      "Qu": 3254,
      "Ġparticularly": 3255,
      "})": 3256,
      "idge": 3257,
      "Ġfunctions": 3258,
      "Ġdemonstr": 3259,
      "Ġ=>": 3260,
      "Ġperformance": 3261,
      "Ġmodule": 3262,
      "no": 3263,
      "ĠMore": 3264,
      "length": 3265,
      "US": 3266,
      "ĠDo": 3267,
      "Ġthreat": 3268,
      "room": 3269,
      "irection": 3270,
      "urs": 3271,
      "rig": 3272,
      "Ġarray": 3273,
      "Ġstri": 3274,
      "abet": 3275,
      "ĠYour": 3276,
      "Ġtraditional": 3277,
      "Ġfem": 3278,
      "Ġrout": 3279,
      "sum": 3280,
      "gram": 3281,
      "run": 3282,
      "sq": 3283,
      "AG": 3284,
      "Ġsustain": 3285,
      "Ġsquare": 3286,
      "Ġtax": 3287,
      "request": 3288,
      "Ġexplore": 3289,
      "ĠCons": 3290,
      "Ġquant": 3291,
      "Ġreflect": 3292,
      "Ġkids": 3293,
      "rast": 3294,
      "rought": 3295,
      "Ġgame": 3296,
      "Ġnet": 3297,
      "Ġviol": 3298,
      "Ġcommit": 3299,
      "Ġcross": 3300,
      "rim": 3301,
      "void": 3302,
      "Ġaltern": 3303,
      "Ġpolicy": 3304,
      "Ġeat": 3305,
      "Ġshape": 3306,
      "Ġappropri": 3307,
      "Ġprep": 3308,
      "Ġdamage": 3309,
      "Ġelement": 3310,
      "\");": 3311,
      "Ġoffer": 3312,
      "Ġtests": 3313,
      "gn": 3314,
      "rm": 3315,
      "Ġdeveloping": 3316,
      "90": 3317,
      "Ġgrowing": 3318,
      "write": 3319,
      "Ġnull": 3320,
      "Ġpsych": 3321,
      "ellow": 3322,
      "pan": 3323,
      "lock": 3324,
      "ĠBritish": 3325,
      "joy": 3326,
      "oles": 3327,
      "Ġsafe": 3328,
      "lement": 3329,
      "Ġsafety": 3330,
      "Ġmovement": 3331,
      "iam": 3332,
      "Ġstrateg": 3333,
      "Ġnames": 3334,
      "Ġdem": 3335,
      "Ġattempt": 3336,
      "Ġprogress": 3337,
      "ement": 3338,
      "oud": 3339,
      "Ġprimary": 3340,
      "Ġsound": 3341,
      "27": 3342,
      "Ġideas": 3343,
      "wo": 3344,
      "Ġmedia": 3345,
      "wargs": 3346,
      "Ġrefer": 3347,
      "NA": 3348,
      "Ġcontains": 3349,
      "Ġsymbol": 3350,
      "Ġnegative": 3351,
      "Ġvariety": 3352,
      "Ġconstant": 3353,
      "ĠSim": 3354,
      "rial": 3355,
      "lete": 3356,
      "orage": 3357,
      "Ġaware": 3358,
      "check": 3359,
      "Ġlarger": 3360,
      "Ġimag": 3361,
      "ban": 3362,
      "Ġones": 3363,
      "Ġadditional": 3364,
      "Key": 3365,
      "Ġsn": 3366,
      "ĠGeneral": 3367,
      "Ġdefin": 3368,
      "ĠReg": 3369,
      "Ġstatus": 3370,
      "Ġbooks": 3371,
      "cial": 3372,
      "Ġaccur": 3373,
      "Se": 3374,
      "bar": 3375,
      "Ġminutes": 3376,
      "ourse": 3377,
      "At": 3378,
      "Ġproperty": 3379,
      "error": 3380,
      "Ġestim": 3381,
      "Ġindex": 3382,
      "Ġcreating": 3383,
      "map": 3384,
      "Ġ},": 3385,
      "Ġbehind": 3386,
      "Ġfinanc": 3387,
      "ecause": 3388,
      "Ġdistance": 3389,
      "Ġinstall": 3390,
      "Ġtechniques": 3391,
      "Ġdisplay": 3392,
      "rage": 3393,
      "Ġfoods": 3394,
      "ĠLet": 3395,
      "atively": 3396,
      "36": 3397,
      "Ġwarm": 3398,
      "Ġlate": 3399,
      "hand": 3400,
      "clusion": 3401,
      "ĠJapan": 3402,
      "ĠCount": 3403,
      "Ġeasily": 3404,
      "He": 3405,
      "Ġmath": 3406,
      "Ġder": 3407,
      "Ġlack": 3408,
      "--------": 3409,
      "Ġaccom": 3410,
      "Ġbacter": 3411,
      "Ġdaily": 3412,
      "Ġincluded": 3413,
      "Not": 3414,
      "ĠScience": 3415,
      "gar": 3416,
      "ervice": 3417,
      "bor": 3418,
      "attr": 3419,
      "à¤": 3420,
      "Ġteachers": 3421,
      "Ġtask": 3422,
      "api": 3423,
      "48": 3424,
      "ography": 3425,
      "bre": 3426,
      "Ġaff": 3427,
      "Ġsect": 3428,
      "Ġfactor": 3429,
      "ocks": 3430,
      "ĠMin": 3431,
      "pite": 3432,
      "inate": 3433,
      "EM": 3434,
      "uge": 3435,
      "Ġprobably": 3436,
      "Ġfalse": 3437,
      "net": 3438,
      "Ġextra": 3439,
      "ĠMany": 3440,
      "ĠPres": 3441,
      "Ġexec": 3442,
      "Ġthous": 3443,
      "actions": 3444,
      "29": 3445,
      "ĠPublic": 3446,
      "Ġtheory": 3447,
      "estion": 3448,
      "used": 3449,
      "Ġcover": 3450,
      "ĠPart": 3451,
      "pi": 3452,
      "mark": 3453,
      "Ġquickly": 3454,
      "iency": 3455,
      "static": 3456,
      "Ġleading": 3457,
      "Ġvideo": 3458,
      "Ġrequires": 3459,
      "ĠIN": 3460,
      "Ġforest": 3461,
      "Ġthird": 3462,
      "Ġactive": 3463,
      "cret": 3464,
      "Ġeveryone": 3465,
      "Ġproduced": 3466,
      "Ġast": 3467,
      "Ġmanufact": 3468,
      "lin": 3469,
      "Ġreported": 3470,
      "ĠJan": 3471,
      "alls": 3472,
      "Ġ?": 3473,
      "django": 3474,
      ".__": 3475,
      "Ġinitial": 3476,
      "ports": 3477,
      "Ġfields": 3478,
      "Ġquite": 3479,
      "ucle": 3480,
      "tual": 3481,
      "top": 3482,
      "status": 3483,
      "Ġrow": 3484,
      "Ġfeatures": 3485,
      "66": 3486,
      "context": 3487,
      "Ġnode": 3488,
      "Ġaud": 3489,
      "istry": 3490,
      "rated": 3491,
      "Ġhumans": 3492,
      "Ġwalk": 3493,
      "TR": 3494,
      "Ġdirectly": 3495,
      "Ġwood": 3496,
      "ĠIndia": 3497,
      "term": 3498,
      "rong": 3499,
      "node": 3500,
      "Ġpatient": 3501,
      "ulate": 3502,
      "Ġnight": 3503,
      "atform": 3504,
      "ĠCenter": 3505,
      "Ġhope": 3506,
      "ĠThen": 3507,
      "../../": 3508,
      "table": 3509,
      "Ġlif": 3510,
      "Ġaim": 3511,
      "Ġserious": 3512,
      "Ġanimal": 3513,
      "Ġhttp": 3514,
      "Ġstay": 3515,
      "aly": 3516,
      "Ġmental": 3517,
      "irit": 3518,
      "Ġeth": 3519,
      "Ġvacc": 3520,
      "pack": 3521,
      "Ind": 3522,
      "Ġdecre": 3523,
      "Ġapplication": 3524,
      "iles": 3525,
      "rench": 3526,
      "ĠâĪ": 3527,
      "Ġscientific": 3528,
      "Ġachieve": 3529,
      "Ġearli": 3530,
      "undred": 3531,
      "Ġsecurity": 3532,
      "Ġful": 3533,
      "((": 3534,
      "UN": 3535,
      "join": 3536,
      "Ġinvestig": 3537,
      "ĠPre": 3538,
      "ĠAustral": 3539,
      "Ġprior": 3540,
      "Ġpoor": 3541,
      "Ġbab": 3542,
      "uous": 3543,
      "Ġleaders": 3544,
      "Ġgenerally": 3545,
      "span": 3546,
      "Ġbroad": 3547,
      "haps": 3548,
      "ĠNe": 3549,
      "da": 3550,
      "Ġvirus": 3551,
      "Ġcard": 3552,
      "known": 3553,
      "just": 3554,
      "Object": 3555,
      "core": 3556,
      "Ġreceived": 3557,
      "ieved": 3558,
      "Ġsort": 3559,
      "Ġenjoy": 3560,
      "ceed": 3561,
      "Ġcenter": 3562,
      "vant": 3563,
      "Ġelif": 3564,
      "ava": 3565,
      "Ġthinking": 3566,
      "Ġ21": 3567,
      "izes": 3568,
      "hing": 3569,
      "ĠWill": 3570,
      "Ġhyd": 3571,
      "ottom": 3572,
      "edi": 3573,
      "Ġbad": 3574,
      "HO": 3575,
      "irm": 3576,
      "34": 3577,
      "All": 3578,
      "Ġ60": 3579,
      "Ġveget": 3580,
      "leg": 3581,
      "78": 3582,
      "umber": 3583,
      "Ġcompared": 3584,
      "Ġfoot": 3585,
      "38": 3586,
      "Ġdate": 3587,
      "Ġgives": 3588,
      "File": 3589,
      "Ġcolum": 3590,
      "Ġcru": 3591,
      "inct": 3592,
      "Ġwhose": 3593,
      "Ġinternational": 3594,
      "....": 3595,
      "ĠÎ": 3596,
      "izations": 3597,
      "Ġlands": 3598,
      "Pl": 3599,
      "ĠKing": 3600,
      "Ġdefined": 3601,
      "rees": 3602,
      "Ġden": 3603,
      "fort": 3604,
      "ana": 3605,
      "Ġvalid": 3606,
      "26": 3607,
      "Ġfit": 3608,
      "Ġchallenges": 3609,
      "Ġfront": 3610,
      "Time": 3611,
      "year": 3612,
      "Ġsample": 3613,
      "Ġwon": 3614,
      "mar": 3615,
      "Ġsil": 3616,
      "Ġpredict": 3617,
      "cks": 3618,
      "Ġreve": 3619,
      "range": 3620,
      "Ġbecomes": 3621,
      "www": 3622,
      "ologies": 3623,
      "ildren": 3624,
      "ternal": 3625,
      "Ġframe": 3626,
      "Ġpy": 3627,
      "Ġsea": 3628,
      "Ġyourself": 3629,
      "Ġsurround": 3630,
      "pace": 3631,
      "uff": 3632,
      "lands": 3633,
      "ĠIS": 3634,
      "asons": 3635,
      "Ġhot": 3636,
      "Ġmemory": 3637,
      "Ġcompanies": 3638,
      "Ġcultural": 3639,
      "tem": 3640,
      "Ġisn": 3641,
      "ĠSee": 3642,
      "ĠMod": 3643,
      "px": 3644,
      "Ġrule": 3645,
      "Ġrat": 3646,
      "FF": 3647,
      "ament": 3648,
      "orpor": 3649,
      "ha": 3650,
      "Ġremember": 3651,
      "related": 3652,
      "oke": 3653,
      "Ġtown": 3654,
      "Ġfriend": 3655,
      "na": 3656,
      "Ġimages": 3657,
      "can": 3658,
      "arv": 3659,
      "Ġsteps": 3660,
      "Ġtrees": 3661,
      "Ġmap": 3662,
      "Ġ2012": 3663,
      "etime": 3664,
      "Ġgard": 3665,
      "Ġnation": 3666,
      "iforn": 3667,
      "ĠAug": 3668,
      "Ġcred": 3669,
      "ĠUse": 3670,
      "/*": 3671,
      "Ġcolon": 3672,
      "IP": 3673,
      "ancy": 3674,
      "Ġdetect": 3675,
      "En": 3676,
      "ĠChina": 3677,
      "erg": 3678,
      "Ġfix": 3679,
      "Ġcit": 3680,
      "ynam": 3681,
      "Ġexercise": 3682,
      "Ġax": 3683,
      "osing": 3684,
      "ashing": 3685,
      "message": 3686,
      "Ġproced": 3687,
      "ying": 3688,
      "Ġvolume": 3689,
      "Ġconstruct": 3690,
      "Ġconcent": 3691,
      "Ġpractices": 3692,
      "Ġfamilies": 3693,
      "Ġdevices": 3694,
      "Ġexamples": 3695,
      "Ġdang": 3696,
      "eks": 3697,
      "rack": 3698,
      "client": 3699,
      "ĠNow": 3700,
      "err": 3701,
      "Ġtim": 3702,
      "Ġdetails": 3703,
      "Ġcool": 3704,
      "Ġsuff": 3705,
      "Ġsold": 3706,
      "Ġfast": 3707,
      "xf": 3708,
      "ĠOther": 3709,
      "Ġroad": 3710,
      "Ġbeaut": 3711,
      "Ġeye": 3712,
      "'])": 3713,
      "ken": 3714,
      "Ġeverything": 3715,
      "Ġstories": 3716,
      "Ġcomplet": 3717,
      "ĠMy": 3718,
      "Ġthus": 3719,
      "Ġapplications": 3720,
      "oken": 3721,
      "ĠComp": 3722,
      "ĠSol": 3723,
      "Ġmother": 3724,
      "itable": 3725,
      "wid": 3726,
      "Ġrules": 3727,
      "Ġtend": 3728,
      "ĠEduc": 3729,
      "Ġcivil": 3730,
      "Ġinstit": 3731,
      "Ġfriends": 3732,
      "ogle": 3733,
      "Ġcapac": 3734,
      "Ġhands": 3735,
      "Ġdry": 3736,
      "Ġbox": 3737,
      "Ġtherefore": 3738,
      "Ġefforts": 3739,
      "ĠOct": 3740,
      "Ġsolar": 3741,
      "Ġbur": 3742,
      "Ġlocation": 3743,
      "44": 3744,
      "airs": 3745,
      "Ġrandom": 3746,
      "ĠDis": 3747,
      "Ġappropriate": 3748,
      "Ġsoon": 3749,
      "Ġmatch": 3750,
      "Ġtransport": 3751,
      "cean": 3752,
      "efore": 3753,
      "Ġdepend": 3754,
      "ifornia": 3755,
      "Ġproperties": 3756,
      "overy": 3757,
      "ĠDes": 3758,
      "ii": 3759,
      "Ġresource": 3760,
      "sk": 3761,
      "Ġconnection": 3762,
      "Ġplaces": 3763,
      "Ġcook": 3764,
      "arser": 3765,
      "perty": 3766,
      "'ll": 3767,
      "Ġadapt": 3768,
      "ĠGo": 3769,
      "ino": 3770,
      "Ġdistribution": 3771,
      "ĠAg": 3772,
      "Ġ['": 3773,
      "Ġpoll": 3774,
      "Ġenh": 3775,
      "Ġbirth": 3776,
      "osition": 3777,
      "Ġdiseases": 3778,
      "Ġcommunication": 3779,
      "item": 3780,
      "useum": 3781,
      "Ġtrying": 3782,
      "Ġstru": 3783,
      "iples": 3784,
      "Ġitems": 3785,
      "Ġapprox": 3786,
      "Ġpan": 3787,
      "Ġdim": 3788,
      "oday": 3789,
      "Exception": 3790,
      "obj": 3791,
      "ĠSm": 3792,
      "hens": 3793,
      "Ġimportance": 3794,
      "ĠFirst": 3795,
      "Ġhundred": 3796,
      "Ġ2010": 3797,
      "Ġdirection": 3798,
      "Ġdivid": 3799,
      "Ġprop": 3800,
      "Ġdecision": 3801,
      "spec": 3802,
      "ĠHere": 3803,
      "Ġdoctor": 3804,
      "Ġheight": 3805,
      "sect": 3806,
      "Ġweb": 3807,
      "ĠEd": 3808,
      "Ġfinancial": 3809,
      "Ġpropos": 3810,
      "ech": 3811,
      "Ġchoose": 3812,
      "Ġtrack": 3813,
      "Ġfiles": 3814,
      "gl": 3815,
      "Ġreach": 3816,
      "Ġsupply": 3817,
      "unch": 3818,
      "ĠMost": 3819,
      "gency": 3820,
      "gor": 3821,
      "uary": 3822,
      "ĠRep": 3823,
      "update": 3824,
      "Ġautom": 3825,
      "Ġprocesses": 3826,
      "abled": 3827,
      "mary": 3828,
      "ares": 3829,
      "Ġprojects": 3830,
      "Ġitem": 3831,
      "Ġestablished": 3832,
      "Ġguid": 3833,
      "change": 3834,
      "ĠFrom": 3835,
      "ĠEuropean": 3836,
      "yond": 3837,
      "Ġtesting": 3838,
      "Ġspeak": 3839,
      "osure": 3840,
      "Ġcosts": 3841,
      "Ġoverall": 3842,
      "ĠJu": 3843,
      "ĠInstitute": 3844,
      "input": 3845,
      "Ġusers": 3846,
      "ithm": 3847,
      "Ġnamed": 3848,
      "Ġrates": 3849,
      "ĠDepartment": 3850,
      "Ġsus": 3851,
      "ĠApr": 3852,
      "base": 3853,
      "isms": 3854,
      "root": 3855,
      "Ġsituation": 3856,
      "ials": 3857,
      "Ġexperiences": 3858,
      "uild": 3859,
      "Ġseems": 3860,
      "see": 3861,
      "Ġbound": 3862,
      "Ġsmaller": 3863,
      "Ġremains": 3864,
      "Ġheld": 3865,
      "Ġscale": 3866,
      "amb": 3867,
      "define": 3868,
      "life": 3869,
      "abase": 3870,
      "Ġdrink": 3871,
      "Ġvit": 3872,
      "iers": 3873,
      "elt": 3874,
      "From": 3875,
      "Ġwent": 3876,
      "uries": 3877,
      "ux": 3878,
      "Ġmount": 3879,
      "Ġcentral": 3880,
      "abetes": 3881,
      "Ġbeyond": 3882,
      "down": 3883,
      "Ġcateg": 3884,
      "ipment": 3885,
      "Ġmiss": 3886,
      "Ġlost": 3887,
      "ensity": 3888,
      "39": 3889,
      "Ġseek": 3890,
      "Ġnews": 3891,
      "Ġformat": 3892,
      "Ġwide": 3893,
      "Ġgoal": 3894,
      "men": 3895,
      "Ġ``": 3896,
      "Ġtiss": 3897,
      "alle": 3898,
      "Ġasked": 3899,
      "Ġbeginning": 3900,
      "network": 3901,
      "annel": 3902,
      "overn": 3903,
      "ĠPy": 3904,
      "quest": 3905,
      "Ġvia": 3906,
      "ĠTrans": 3907,
      "Ġsevere": 3908,
      "dat": 3909,
      "Ġshap": 3910,
      "Ġdigital": 3911,
      "Ġpatterns": 3912,
      "Ġ2011": 3913,
      "ĠArt": 3914,
      "oice": 3915,
      "Ġteaching": 3916,
      "ĠRuss": 3917,
      "Ġhistorical": 3918,
      "Ġvisual": 3919,
      "ĠCalifornia": 3920,
      "'}": 3921,
      "Ġancient": 3922,
      "porary": 3923,
      "bb": 3924,
      "Ġroom": 3925,
      "fr": 3926,
      "ĠOF": 3927,
      "Ġlargest": 3928,
      "asks": 3929,
      "odies": 3930,
      "hel": 3931,
      "Ġperfect": 3932,
      "Ġanything": 3933,
      "rote": 3934,
      "Ġmilitary": 3935,
      "Ġ2013": 3936,
      "source": 3937,
      "ube": 3938,
      "Ġlabor": 3939,
      ".\"\"\"": 3940,
      "ĠEm": 3941,
      "37": 3942,
      "Ġmiles": 3943,
      "Ġmathemat": 3944,
      "####": 3945,
      "Ġhighly": 3946,
      "Ġimpl": 3947,
      "attle": 3948,
      "Ġsolve": 3949,
      "Ġep": 3950,
      "stream": 3951,
      "Ġcarry": 3952,
      "Ġstra": 3953,
      "Ġfigure": 3954,
      "pir": 3955,
      "Ġveh": 3956,
      "works": 3957,
      "pected": 3958,
      "Ġdemand": 3959,
      "ĠFound": 3960,
      "Ġ/*": 3961,
      "Ġstream": 3962,
      "SS": 3963,
      "model": 3964,
      "more": 3965,
      "Ġsolutions": 3966,
      "Ġstyle": 3967,
      "Ġclin": 3968,
      "Ġcollection": 3969,
      "iar": 3970,
      "Ġlimited": 3971,
      "CE": 3972,
      "Ġweeks": 3973,
      "Ġproviding": 3974,
      "ĠMat": 3975,
      "itect": 3976,
      "Ġtypically": 3977,
      "Ġpurpose": 3978,
      "Ġrot": 3979,
      "Ġmoment": 3980,
      "Ġq": 3981,
      "riv": 3982,
      "Ġcomponents": 3983,
      "Ġ{}": 3984,
      "Ġinform": 3985,
      "Col": 3986,
      "uk": 3987,
      "hest": 3988,
      "Ġinfection": 3989,
      "ĠIndian": 3990,
      "erate": 3991,
      "ĠAfrica": 3992,
      "Ġtransform": 3993,
      "orders": 3994,
      "oding": 3995,
      "names": 3996,
      "illing": 3997,
      "ĠAc": 3998,
      "Ġstatic": 3999,
      "olic": 4000,
      "Ġmachine": 4001,
      "Ġworkers": 4002,
      "Ġdark": 4003,
      "ĠMon": 4004,
      "Ġseason": 4005,
      "ĠAfrican": 4006,
      "ĠII": 4007,
      "ĠRed": 4008,
      "Ġinnov": 4009,
      "Ġten": 4010,
      "Ġrespond": 4011,
      "zz": 4012,
      "result": 4013,
      "Ġcele": 4014,
      "rid": 4015,
      "rition": 4016,
      "Ġadults": 4017,
      "oe": 4018,
      "Ġwebsite": 4019,
      "Ġmole": 4020,
      "55": 4021,
      "encies": 4022,
      "Ġchanged": 4023,
      "PO": 4024,
      "Ġalthough": 4025,
      "Ġmiddle": 4026,
      "ributes": 4027,
      "Ġacid": 4028,
      "igen": 4029,
      "Â°": 4030,
      "block": 4031,
      "rie": 4032,
      "cast": 4033,
      "Ġexactly": 4034,
      "function": 4035,
      "Ġfight": 4036,
      "member": 4037,
      "Ġ22": 4038,
      "label": 4039,
      "Ġapply": 4040,
      "lib": 4041,
      "View": 4042,
      "Ġleaves": 4043,
      "ĠFrench": 4044,
      "Ġremove": 4045,
      "Ġprotection": 4046,
      "Ġtold": 4047,
      "Ġdeal": 4048,
      "Ġsec": 4049,
      "rest": 4050,
      "Ġpick": 4051,
      "uman": 4052,
      "'.": 4053,
      "Ġcontroll": 4054,
      "build": 4055,
      "These": 4056,
      "ĠWest": 4057,
      "Ġhyp": 4058,
      "Ġinfluence": 4059,
      "Ġdescription": 4060,
      "ĠGl": 4061,
      "arning": 4062,
      "Att": 4063,
      "body": 4064,
      "Ġbackground": 4065,
      "Ad": 4066,
      "Ġforces": 4067,
      "egin": 4068,
      "Ġeyes": 4069,
      "Ġopportunities": 4070,
      "Ġresponsible": 4071,
      "Ġprice": 4072,
      "Ġice": 4073,
      "Ġmid": 4074,
      "idents": 4075,
      "rical": 4076,
      "Ġgoes": 4077,
      "amer": 4078,
      "Ġestablish": 4079,
      "bra": 4080,
      "Ġexisting": 4081,
      "Ġbul": 4082,
      "parent": 4083,
      "Ġnearly": 4084,
      "ails": 4085,
      "include": 4086,
      "Ġwaste": 4087,
      "anch": 4088,
      "ĠRead": 4089,
      "Ġmention": 4090,
      "Ġdistributed": 4091,
      "Ġdidn": 4092,
      "coh": 4093,
      "68": 4094,
      "Ġvar": 4095,
      "Ġformula": 4096,
      "Ġcoord": 4097,
      "sg": 4098,
      "Ġyield": 4099,
      "Ġrepl": 4100,
      "TY": 4101,
      "Ġteacher": 4102,
      "Ġhabit": 4103,
      "Ġshall": 4104,
      "ĠHer": 4105,
      "Ġreceive": 4106,
      "ham": 4107,
      "Ġunits": 4108,
      "Ġpowerful": 4109,
      "abilities": 4110,
      "Ġstrategies": 4111,
      "No": 4112,
      "Ġfuel": 4113,
      "ĠJust": 4114,
      "Ġegg": 4115,
      "ĠAlthough": 4116,
      "aid": 4117,
      "params": 4118,
      "rade": 4119,
      "ĠRem": 4120,
      "Ġsuccessful": 4121,
      "Ġrunning": 4122,
      "aught": 4123,
      "Ġlocated": 4124,
      "ĠMarch": 4125,
      "desc": 4126,
      "ĠTechn": 4127,
      "Ġball": 4128,
      "ĠUnder": 4129,
      "Ġburn": 4130,
      "Ġorg": 4131,
      "ĠJes": 4132,
      "Ġrob": 4133,
      "Ġcurrently": 4134,
      "Ġwrong": 4135,
      "Ġmig": 4136,
      "Ġmis": 4137,
      "iot": 4138,
      "Ġnucle": 4139,
      "Ġallowed": 4140,
      "ĠChar": 4141,
      "Ġcop": 4142,
      "ĠInter": 4143,
      "IR": 4144,
      "flow": 4145,
      "ĠLear": 4146,
      "ios": 4147,
      "Ġconflic": 4148,
      "cd": 4149,
      "ĠAmericans": 4150,
      "Ġsave": 4151,
      "standing": 4152,
      "ĠAre": 4153,
      "Ġrapid": 4154,
      "pass": 4155,
      "iny": 4156,
      "water": 4157,
      "level": 4158,
      "ĠSince": 4159,
      "Ġvers": 4160,
      "pped": 4161,
      "json": 4162,
      "box": 4163,
      "Ġexpression": 4164,
      "Ġmoving": 4165,
      "Ġstore": 4166,
      "Ġmember": 4167,
      "Ġ28": 4168,
      "Ġnothing": 4169,
      "stances": 4170,
      "Ġmeasures": 4171,
      "Ġvariable": 4172,
      "Ġinteresting": 4173,
      "Ġneigh": 4174,
      "CL": 4175,
      "Ġagricult": 4176,
      "77": 4177,
      "ĠDay": 4178,
      "âĪ": 4179,
      "Ġarri": 4180,
      "wide": 4181,
      "Ġsites": 4182,
      "Ġbasis": 4183,
      "ĠInternational": 4184,
      "opyright": 4185,
      "displaystyle": 4186,
      "Ġevalu": 4187,
      "arian": 4188,
      "otal": 4189,
      "ĠEach": 4190,
      "ĠHistory": 4191,
      "Ġbrought": 4192,
      "Ġtitle": 4193,
      "oming": 4194,
      "Ġdegree": 4195,
      "estic": 4196,
      "rogen": 4197,
      "Ġcrop": 4198,
      "outhern": 4199,
      "board": 4200,
      "Ġexpand": 4201,
      "var": 4202,
      "Ġcapital": 4203,
      "icate": 4204,
      "($": 4205,
      "roy": 4206,
      "Ġauth": 4207,
      "Ġsaw": 4208,
      "Ġforward": 4209,
      "Ġadminist": 4210,
      "Ġadvant": 4211,
      "mosp": 4212,
      "Ġdescribed": 4213,
      "Ġhref": 4214,
      "EX": 4215,
      "ocket": 4216,
      ">>": 4217,
      "Ġrepe": 4218,
      "force": 4219,
      "Ġreligious": 4220,
      "Ġplanet": 4221,
      "Ġstage": 4222,
      "ĠSw": 4223,
      "Ġconstruction": 4224,
      "ĠString": 4225,
      "ĠJune": 4226,
      "Ġcollab": 4227,
      "Ġvert": 4228,
      "urg": 4229,
      "sl": 4230,
      "ĠRiver": 4231,
      "ctors": 4232,
      "enses": 4233,
      "ilos": 4234,
      "Ġequipment": 4235,
      "Ġwrote": 4236,
      "cil": 4237,
      "MA": 4238,
      "Ġnote": 4239,
      "arrow": 4240,
      "page": 4241,
      "Ġoffers": 4242,
      "Ġsummer": 4243,
      "Ġrock": 4244,
      "Text": 4245,
      "but": 4246,
      "Ġactual": 4247,
      "Ġ2014": 4248,
      "ias": 4249,
      "While": 4250,
      "Ġeating": 4251,
      "icon": 4252,
      "Ġdiscovered": 4253,
      "reate": 4254,
      "ellig": 4255,
      "Ġweather": 4256,
      "Ġdead": 4257,
      "ĠBo": 4258,
      "inally": 4259,
      "PL": 4260,
      "respond": 4261,
      "Ġ23": 4262,
      "rick": 4263,
      "));": 4264,
      "Ġpassed": 4265,
      "sin": 4266,
      "mitted": 4267,
      "Ġapplied": 4268,
      "Ġfair": 4269,
      "ometry": 4270,
      "Ġstrength": 4271,
      "Let": 4272,
      "Ġpromot": 4273,
      "connect": 4274,
      "Ġrare": 4275,
      "Ġpiece": 4276,
      "Ġearlier": 4277,
      "][": 4278,
      "Ġign": 4279,
      "atur": 4280,
      "Ġprotein": 4281,
      "last": 4282,
      "reek": 4283,
      "chol": 4284,
      "'ve": 4285,
      "utils": 4286,
      "ulated": 4287,
      "Ġsugar": 4288,
      "ĠGet": 4289,
      "ony": 4290,
      "ĠSept": 4291,
      "ĠMus": 4292,
      "pol": 4293,
      "Ġbacteria": 4294,
      "Ġblue": 4295,
      "link": 4296,
      "Ġolder": 4297,
      "ĠAnt": 4298,
      "ĠFind": 4299,
      "Ġbenefit": 4300,
      "phas": 4301,
      "Ġdict": 4302,
      "Ġjud": 4303,
      "Ġoperations": 4304,
      "process": 4305,
      "Ġprofessional": 4306,
      "pat": 4307,
      "ĠOR": 4308,
      "Ġrecently": 4309,
      "ĠAssoci": 4310,
      "rupt": 4311,
      "Ġborn": 4312,
      "Par": 4313,
      "Ġgradu": 4314,
      "Ġcoll": 4315,
      "sec": 4316,
      "Ġ2009": 4317,
      "ashington": 4318,
      "ULL": 4319,
      "inating": 4320,
      "oper": 4321,
      "itis": 4322,
      "Ġfib": 4323,
      "Ġbehavi": 4324,
      "ĠDef": 4325,
      "Ġcold": 4326,
      "rant": 4327,
      "Ġefficient": 4328,
      "Ġtherapy": 4329,
      "Ġlegal": 4330,
      "ĠEven": 4331,
      "craft": 4332,
      "Ġfa": 4333,
      "post": 4334,
      "inated": 4335,
      "Ġcitiz": 4336,
      "95": 4337,
      "Ġlat": 4338,
      "ĠAdd": 4339,
      "ĠGerman": 4340,
      "Ġwond": 4341,
      "Ġactions": 4342,
      "Ġrich": 4343,
      "orthern": 4344,
      "Ġoccurs": 4345,
      "urb": 4346,
      "Ġargs": 4347,
      "Ġopportunity": 4348,
      "erences": 4349,
      "ĠDav": 4350,
      "care": 4351,
      "edia": 4352,
      "pen": 4353,
      "ama": 4354,
      "doc": 4355,
      "Ġspirit": 4356,
      "Up": 4357,
      "67": 4358,
      "Ġangle": 4359,
      "DO": 4360,
      "EL": 4361,
      "CON": 4362,
      "ĠFeb": 4363,
      "Ġdifferences": 4364,
      "Ġstandards": 4365,
      "vis": 4366,
      "udd": 4367,
      "Ġpolic": 4368,
      "Ġbalance": 4369,
      "Ġswe": 4370,
      "Ġleave": 4371,
      "erved": 4372,
      "Ġlearned": 4373,
      "content": 4374,
      "Ġaffected": 4375,
      "uable": 4376,
      "Ġdrug": 4377,
      "Ġreasons": 4378,
      "Ġtrad": 4379,
      "Ġvict": 4380,
      "IO": 4381,
      "Ġnorth": 4382,
      "âĢĿ.": 4383,
      "unction": 4384,
      "Ġconver": 4385,
      "nb": 4386,
      "ĠApril": 4387,
      "ĠRec": 4388,
      "Ġinstr": 4389,
      "PA": 4390,
      "Ġutil": 4391,
      "ought": 4392,
      "Ġstrugg": 4393,
      "kwargs": 4394,
      "Ġstatement": 4395,
      "31": 4396,
      "Ġcompletely": 4397,
      "ĠOur": 4398,
      "Ġlaws": 4399,
      "anged": 4400,
      "Ġfeature": 4401,
      "Ġzero": 4402,
      "Ġillust": 4403,
      "Ġnorm": 4404,
      "Ġpurch": 4405,
      "Ġfederal": 4406,
      "Ġ&&": 4407,
      "Ġtrade": 4408,
      "\"),": 4409,
      "Ġessay": 4410,
      "Ġhous": 4411,
      "ĠDevelop": 4412,
      "ĠCanada": 4413,
      "Ġcm": 4414,
      "inese": 4415,
      "eta": 4416,
      "ifically": 4417,
      "Ġtou": 4418,
      "omy": 4419,
      "iful": 4420,
      "Class": 4421,
      "=\\": 4422,
      "Ġ]": 4423,
      "Ġfollowed": 4424,
      "ĠPresident": 4425,
      "ĠLab": 4426,
      "ĠClass": 4427,
      "Ġfavor": 4428,
      "Ġcoast": 4429,
      "izer": 4430,
      "Ġenter": 4431,
      "Ġpow": 4432,
      "Ġing": 4433,
      "Def": 4434,
      "aled": 4435,
      "Ġchoice": 4436,
      "ournal": 4437,
      "Ġalone": 4438,
      "Ġ2008": 4439,
      "Ġlabel": 4440,
      "sqrt": 4441,
      "ĠInst": 4442,
      "Ġrecommend": 4443,
      "Ġconsequ": 4444,
      "equal": 4445,
      "Ġfear": 4446,
      "Ġsouth": 4447,
      "ĠEl": 4448,
      "uid": 4449,
      "Ġmag": 4450,
      "Ġsides": 4451,
      "ico": 4452,
      "Ġ27": 4453,
      "\\\\": 4454,
      "ĠMc": 4455,
      "apping": 4456,
      "pty": 4457,
      "ĠAugust": 4458,
      "uit": 4459,
      "ĠCity": 4460,
      "Ġperspect": 4461,
      "oses": 4462,
      "Ph": 4463,
      "Ġmut": 4464,
      "ĠOver": 4465,
      "reet": 4466,
      "oo": 4467,
      "ESS": 4468,
      "ĠChristian": 4469,
      "ĠJesus": 4470,
      "Ġtrig": 4471,
      "ĠLevel": 4472,
      "Some": 4473,
      "Ġsitu": 4474,
      "05": 4475,
      "Ġserver": 4476,
      "public": 4477,
      "Ġnav": 4478,
      "msg": 4479,
      "Ġult": 4480,
      "ship": 4481,
      "Ġexposure": 4482,
      "ĠPark": 4483,
      "color": 4484,
      "df": 4485,
      "Ġrise": 4486,
      "Ġsurg": 4487,
      "ĠEducation": 4488,
      "race": 4489,
      "Ġteach": 4490,
      "pret": 4491,
      "Ġorganization": 4492,
      "rael": 4493,
      "Ġpicture": 4494,
      "ĠJuly": 4495,
      "Form": 4496,
      "ĠAlso": 4497,
      "Ġmess": 4498,
      "unk": 4499,
      "Ġwin": 4500,
      "Ġbillion": 4501,
      "ibly": 4502,
      "CC": 4503,
      "ĠOf": 4504,
      "Ġbelief": 4505,
      "Ġreduced": 4506,
      "ĠCommun": 4507,
      "Ġcontinued": 4508,
      "Ġinvolves": 4509,
      "98": 4510,
      "Ġsetting": 4511,
      "output": 4512,
      "iance": 4513,
      "Man": 4514,
      "Ġcompl": 4515,
      "sm": 4516,
      "Ġfather": 4517,
      "Ġstarting": 4518,
      "rab": 4519,
      "ĠSet": 4520,
      "aur": 4521,
      "ses": 4522,
      "ĠGreat": 4523,
      "Ġplaced": 4524,
      "Ġwatch": 4525,
      "Step": 4526,
      "ĠCong": 4527,
      "Ġanti": 4528,
      "Ġhon": 4529,
      "adata": 4530,
      "ĠCur": 4531,
      "PS": 4532,
      "Ġdouble": 4533,
      "Ġpet": 4534,
      "ĠWashington": 4535,
      "Ġeconomy": 4536,
      "Ġresistance": 4537,
      "Ġfinding": 4538,
      "ocr": 4539,
      "Ġdiabetes": 4540,
      "alt": 4541,
      "Ġsigns": 4542,
      "gress": 4543,
      "cohol": 4544,
      "wer": 4545,
      "olumn": 4546,
      "Ġplatform": 4547,
      "Ġaspects": 4548,
      "Ġbirds": 4549,
      "Ġhosp": 4550,
      "Ġcoming": 4551,
      "EST": 4552,
      "Ġincreases": 4553,
      "ensions": 4554,
      "ĠHol": 4555,
      "ĠAccording": 4556,
      "Ġdied": 4557,
      "Ġ->": 4558,
      "Ġrelationships": 4559,
      "ĠProgram": 4560,
      "ĠEngland": 4561,
      "Ġtopic": 4562,
      "Ġ2015": 4563,
      "Ġteeth": 4564,
      "xi": 4565,
      "Ġguide": 4566,
      "upport": 4567,
      "Ġchallenge": 4568,
      "ĠSub": 4569,
      "Here": 4570,
      "Ġstructures": 4571,
      "02": 4572,
      "Ġgir": 4573,
      "aul": 4574,
      "idden": 4575,
      "ATE": 4576,
      "Ġwinter": 4577,
      "Ġdrugs": 4578,
      "ĠVal": 4579,
      "acters": 4580,
      "Ġreference": 4581,
      "omb": 4582,
      "Ġcapacity": 4583,
      "Ġjoint": 4584,
      "Ġoperation": 4585,
      "ĠFoundation": 4586,
      "Ġpregn": 4587,
      "image": 4588,
      "ees": 4589,
      "ĠMath": 4590,
      "Ġgold": 4591,
      "47": 4592,
      "Ġeasier": 4593,
      "Ġemail": 4594,
      "Ġmer": 4595,
      "Ġatmosp": 4596,
      "Ġcorrespond": 4597,
      "stant": 4598,
      "Ġworth": 4599,
      "Ġcommonly": 4600,
      "Address": 4601,
      "ĠVir": 4602,
      "cember": 4603,
      "Ġalgor": 4604,
      "house": 4605,
      "yd": 4606,
      "cp": 4607,
      "Ġeffic": 4608,
      "Ġworked": 4609,
      "Ġmob": 4610,
      "Ġeight": 4611,
      "Ġdegrees": 4612,
      "Ġrain": 4613,
      "func": 4614,
      "Ġshared": 4615,
      "Ġformed": 4616,
      "Ġcand": 4617,
      "ĠCounty": 4618,
      "49": 4619,
      "Ġfresh": 4620,
      "current": 4621,
      "Ġargument": 4622,
      "NU": 4623,
      "entry": 4624,
      "Ġcompar": 4625,
      "Ġcrucial": 4626,
      "88": 4627,
      "ML": 4628,
      "Ġgets": 4629,
      "eline": 4630,
      "rief": 4631,
      "Ġlib": 4632,
      "Ġmock": 4633,
      "ĠHigh": 4634,
      "(\\": 4635,
      "After": 4636,
      "Ġacad": 4637,
      "umb": 4638,
      "Ref": 4639,
      "ĠReturn": 4640,
      "ros": 4641,
      "ests": 4642,
      "ously": 4643,
      "ams": 4644,
      "Ġcry": 4645,
      "uint": 4646,
      "Ġhappen": 4647,
      "New": 4648,
      "ingu": 4649,
      "Ġwoman": 4650,
      "rew": 4651,
      "MS": 4652,
      "'))": 4653,
      "Read": 4654,
      "Ġarchitect": 4655,
      "Ġsys": 4656,
      "Ġencourag": 4657,
      "Ġclient": 4658,
      "++": 4659,
      "Ġbottom": 4660,
      "using": 4661,
      "Ġfully": 4662,
      "Ġson": 4663,
      "rows": 4664,
      "reedom": 4665,
      "42": 4666,
      "ifier": 4667,
      "ste": 4668,
      "bug": 4669,
      "ĠCor": 4670,
      "Ġlayer": 4671,
      "Ġgiving": 4672,
      "Ġ26": 4673,
      "Ġsignificantly": 4674,
      "Ġincorpor": 4675,
      "usion": 4676,
      "Ġacqu": 4677,
      "bt": 4678,
      "Ġwat": 4679,
      "rep": 4680,
      "ovember": 4681,
      "ĠBlack": 4682,
      "bal": 4683,
      "comes": 4684,
      "ĠWilliam": 4685,
      "address": 4686,
      "Ġcompre": 4687,
      "ĠLaw": 4688,
      "Ġsin": 4689,
      "ĠPat": 4690,
      "TER": 4691,
      "Ġdefinition": 4692,
      "ĠChall": 4693,
      "Ġconcepts": 4694,
      "Ġorganizations": 4695,
      "ĠSoci": 4696,
      "Ġcore": 4697,
      "Ġhappens": 4698,
      "Ġtransfer": 4699,
      "App": 4700,
      "Ġboard": 4701,
      "Ġapprec": 4702,
      "Ġwa": 4703,
      "open": 4704,
      "ran": 4705,
      "Ġplanning": 4706,
      "ĠKe": 4707,
      "Ġchance": 4708,
      "ĠSpec": 4709,
      "conds": 4710,
      "Ġpref": 4711,
      "Ġconstit": 4712,
      "Ġsolid": 4713,
      "Ġinstruct": 4714,
      "rome": 4715,
      "Over": 4716,
      "ĠDuring": 4717,
      "Ġconnected": 4718,
      "Ġvariables": 4719,
      "olean": 4720,
      "Ġreplace": 4721,
      "ĠChinese": 4722,
      "Ġthousands": 4723,
      "lamm": 4724,
      "Ġvaluable": 4725,
      "Ġinternal": 4726,
      "State": 4727,
      "enty": 4728,
      "ĠMex": 4729,
      "ĠSeptember": 4730,
      "Ġcommerc": 4731,
      "ĠJanuary": 4732,
      "Ġemissions": 4733,
      ")(": 4734,
      "iences": 4735,
      "Ġperhaps": 4736,
      "wards": 4737,
      "Node": 4738,
      "vision": 4739,
      "sol": 4740,
      "ĠCON": 4741,
      "Ġgenetic": 4742,
      "Ġmaximum": 4743,
      "Ġfindings": 4744,
      "Ġ90": 4745,
      "Ġbreath": 4746,
      "Ġround": 4747,
      "\";": 4748,
      "Ġtrust": 4749,
      "aste": 4750,
      "ĠTheir": 4751,
      "Ġsettings": 4752,
      "Ġhimself": 4753,
      "title": 4754,
      "icip": 4755,
      "Ġtru": 4756,
      "ocal": 4757,
      "ĠST": 4758,
      "Ġserve": 4759,
      "ĠData": 4760,
      "Ġemphas": 4761,
      "Ġbaby": 4762,
      "ĠGovern": 4763,
      "Ġfruit": 4764,
      "urt": 4765,
      "pha": 4766,
      "Ġregarding": 4767,
      "Ġtechnologies": 4768,
      "Ġexperiment": 4769,
      "rices": 4770,
      "Ġillness": 4771,
      "filter": 4772,
      "DA": 4773,
      "ĠIsrael": 4774,
      "ĠUN": 4775,
      "Ġsequence": 4776,
      "options": 4777,
      "exp": 4778,
      "resents": 4779,
      "Ġ80": 4780,
      "Ġ(\"": 4781,
      "Ġcelebr": 4782,
      "Ġ2007": 4783,
      "69": 4784,
      "Ġassist": 4785,
      "Ġded": 4786,
      "Ġcities": 4787,
      "That": 4788,
      "Ġsurpr": 4789,
      "ĠBecause": 4790,
      "'}),": 4791,
      "onal": 4792,
      "ille": 4793,
      "iable": 4794,
      "fe": 4795,
      "Tr": 4796,
      "Ġkil": 4797,
      "Ġgoals": 4798,
      "Ġindependent": 4799,
      "ĠPress": 4800,
      "ica": 4801,
      "othes": 4802,
      "Ġprobability": 4803,
      "rams": 4804,
      "ĠOctober": 4805,
      "ĠAng": 4806,
      "elines": 4807,
      "Ġdiscover": 4808,
      "gener": 4809,
      "Ġappears": 4810,
      "lines": 4811,
      "Ġcos": 4812,
      "Ġmode": 4813,
      "has": 4814,
      "Ġeducational": 4815,
      "Ġdrop": 4816,
      "ersion": 4817,
      "ĠTHE": 4818,
      "Ġstorage": 4819,
      "aign": 4820,
      "Ġcontribut": 4821,
      "Ġrelease": 4822,
      "Ġdecisions": 4823,
      "roid": 4824,
      "Ġoccup": 4825,
      "Ġord": 4826,
      "Ġcolumn": 4827,
      "ĠFl": 4828,
      "lick": 4829,
      "Ġqual": 4830,
      "server": 4831,
      "Ġtox": 4832,
      "Ġsend": 4833,
      "event": 4834,
      "long": 4835,
      "HT": 4836,
      "ĠSu": 4837,
      "width": 4838,
      "dated": 4839,
      "Ġnovel": 4840,
      "ondon": 4841,
      "Ġidentity": 4842,
      "Ġcounter": 4843,
      "Ġwanted": 4844,
      "Ġhair": 4845,
      "free": 4846,
      "ĠRef": 4847,
      "Ġreturned": 4848,
      "Ġimmune": 4849,
      "find": 4850,
      "ouncil": 4851,
      "Ġweak": 4852,
      "Ġcontract": 4853,
      "Ġpen": 4854,
      "split": 4855,
      "04": 4856,
      "Ġcharacters": 4857,
      "Ġalternative": 4858,
      "Ġchanging": 4859,
      "Ġformer": 4860,
      "Ġnotice": 4861,
      "Ġmonit": 4862,
      "ĠSan": 4863,
      "ĠThrough": 4864,
      "Ġmo": 4865,
      "Sub": 4866,
      "Ġliqu": 4867,
      "Ġevolution": 4868,
      "Ġstaff": 4869,
      "OL": 4870,
      "Ġpeace": 4871,
      "ĠChurch": 4872,
      "IF": 4873,
      "ifying": 4874,
      "Ġdynam": 4875,
      "Ġidentified": 4876,
      "Ġentry": 4877,
      "Ġbatter": 4878,
      "Ġdistinct": 4879,
      "cs": 4880,
      "Ġshowed": 4881,
      "ĠEast": 4882,
      "Ġclasses": 4883,
      "Ġplans": 4884,
      "Ġchapter": 4885,
      "response": 4886,
      "Ġnutri": 4887,
      "iding": 4888,
      "Model": 4889,
      "Many": 4890,
      "Ġgames": 4891,
      "Ġprinciples": 4892,
      "Ġmatrix": 4893,
      "anges": 4894,
      "Ġmouth": 4895,
      "Ġgave": 4896,
      "option": 4897,
      "che": 4898,
      "anging": 4899,
      "Ġrequirements": 4900,
      "Ġrecords": 4901,
      "ĠPeople": 4902,
      "cel": 4903,
      "Ġincome": 4904,
      "Ġfilter": 4905,
      "Ġseparate": 4906,
      "ĠBook": 4907,
      "plications": 4908,
      "Ġapproximately": 4909,
      "Ġrelatively": 4910,
      "road": 4911,
      "ĠEnvironment": 4912,
      "```": 4913,
      "Ġfemale": 4914,
      "Ġhol": 4915,
      "Ġseg": 4916,
      "Ġadjust": 4917,
      "Ġresulting": 4918,
      "ĠRel": 4919,
      "Ġlandsc": 4920,
      "Ġreports": 4921,
      "Ġtransl": 4922,
      "ĠWater": 4923,
      "Ġsignal": 4924,
      "Ġesc": 4925,
      "Ġcontribute": 4926,
      "Ġeventually": 4927,
      "atin": 4928,
      "Ġexhib": 4929,
      "Ġiniti": 4930,
      "Ġking": 4931,
      "ords": 4932,
      "nbsp": 4933,
      "ruary": 4934,
      "ĠSur": 4935,
      "target": 4936,
      "Ġglass": 4937,
      "Ġspring": 4938,
      "Ġscen": 4939,
      "uster": 4940,
      "Base": 4941,
      "ialog": 4942,
      "Or": 4943,
      "Ġmission": 4944,
      "iring": 4945,
      "Ġplease": 4946,
      "gebra": 4947,
      "Ġjournal": 4948,
      "ools": 4949,
      "Ġ2016": 4950,
      "Ġelim": 4951,
      "$.": 4952,
      "ĠThus": 4953,
      "Ġrepresents": 4954,
      "Ġpieces": 4955,
      "Ġvary": 4956,
      "ĠBr": 4957,
      "Ġstar": 4958,
      "Ġhour": 4959,
      "TH": 4960,
      "PR": 4961,
      "std": 4962,
      "Ġanyone": 4963,
      "Ġnative": 4964,
      "Ġconsumption": 4965,
      "Ġregions": 4966,
      "ĠDNA": 4967,
      "ĠBar": 4968,
      "Ġcalculate": 4969,
      "anish": 4970,
      "dered": 4971,
      "Ġsav": 4972,
      "ilit": 4973,
      "Ġbra": 4974,
      "ĠProf": 4975,
      "Char": 4976,
      "ping": 4977,
      "vir": 4978,
      "Of": 4979,
      "Ġpresence": 4980,
      "loat": 4981,
      "omin": 4982,
      "Ġlinear": 4983,
      "Ġabsor": 4984,
      "Ġphilos": 4985,
      "osite": 4986,
      "Ġcircle": 4987,
      "Ġfrequency": 4988,
      "ĠÐ": 4989,
      "Ġready": 4990,
      "Ġnumerous": 4991,
      "MO": 4992,
      "Ġmilk": 4993,
      "ped": 4994,
      "Ġnotes": 4995,
      "Ġsets": 4996,
      "Ġstraight": 4997,
      "anguages": 4998,
      "query": 4999,
      "Ġrisks": 5000,
      "Ġcomponent": 5001,
      "Ġbodies": 5002,
      "acing": 5003,
      "hab": 5004,
      "Ġgarden": 5005,
      "ĠInc": 5006,
      "Ġimmedi": 5007,
      "iant": 5008,
      "SC": 5009,
      "Ġexcess": 5010,
      "Ġspect": 5011,
      "Config": 5012,
      "Ġbuy": 5013,
      "Ġmaster": 5014,
      "device": 5015,
      "main": 5016,
      "Ġattract": 5017,
      "Ġslight": 5018,
      "#####": 5019,
      "orge": 5020,
      "46": 5021,
      "Ġbreast": 5022,
      "ĠDecember": 5023,
      "Ġclick": 5024,
      "ĠUnion": 5025,
      "Ġclassroom": 5026,
      "Ġ197": 5027,
      "ĠJournal": 5028,
      "http": 5029,
      "Ġpolicies": 5030,
      "cal": 5031,
      "They": 5032,
      "section": 5033,
      "Ġcomment": 5034,
      "Ġletter": 5035,
      "TO": 5036,
      "Ġtele": 5037,
      "Ġmajority": 5038,
      "win": 5039,
      "stitution": 5040,
      "ĠAustralia": 5041,
      "values": 5042,
      "Ġimmediately": 5043,
      "ĠSk": 5044,
      "ipe": 5045,
      "Ġgeneration": 5046,
      "ĠHouse": 5047,
      "Ġtissue": 5048,
      "Ġfasc": 5049,
      "ĠTherefore": 5050,
      "ĠWeb": 5051,
      "Ġforeign": 5052,
      "Ġconvers": 5053,
      "ĠWork": 5054,
      "Ġremoved": 5055,
      "ĠHel": 5056,
      "Ġpromote": 5057,
      "Ġliterature": 5058,
      "emy": 5059,
      "Ġsuggests": 5060,
      "Ġvision": 5061,
      "apers": 5062,
      "Ġ||": 5063,
      "ether": 5064,
      "ĠWhy": 5065,
      "tered": 5066,
      "Ġadvanced": 5067,
      "Ġseven": 5068,
      "ui": 5069,
      "Ġmedicine": 5070,
      "Ġcitizens": 5071,
      "ĠJewish": 5072,
      "Ġfamous": 5073,
      "Ġconcerns": 5074,
      "59": 5075,
      "Ġallowing": 5076,
      "Ġlesson": 5077,
      "Ġsurvey": 5078,
      "Ġ29": 5079,
      "objects": 5080,
      "Ġpages": 5081,
      "ribe": 5082,
      "parse": 5083,
      "emporary": 5084,
      "Ġtrend": 5085,
      "isf": 5086,
      "CD": 5087,
      "Check": 5088,
      "util": 5089,
      "Ġvill": 5090,
      "eger": 5091,
      "amm": 5092,
      "PI": 5093,
      "ulum": 5094,
      "Ġjourney": 5095,
      "ĠTra": 5096,
      "Ġheard": 5097,
      "ĠDec": 5098,
      "amental": 5099,
      "However": 5100,
      "Ġdecided": 5101,
      "rip": 5102,
      "Ret": 5103,
      "atically": 5104,
      "Ġhighest": 5105,
      "Ġbeautiful": 5106,
      "Ġpartners": 5107,
      "Ġeffectively": 5108,
      "Ġhuge": 5109,
      "Ġrelative": 5110,
      "Ġreducing": 5111,
      "ĠNovember": 5112,
      "Ġmotion": 5113,
      "Ġreality": 5114,
      "Ġ$$\\": 5115,
      "Ġelectricity": 5116,
      "Ġantib": 5117,
      "ructure": 5118,
      "Ġinvolve": 5119,
      "Ġalcohol": 5120,
      "Ġcombination": 5121,
      "Ġdiverse": 5122,
      "ĠConf": 5123,
      "Ġscreen": 5124,
      "Ġlived": 5125,
      "ategy": 5126,
      "Ġcycle": 5127,
      "which": 5128,
      "08": 5129,
      "Ġexperim": 5130,
      "Ġriver": 5131,
      "construct": 5132,
      "ĠArch": 5133,
      "Ġbank": 5134,
      "({": 5135,
      "align": 5136,
      "oved": 5137,
      "Ġauthors": 5138,
      "Ġdecades": 5139,
      "Ġcausing": 5140,
      "Ġroll": 5141,
      "keys": 5142,
      "Ġhandle": 5143,
      "xygen": 5144,
      "ancing": 5145,
      "FA": 5146,
      "Ġcharge": 5147,
      "Ġstim": 5148,
      "ographic": 5149,
      "Ġbecoming": 5150,
      "03": 5151,
      "Ġurban": 5152,
      "Ġdiscussion": 5153,
      "ĠSociety": 5154,
      "Ġfailure": 5155,
      "Ġiron": 5156,
      "mm": 5157,
      "Ġtreated": 5158,
      "ologist": 5159,
      "Ġfinally": 5160,
      "Ġintellig": 5161,
      "ĠPlan": 5162,
      "uses": 5163,
      "imer": 5164,
      "Ġheavy": 5165,
      "xiety": 5166,
      "ASA": 5167,
      "Ġuns": 5168,
      "Ġupdate": 5169,
      "Ġupper": 5170,
      "Item": 5171,
      "Ġwall": 5172,
      "Ġaw": 5173,
      "nergy": 5174,
      "Ġplastic": 5175,
      "ĠSer": 5176,
      "onent": 5177,
      "Ġratio": 5178,
      "ĠPhys": 5179,
      "ested": 5180,
      "58": 5181,
      "ĠMedic": 5182,
      "Ġpret": 5183,
      "Ġoffice": 5184,
      "Ġdepending": 5185,
      "Ġhelping": 5186,
      "ĠLondon": 5187,
      "select": 5188,
      "Ġprefer": 5189,
      "Ġhom": 5190,
      "ĠOnce": 5191,
      "Ġsimpl": 5192,
      "ĠAssociation": 5193,
      "ĠUK": 5194,
      "xc": 5195,
      "Ġadding": 5196,
      "Ġec": 5197,
      "ĠUsing": 5198,
      "Ġcomfort": 5199,
      "Path": 5200,
      "close": 5201,
      "Ġtechnique": 5202,
      "Ġtasks": 5203,
      "conf": 5204,
      "expected": 5205,
      "Ġcreation": 5206,
      "Event": 5207,
      "ĠRoman": 5208,
      "Ġequival": 5209,
      "Ġcircum": 5210,
      "ailed": 5211,
      "63": 5212,
      "Ġtemperatures": 5213,
      "Ġmarg": 5214,
      "57": 5215,
      "Ġdescribe": 5216,
      "Ġequations": 5217,
      ")/": 5218,
      "begin": 5219,
      "ris": 5220,
      "Ġinsect": 5221,
      "Ġrelevant": 5222,
      "ictionary": 5223,
      "Ġbelieved": 5224,
      "ĠChallenge": 5225,
      "rations": 5226,
      "Ġ2000": 5227,
      "Case": 5228,
      "Ġsession": 5229,
      "orial": 5230,
      "ĠProject": 5231,
      "Ġdrive": 5232,
      "igure": 5233,
      "}$$": 5234,
      "Ġbed": 5235,
      "crete": 5236,
      "Ġprepar": 5237,
      "then": 5238,
      "SD": 5239,
      "Ġtopics": 5240,
      "Ġhomes": 5241,
      "des": 5242,
      "Ġabsol": 5243,
      "Ġ2017": 5244,
      "Request": 5245,
      "Ġchurch": 5246,
      "Ġfert": 5247,
      "ĠCopyright": 5248,
      "bin": 5249,
      "ĠNULL": 5250,
      "ANT": 5251,
      "Ġmoved": 5252,
      "43": 5253,
      "41": 5254,
      "semb": 5255,
      "Ġgenerate": 5256,
      "Ġobserved": 5257,
      "Ġcommercial": 5258,
      "Ġcontaining": 5259,
      "ĠPost": 5260,
      "Ġchoices": 5261,
      "Ġlooks": 5262,
      "Ġsexual": 5263,
      "zing": 5264,
      "ĠWell": 5265,
      "Ġreleased": 5266,
      "Ġpopulations": 5267,
      "anation": 5268,
      "User": 5269,
      "Ġaccel": 5270,
      "ĠList": 5271,
      "Ġlibrary": 5272,
      "oma": 5273,
      "Ġmetal": 5274,
      "Ġtruth": 5275,
      "ĠDon": 5276,
      "Ġhelped": 5277,
      "ĠExpl": 5278,
      "$\\": 5279,
      "Ġpresented": 5280,
      "Ġdisorder": 5281,
      "Ġgender": 5282,
      "Can": 5283,
      "Ġphen": 5284,
      "Ġintroduced": 5285,
      "Ġfollows": 5286,
      "ball": 5287,
      "Ġsupported": 5288,
      "Ġmuscle": 5289,
      "SI": 5290,
      "Ġturned": 5291,
      "ĠGreen": 5292,
      "Ġ2006": 5293,
      "Ġassign": 5294,
      "xb": 5295,
      "TP": 5296,
      "Out": 5297,
      "Ġcollege": 5298,
      "Ġbone": 5299,
      "Ġurl": 5300,
      "Ġexperts": 5301,
      "Ġextremely": 5302,
      "project": 5303,
      "uing": 5304,
      "Ġprofession": 5305,
      "ride": 5306,
      "ĠBi": 5307,
      "antic": 5308,
      "empty": 5309,
      "Ġdiag": 5310,
      "tag": 5311,
      "ĠGermany": 5312,
      "gypt": 5313,
      "Ġsurrounding": 5314,
      "icated": 5315,
      "och": 5316,
      "Ġvector": 5317,
      "Ġmanage": 5318,
      "Ġfaith": 5319,
      "UP": 5320,
      "rum": 5321,
      "ressed": 5322,
      "Ġfrequently": 5323,
      "position": 5324,
      "ocation": 5325,
      "prot": 5326,
      "agine": 5327,
      "mode": 5328,
      "Ġcomprehens": 5329,
      "ĠTO": 5330,
      "ayer": 5331,
      "fs": 5332,
      "stract": 5333,
      "gin": 5334,
      "Ġencourage": 5335,
      "eloc": 5336,
      "ĠInternet": 5337,
      "Ġparalle": 5338,
      "Ġcovered": 5339,
      "Ġdivided": 5340,
      "Ġexpert": 5341,
      "Ġprocessing": 5342,
      "ologists": 5343,
      "Ġsem": 5344,
      "iling": 5345,
      "uns": 5346,
      "Ġinterpret": 5347,
      "going": 5348,
      "Ser": 5349,
      "Log": 5350,
      "omas": 5351,
      "ĠMich": 5352,
      "Ip": 5353,
      "olve": 5354,
      "Ġclinical": 5355,
      "eria": 5356,
      "ara": 5357,
      "Ġbuildings": 5358,
      "Ġrepro": 5359,
      "Sim": 5360,
      "Ġestimated": 5361,
      "Ġindustrial": 5362,
      "Ġdatabase": 5363,
      "61": 5364,
      "Ġtour": 5365,
      "ĠCongress": 5366,
      "Ġpresident": 5367,
      "cher": 5368,
      "urance": 5369,
      "iveness": 5370,
      "Ġotherwise": 5371,
      "inder": 5372,
      "ĠMake": 5373,
      "Ġnutrition": 5374,
      "Ġisinstance": 5375,
      "Ġstrategy": 5376,
      "Info": 5377,
      "Inter": 5378,
      "Ġwidth": 5379,
      "Ġprime": 5380,
      "Ġtrou": 5381,
      "Ġdb": 5382,
      "Ġdra": 5383,
      "ĠStudents": 5384,
      "Ġemotional": 5385,
      "ado": 5386,
      "Ġnuclear": 5387,
      "First": 5388,
      "Ġrecommended": 5389,
      "Ġgrade": 5390,
      "ooth": 5391,
      "Ġkid": 5392,
      "ĠToday": 5393,
      "asion": 5394,
      "Ġfeeling": 5395,
      "ogen": 5396,
      "ĠGen": 5397,
      "Ġunc": 5398,
      "Ġocean": 5399,
      "Ġmale": 5400,
      "Ġhit": 5401,
      "Ġmist": 5402,
      "Ġengineering": 5403,
      "Ġseed": 5404,
      "Ġpoly": 5405,
      "ĠAddition": 5406,
      "Ġexists": 5407,
      "cular": 5408,
      "DF": 5409,
      "Ġsac": 5410,
      "Ġonto": 5411,
      "first": 5412,
      "copy": 5413,
      "Ġbelong": 5414,
      "Ġpull": 5415,
      "Ġroots": 5416,
      "aint": 5417,
      "ĠMark": 5418,
      "eper": 5419,
      "Ġdivers": 5420,
      "Ġdepression": 5421,
      "Ġbond": 5422,
      "ĠCollege": 5423,
      "ĠHar": 5424,
      "Ġoxygen": 5425,
      "Ġsituations": 5426,
      "char": 5427,
      "Ġradio": 5428,
      "Ġexecut": 5429,
      "Ġsand": 5430,
      "ida": 5431,
      "Ġgene": 5432,
      "De": 5433,
      "Ġ70": 5434,
      "];": 5435,
      "');": 5436,
      "ĠWestern": 5437,
      "ĠForm": 5438,
      "np": 5439,
      "Ġproperly": 5440,
      "ponse": 5441,
      "auth": 5442,
      "Ġkm": 5443,
      ")=": 5444,
      "62": 5445,
      "'m": 5446,
      "Ġcharg": 5447,
      "Ġclearly": 5448,
      "ĠAD": 5449,
      "','": 5450,
      "ĠFebruary": 5451,
      "ĠDi": 5452,
      "hent": 5453,
      "Fact": 5454,
      "Ġrefers": 5455,
      "Ġdie": 5456,
      "Ġwindow": 5457,
      "Ġcert": 5458,
      "Ġconv": 5459,
      "ĠService": 5460,
      "BC": 5461,
      "Ġconservation": 5462,
      "Ġadult": 5463,
      "Size": 5464,
      "Ġdestroy": 5465,
      "(_": 5466,
      "ĠFrance": 5467,
      "Ġ35": 5468,
      "Trans": 5469,
      "Ġhear": 5470,
      "igenous": 5471,
      "Ġjo": 5472,
      "ĠOut": 5473,
      "Ġspecified": 5474,
      "Ġflood": 5475,
      "Ġfost": 5476,
      "items": 5477,
      "Ġinches": 5478,
      "Ġcontrast": 5479,
      "Ġconnections": 5480,
      "Ġcontinuous": 5481,
      "ortunately": 5482,
      "Call": 5483,
      "Ġprotected": 5484,
      "Be": 5485,
      "Ġspot": 5486,
      "Ġschol": 5487,
      "exec": 5488,
      "faces": 5489,
      "Ġopin": 5490,
      "Ġspecifically": 5491,
      "Ġcharacteristics": 5492,
      "Ġminimum": 5493,
      "Ġthick": 5494,
      "tage": 5495,
      "ugin": 5496,
      "Ġproport": 5497,
      "Ġmentioned": 5498,
      "ĠAir": 5499,
      "More": 5500,
      "Ġunf": 5501,
      "Ġvul": 5502,
      "Ġdisorders": 5503,
      "ĠÃĹ": 5504,
      "null": 5505,
      "Ġrace": 5506,
      "enth": 5507,
      "Why": 5508,
      "eties": 5509,
      "Ġperm": 5510,
      "Ġunivers": 5511,
      "rand": 5512,
      "Ġnavig": 5513,
      "Ġmsg": 5514,
      "SA": 5515,
      "(-": 5516,
      "mem": 5517,
      "Do": 5518,
      "ĠPhil": 5519,
      "ĠIts": 5520,
      "Ġsustainable": 5521,
      "asure": 5522,
      "Ġminor": 5523,
      "Ġhousehold": 5524,
      "Ġspeech": 5525,
      "ĠEgypt": 5526,
      "Ġconducted": 5527,
      "Ġefficiency": 5528,
      "Ġannual": 5529,
      "ira": 5530,
      "Ġselected": 5531,
      "Ġinvent": 5532,
      "Ġsaying": 5533,
      "Ġradiation": 5534,
      "ĠSch": 5535,
      "Ġplaying": 5536,
      "Ġexperienced": 5537,
      "delete": 5538,
      "Ġinterested": 5539,
      "Ġaren": 5540,
      "Ġviolence": 5541,
      "Ġcarried": 5542,
      "Ġanswers": 5543,
      "Ġawareness": 5544,
      "ĠFree": 5545,
      "ptions": 5546,
      "Ġassessment": 5547,
      "Ġmeeting": 5548,
      "sor": 5549,
      "Ġsynt": 5550,
      "Ġlanguages": 5551,
      "Ġparty": 5552,
      "Ġphase": 5553,
      "Ġdefine": 5554,
      "Ġthread": 5555,
      "Ġlegis": 5556,
      "Ġtrain": 5557,
      "ĠUp": 5558,
      "Ġfailed": 5559,
      "ĠMary": 5560,
      "debug": 5561,
      "Ġwonder": 5562,
      "Hand": 5563,
      "Ġ2005": 5564,
      "Ġleads": 5565,
      "ĠCheck": 5566,
      "pc": 5567,
      "Ġdetermined": 5568,
      "Ġ(!": 5569,
      "Ġfreedom": 5570,
      "ani": 5571,
      "97": 5572,
      "ainer": 5573,
      "Ġwidely": 5574,
      "Ġperformed": 5575,
      "ĠPal": 5576,
      "script": 5577,
      "Count": 5578,
      ")$": 5579,
      "ftware": 5580,
      "Ġfract": 5581,
      "iverse": 5582,
      "heet": 5583,
      "command": 5584,
      "Ġdomain": 5585,
      "Ġcampaign": 5586,
      "hetic": 5587,
      "âĢĿ,": 5588,
      "poses": 5589,
      "AME": 5590,
      "Ġvital": 5591,
      "Ġcourt": 5592,
      "ART": 5593,
      "Ġamounts": 5594,
      "imize": 5595,
      "Ġspent": 5596,
      "Ġ45": 5597,
      "Ġtum": 5598,
      "ĠBas": 5599,
      "Reg": 5600,
      "Ġï": 5601,
      "Ġsyn": 5602,
      "mock": 5603,
      "ĠEqu": 5604,
      "Ġlinked": 5605,
      "Ġsamples": 5606,
      "isation": 5607,
      "Ġparticipants": 5608,
      "aker": 5609,
      "According": 5610,
      "Ġfol": 5611,
      "Rec": 5612,
      "Ġtouch": 5613,
      "ĠDist": 5614,
      "Ġborder": 5615,
      "ĠAtt": 5616,
      "dri": 5617,
      "MP": 5618,
      "cache": 5619,
      "Ġ'''": 5620,
      "EE": 5621,
      "ishing": 5622,
      "Ġmeant": 5623,
      "Ġoutcomes": 5624,
      "Ġ/**": 5625,
      "Ġcolle": 5626,
      "osen": 5627,
      "ĠChildren": 5628,
      "Ġadvance": 5629,
      "ĠDavid": 5630,
      "Ġbool": 5631,
      "za": 5632,
      "ĠTwo": 5633,
      "ĠJapanese": 5634,
      "Ġsurgery": 5635,
      ")))": 5636,
      "Ġcup": 5637,
      "Ġcamer": 5638,
      "Ġobj": 5639,
      "Ġlessons": 5640,
      "Ġnarr": 5641,
      "nes": 5642,
      "Ġpractical": 5643,
      "Ġcontinues": 5644,
      "ture": 5645,
      "VER": 5646,
      "files": 5647,
      "normal": 5648,
      "ario": 5649,
      "07": 5650,
      "Ġschem": 5651,
      "ĠDevelopment": 5652,
      "zer": 5653,
      "Ġvot": 5654,
      "Ġacademic": 5655,
      "Ġarm": 5656,
      "Ġimproved": 5657,
      "Ġorganic": 5658,
      "Ġisol": 5659,
      "ĠLa": 5660,
      "\"><": 5661,
      "akers": 5662,
      "Ġexternal": 5663,
      "Index": 5664,
      "Ġprofessor": 5665,
      "Ġdogs": 5666,
      "icial": 5667,
      ")]": 5668,
      "Ġdram": 5669,
      "Ġchronic": 5670,
      "la": 5671,
      "ulf": 5672,
      "Ġswitch": 5673,
      "bed": 5674,
      "ĠCour": 5675,
      "uzz": 5676,
      "Ġgrant": 5677,
      "Ġreturns": 5678,
      "ĠFurther": 5679,
      "Ġphysic": 5680,
      "ameter": 5681,
      "Ġpal": 5682,
      "Ġfaster": 5683,
      "Ġcolors": 5684,
      "ĠBra": 5685,
      "Ġfilled": 5686,
      "Ġ32": 5687,
      "Ġflex": 5688,
      "isher": 5689,
      "ync": 5690,
      "Ġowners": 5691,
      "ĠOff": 5692,
      "Ġanxiety": 5693,
      "icks": 5694,
      "elocity": 5695,
      "ognitive": 5696,
      "Ġprepared": 5697,
      "Ġsuppl": 5698,
      "ĠValue": 5699,
      "Ġcatch": 5700,
      "ĠJames": 5701,
      "Ġpush": 5702,
      "Ġresist": 5703,
      "Ġedge": 5704,
      "rier": 5705,
      "ĠFood": 5706,
      "ĠSum": 5707,
      "inger": 5708,
      "ĠMuseum": 5709,
      "ĠEvery": 5710,
      "dep": 5711,
      "ĠSy": 5712,
      "ĠAND": 5713,
      "exas": 5714,
      "tee": 5715,
      "urity": 5716,
      "Ġcompleted": 5717,
      "Ġdangerous": 5718,
      "ĠGroup": 5719,
      "Ab": 5720,
      "raint": 5721,
      "Ġexploring": 5722,
      "Ġvess": 5723,
      "det": 5724,
      "Ġexcell": 5725,
      "Ġseeds": 5726,
      "Ġtriangle": 5727,
      "Another": 5728,
      "roduction": 5729,
      "case": 5730,
      "Ġrect": 5731,
      "Ġreaction": 5732,
      "Ġvitamin": 5733,
      "Ġexception": 5734,
      "Ġjobs": 5735,
      "eding": 5736,
      "Ġhop": 5737,
      "ometimes": 5738,
      "Ġatmosphere": 5739,
      "Ġcredit": 5740,
      "Comp": 5741,
      "500": 5742,
      "09": 5743,
      "ossible": 5744,
      "());": 5745,
      "Ġplot": 5746,
      "search": 5747,
      "Message": 5748,
      "Ġconvert": 5749,
      "OP": 5750,
      "Ġsong": 5751,
      "Ġconflict": 5752,
      "oto": 5753,
      "Ġcoal": 5754,
      "types": 5755,
      "ITY": 5756,
      "Ġmel": 5757,
      "Ġpreviously": 5758,
      "Ġmotor": 5759,
      "ĠFore": 5760,
      "ĠOrgan": 5761,
      "look": 5762,
      "env": 5763,
      "iform": 5764,
      "ĠProt": 5765,
      "Ġsatisf": 5766,
      "Ġraw": 5767,
      "Ġreferred": 5768,
      "Ġparameters": 5769,
      "Ġearn": 5770,
      "ĠStand": 5771,
      "06": 5772,
      "Ġpollution": 5773,
      "Ġaccurate": 5774,
      "Ġapproaches": 5775,
      "del": 5776,
      "Ġple": 5777,
      "ĠMor": 5778,
      "ttps": 5779,
      "ĠÏ": 5780,
      "Ġerrors": 5781,
      "cosystem": 5782,
      "ĠSocial": 5783,
      "Ġdespite": 5784,
      "ĠHIV": 5785,
      "Ġreact": 5786,
      "iced": 5787,
      "(&": 5788,
      "Ġfilm": 5789,
      "icit": 5790,
      "Ġletters": 5791,
      "Ġmal": 5792,
      "that": 5793,
      "omic": 5794,
      "Ġnoted": 5795,
      "Ġextract": 5796,
      "Ġtheore": 5797,
      "riculum": 5798,
      "My": 5799,
      "Ġkeeping": 5800,
      "ĠRev": 5801,
      "ota": 5802,
      "power": 5803,
      "ĠGNU": 5804,
      "iated": 5805,
      "Our": 5806,
      "Ġsecret": 5807,
      "Ġhorm": 5808,
      "Ġsounds": 5809,
      "Ġempty": 5810,
      "Ġpark": 5811,
      "alysis": 5812,
      "ĠPort": 5813,
      "Ġdepth": 5814,
      "Ġnor": 5815,
      "Ġenable": 5816,
      "Ġmanufacture": 5817,
      "Ġfine": 5818,
      "Date": 5819,
      "[:": 5820,
      "ĠSun": 5821,
      "essor": 5822,
      "weight": 5823,
      "bi": 5824,
      "54": 5825,
      "cell": 5826,
      "Ġpair": 5827,
      "inding": 5828,
      "Ġmeat": 5829,
      "olved": 5830,
      "Ġinjury": 5831,
      "Ġvolunt": 5832,
      "ipped": 5833,
      "Ġquery": 5834,
      "Ġinfluen": 5835,
      "Ġserved": 5836,
      "Ġeggs": 5837,
      "arsh": 5838,
      "Ġcast": 5839,
      "arp": 5840,
      "rence": 5841,
      "Ġdro": 5842,
      "called": 5843,
      "Ġinfections": 5844,
      "Ġkilled": 5845,
      "ĠHuman": 5846,
      "Group": 5847,
      "Ġobvious": 5848,
      "writ": 5849,
      "ĠCouncil": 5850,
      "Ġfacts": 5851,
      "ophy": 5852,
      "Ġadvantage": 5853,
      "oking": 5854,
      "blem": 5855,
      "property": 5856,
      "Ġraised": 5857,
      "Ġmostly": 5858,
      "Ġfamiliar": 5859,
      "Ġfelt": 5860,
      "Ġlinks": 5861,
      "Ġpurposes": 5862,
      "ĠType": 5863,
      "Ġvegetables": 5864,
      "step": 5865,
      "Ġstorm": 5866,
      "Ġpassword": 5867,
      "iled": 5868,
      "Ġconsult": 5869,
      "====": 5870,
      "Le": 5871,
      "Ġequivalent": 5872,
      "refix": 5873,
      "what": 5874,
      "Ġfocused": 5875,
      "ĠMult": 5876,
      "amily": 5877,
      "Ġbud": 5878,
      "etch": 5879,
      "Ġprocedure": 5880,
      "Ġdoll": 5881,
      "Ġfarmers": 5882,
      "Ġliquid": 5883,
      "Ġhoriz": 5884,
      "56": 5885,
      "ĠDirect": 5886,
      "ĠDet": 5887,
      "unit": 5888,
      "Ġelectrical": 5889,
      "Ġvulner": 5890,
      "ĠGreek": 5891,
      "Ġrul": 5892,
      "Ġfill": 5893,
      "ĠMal": 5894,
      "Ġinflamm": 5895,
      "Ġexposed": 5896,
      "Ġ\\$": 5897,
      "ĠEnergy": 5898,
      "Ġarticles": 5899,
      "Ð°": 5900,
      "Ġshowing": 5901,
      "Ġscript": 5902,
      "Ġparticles": 5903,
      "Ġregister": 5904,
      "Ġfluid": 5905,
      "Ġfundamental": 5906,
      "Ġwait": 5907,
      ",'": 5908,
      "Ġterrit": 5909,
      "xe": 5910,
      "Ġbattle": 5911,
      "Ġmotiv": 5912,
      "ĠTime": 5913,
      "ĠInstead": 5914,
      "Attribute": 5915,
      "fit": 5916,
      "ĠEv": 5917,
      "Ġagre": 5918,
      "session": 5919,
      "Section": 5920,
      "Ġcombined": 5921,
      "Ġgrass": 5922,
      "Ġthoughts": 5923,
      "Ġflat": 5924,
      "rics": 5925,
      "Ġaid": 5926,
      "ĠStep": 5927,
      "Ġreached": 5928,
      "Ġmultip": 5929,
      "roke": 5930,
      "ĠDem": 5931,
      "96": 5932,
      "Ġvirtual": 5933,
      "ĠId": 5934,
      "Ð¾": 5935,
      "Ġdepends": 5936,
      "ĠDiv": 5937,
      "Ġgrav": 5938,
      "Ġincreasingly": 5939,
      "req": 5940,
      "Ġkill": 5941,
      "Val": 5942,
      "ĠSpace": 5943,
      "Ġship": 5944,
      "Ed": 5945,
      "Ġbusinesses": 5946,
      "Ipv": 5947,
      "Ġinsp": 5948,
      "Ġvictim": 5949,
      "Ġhyper": 5950,
      "52": 5951,
      "Ġstation": 5952,
      "cmd": 5953,
      "Ġingred": 5954,
      "Ġchain": 5955,
      "yles": 5956,
      "Fr": 5957,
      "ded": 5958,
      "Ġviews": 5959,
      "ATION": 5960,
      "overty": 5961,
      "Ġyellow": 5962,
      "Ġideal": 5963,
      "number": 5964,
      "Ġvast": 5965,
      "ĠNASA": 5966,
      "FI": 5967,
      "ĠAns": 5968,
      "ĠIP": 5969,
      "xd": 5970,
      "tra": 5971,
      "Ġsmart": 5972,
      "ariable": 5973,
      "ĠANY": 5974,
      "ĠLord": 5975,
      "inn": 5976,
      "othing": 5977,
      "Ġwire": 5978,
      "ontal": 5979,
      "ĠSpanish": 5980,
      "Ġinstitutions": 5981,
      "Ġrenew": 5982,
      "Table": 5983,
      "Ġplayed": 5984,
      "}{\\": 5985,
      "cho": 5986,
      "ingly": 5987,
      "Ġkept": 5988,
      "cers": 5989,
      "Gener": 5990,
      "Ġwealth": 5991,
      "Ġreaders": 5992,
      "Ġexplained": 5993,
      "Ġwave": 5994,
      "task": 5995,
      "Ġfeelings": 5996,
      "Ġprimarily": 5997,
      "Ġcalls": 5998,
      "Ġchemicals": 5999,
      "ĠTexas": 6000,
      "Ġtag": 6001,
      "Ġconsequences": 6002,
      "Dis": 6003,
      "ARR": 6004,
      "Ġreligion": 6005,
      "Ġhappened": 6006,
      "ifies": 6007,
      "Ġclosed": 6008,
      "ĠPython": 6009,
      "Ġhealthcare": 6010,
      "Source": 6011,
      "Ġfloat": 6012,
      "nic": 6013,
      "ĠIsland": 6014,
      "Ġtooth": 6015,
      "ĠGeorge": 6016,
      "ndrome": 6017,
      "Ġbright": 6018,
      "ĠNOT": 6019,
      "Ġfixed": 6020,
      "Ġstd": 6021,
      "CR": 6022,
      "Ġmeasured": 6023,
      "ĠMount": 6024,
      "Ġdu": 6025,
      "Ġdownload": 6026,
      "ĠWind": 6027,
      "roph": 6028,
      "frame": 6029,
      "Map": 6030,
      "ago": 6031,
      "Ġspend": 6032,
      "Ġoperating": 6033,
      "Ġsufficient": 6034,
      "Ġhelpful": 6035,
      "itage": 6036,
      "ĠRepublic": 6037,
      "well": 6038,
      "Ġ31": 6039,
      "service": 6040,
      "Ġseconds": 6041,
      "Ġ<<": 6042,
      "ĠPaul": 6043,
      "hist": 6044,
      "Ġsharing": 6045,
      "elcome": 6046,
      "ĠGoogle": 6047,
      "foo": 6048,
      "Return": 6049,
      "onic": 6050,
      "ycl": 6051,
      "Ġphenomen": 6052,
      "ĠMiss": 6053,
      "mt": 6054,
      "Ġpp": 6055,
      "oyal": 6056,
      "86": 6057,
      "Ġgenerated": 6058,
      "Ġbegins": 6059,
      "Ġconclusion": 6060,
      "pping": 6061,
      "Ġindicate": 6062,
      "]:": 6063,
      "ĠKey": 6064,
      "Ġip": 6065,
      "Ġlooked": 6066,
      "Ġimpacts": 6067,
      "dim": 6068,
      "Ġconcern": 6069,
      "Ġinterface": 6070,
      "nel": 6071,
      "Ġblog": 6072,
      "SP": 6073,
      "Ġvaccine": 6074,
      "ibilities": 6075,
      "Ġtaught": 6076,
      "ĠMr": 6077,
      "ĠDel": 6078,
      "Ġphone": 6079,
      "Chapter": 6080,
      "ĠMexico": 6081,
      "ya": 6082,
      "Ġsalt": 6083,
      "alog": 6084,
      "Ġslightly": 6085,
      "Rem": 6086,
      "IB": 6087,
      "author": 6088,
      "Ġpresc": 6089,
      "aughter": 6090,
      "ĠBoth": 6091,
      "ca": 6092,
      "Ġfigures": 6093,
      "Ġplays": 6094,
      "Ġ);": 6095,
      "Ent": 6096,
      "common": 6097,
      "Ġunderst": 6098,
      "53": 6099,
      "pop": 6100,
      "next": 6101,
      "wood": 6102,
      "Ġpretty": 6103,
      "filename": 6104,
      "Ġarguments": 6105,
      "Ġenhance": 6106,
      "course": 6107,
      "Ġconsc": 6108,
      "Ġlogging": 6109,
      "riage": 6110,
      "Ġquar": 6111,
      "Ġisland": 6112,
      "Although": 6113,
      "Ġintended": 6114,
      "inf": 6115,
      "Ġkinds": 6116,
      "Ġsubt": 6117,
      "Ġhearing": 6118,
      "Ã¡": 6119,
      "Ġalt": 6120,
      "Ġtreatments": 6121,
      "xa": 6122,
      "ĠBel": 6123,
      "Ġneut": 6124,
      "QU": 6125,
      "Ġofficial": 6126,
      "CP": 6127,
      "allow": 6128,
      "Ġvelocity": 6129,
      "NO": 6130,
      "Ġcareer": 6131,
      "Ġmessages": 6132,
      "ĠFact": 6133,
      "Service": 6134,
      "Ġcris": 6135,
      "Ġimagine": 6136,
      "ĠSam": 6137,
      "Ġju": 6138,
      "Ġadvoc": 6139,
      "Ġlatest": 6140,
      "Ġresponsibility": 6141,
      "otic": 6142,
      "Ġecosystem": 6143,
      "Ġ2018": 6144,
      "lers": 6145,
      "Ġadop": 6146,
      "Post": 6147,
      "acific": 6148,
      "Ġcircuit": 6149,
      "89": 6150,
      "Ġbird": 6151,
      "ĠLearning": 6152,
      "ĠRober": 6153,
      "Ġreduction": 6154,
      "Ġmulti": 6155,
      "ĠAsia": 6156,
      "Ġhospital": 6157,
      "Ġchart": 6158,
      "Most": 6159,
      "lication": 6160,
      "Ġglob": 6161,
      "Ġpros": 6162,
      "Ġpotentially": 6163,
      "Ġcontemporary": 6164,
      "ĠâĪĴ": 6165,
      "Ġ///": 6166,
      "ĠElect": 6167,
      "Ġtried": 6168,
      "erent": 6169,
      "times": 6170,
      "tx": 6171,
      "Ġproposed": 6172,
      "oughly": 6173,
      "Ġpul": 6174,
      "UM": 6175,
      "Ġwet": 6176,
      "Ġdivision": 6177,
      "Ġengage": 6178,
      "Ġplane": 6179,
      "rastructure": 6180,
      "Ġperiods": 6181,
      "local": 6182,
      "chers": 6183,
      "Ġinvestment": 6184,
      "=[": 6185,
      "Ġtechnical": 6186,
      "Ġfoss": 6187,
      "ishes": 6188,
      "ĠUs": 6189,
      "ij": 6190,
      "VID": 6191,
      "Ġdir": 6192,
      "bf": 6193,
      "CK": 6194,
      "mail": 6195,
      "Ġprices": 6196,
      "sembly": 6197,
      "aks": 6198,
      "ounced": 6199,
      "Ġwhom": 6200,
      "uple": 6201,
      "Ġrevolution": 6202,
      "while": 6203,
      "astern": 6204,
      "inations": 6205,
      "Ġleaving": 6206,
      "ĠTem": 6207,
      "Ðµ": 6208,
      "inates": 6209,
      "itness": 6210,
      "Ġyouth": 6211,
      "={": 6212,
      ")\\": 6213,
      "Ġstudying": 6214,
      "Ġperspective": 6215,
      "Ġflowers": 6216,
      "Ġcenturies": 6217,
      "Ġoffered": 6218,
      "Ġopposite": 6219,
      "Context": 6220,
      "Ġnumer": 6221,
      "Ġenviron": 6222,
      "Ġagreed": 6223,
      "Ġoccurred": 6224,
      "Ġmonitoring": 6225,
      "inst": 6226,
      "settings": 6227,
      "Ġgenes": 6228,
      "Ġ2020": 6229,
      "Ġtail": 6230,
      "Ġstored": 6231,
      "ouble": 6232,
      "Ġremaining": 6233,
      "Ġ2004": 6234,
      "plicated": 6235,
      "Ġjoin": 6236,
      "Ġremote": 6237,
      "Ġfraction": 6238,
      "Ġaxis": 6239,
      "Ġvehicle": 6240,
      "ĠRich": 6241,
      "Last": 6242,
      "ĠSoftware": 6243,
      "duction": 6244,
      "TYPE": 6245,
      "Ġstarts": 6246,
      "being": 6247,
      "ĠEngine": 6248,
      "87": 6249,
      "ĠPower": 6250,
      "Ġvoice": 6251,
      "rating": 6252,
      "Ġclosely": 6253,
      "Ass": 6254,
      "Ġextreme": 6255,
      "Ġbrief": 6256,
      "Ġstars": 6257,
      "ĠMac": 6258,
      "Ġwaters": 6259,
      "Ġconvent": 6260,
      "KE": 6261,
      "ĠGovernment": 6262,
      "Ġpun": 6263,
      "Ġgather": 6264,
      "Ġthin": 6265,
      "Ġsubjects": 6266,
      "band": 6267,
      "Ġadvice": 6268,
      "ael": 6269,
      "priv": 6270,
      "Ġtips": 6271,
      "Ġgod": 6272,
      "src": 6273,
      "ĠBen": 6274,
      "Ġfrag": 6275,
      "Ġsouthern": 6276,
      "Ġthrow": 6277,
      "Ġsector": 6278,
      "Ġdjango": 6279,
      "Ġcere": 6280,
      "Ġcreative": 6281,
      "ĠWhite": 6282,
      "Americ": 6283,
      "ĠAny": 6284,
      "Since": 6285,
      "gest": 6286,
      "Ġmorning": 6287,
      "Ġrecognize": 6288,
      "Ġdrinking": 6289,
      "Ġdiagnosis": 6290,
      "Ġtalking": 6291,
      "Ġfloor": 6292,
      "ĠReturns": 6293,
      "Ġimplementation": 6294,
      "Ġmissing": 6295,
      "Ġaffects": 6296,
      "Ġemergency": 6297,
      "addr": 6298,
      "Ġunknown": 6299,
      "Ġinterests": 6300,
      "ULT": 6301,
      "85": 6302,
      "Manager": 6303,
      "Ġgreatest": 6304,
      "Build": 6305,
      "Ġfro": 6306,
      "Ġinstruction": 6307,
      "Ġconsists": 6308,
      "Ġclim": 6309,
      "aud": 6310,
      "Ġnetworks": 6311,
      "Ġsnow": 6312,
      "Ġdetailed": 6313,
      "Ġdensity": 6314,
      "older": 6315,
      "Ġparallel": 6316,
      "ĠWIT": 6317,
      "Ġkg": 6318,
      "ky": 6319,
      "coming": 6320,
      "rd": 6321,
      "Ġvisible": 6322,
      "DR": 6323,
      "Ġtiny": 6324,
      "ASS": 6325,
      "ĠIslam": 6326,
      "Ġjustice": 6327,
      "Ġcertainly": 6328,
      "Ġworldwide": 6329,
      "ĠMet": 6330,
      "ria": 6331,
      "ĠJews": 6332,
      "Ġ500": 6333,
      "Element": 6334,
      "Ġmuscles": 6335,
      "iday": 6336,
      "Ġformation": 6337,
      "Ġpounds": 6338,
      "Ġnorthern": 6339,
      "ĠCentral": 6340,
      "}^{": 6341,
      "Ġtoxic": 6342,
      "Des": 6343,
      "Ġgirls": 6344,
      "Ġdeeper": 6345,
      "ĠCath": 6346,
      "Ġcandid": 6347,
      "Pack": 6348,
      "example": 6349,
      "Per": 6350,
      "Ġdirector": 6351,
      "ĠLife": 6352,
      "cm": 6353,
      "Part": 6354,
      "scale": 6355,
      "ĠHome": 6356,
      "rich": 6357,
      "west": 6358,
      "patch": 6359,
      "Ġcollected": 6360,
      "Ġstock": 6361,
      "ĠTechnology": 6362,
      "Ġdiscovery": 6363,
      "Ġexcellent": 6364,
      "Ġknew": 6365,
      "xid": 6366,
      "aturally": 6367,
      "ĠSecond": 6368,
      "Ġmort": 6369,
      "Ġprove": 6370,
      "ĠNews": 6371,
      "Equ": 6372,
      "Ġhundreds": 6373,
      ")^": 6374,
      "Ġalgorithm": 6375,
      "ĠQue": 6376,
      "remove": 6377,
      "ĠJe": 6378,
      "Ġvoltage": 6379,
      "Ġprepare": 6380,
      "ander": 6381,
      "Ġwest": 6382,
      "ĠOld": 6383,
      "ificial": 6384,
      "header": 6385,
      "Ġlose": 6386,
      "Ġrecorded": 6387,
      "Ġnations": 6388,
      "orter": 6389,
      "Ġstone": 6390,
      ")),": 6391,
      "Ġhaz": 6392,
      "Ġcultures": 6393,
      "Ġinfo": 6394,
      "Ġ((": 6395,
      "po": 6396,
      "Ġdiversity": 6397,
      "oded": 6398,
      "ORT": 6399,
      "float": 6400,
      "template": 6401,
      "Ġflag": 6402,
      "ĠID": 6403,
      "Ġexplains": 6404,
      "ĠCivil": 6405,
      "Ġsecure": 6406,
      "cor": 6407,
      "Ġcomputers": 6408,
      "Ġfacilit": 6409,
      "Ġband": 6410,
      "Ġshift": 6411,
      "inity": 6412,
      "Ġforced": 6413,
      "berg": 6414,
      "Ġlandscape": 6415,
      "umps": 6416,
      "Ġtwice": 6417,
      "ĠCle": 6418,
      "oul": 6419,
      "Ġmillions": 6420,
      "Ġleader": 6421,
      "Ġdrawing": 6422,
      "Ġque": 6423,
      "Ġcreates": 6424,
      "true": 6425,
      "oxide": 6426,
      "Ġsubstant": 6427,
      "Ġnutrients": 6428,
      "Ġdeliver": 6429,
      "Ġastron": 6430,
      "tenance": 6431,
      "onents": 6432,
      "51": 6433,
      "Ġgoods": 6434,
      "Act": 6435,
      "ĠSen": 6436,
      "ĠCalcul": 6437,
      "ained": 6438,
      "ĠVirgin": 6439,
      "save": 6440,
      "ĠBer": 6441,
      "Ġvent": 6442,
      "Ġinteract": 6443,
      "ĠCommon": 6444,
      "ĠDE": 6445,
      "Ġmanner": 6446,
      "eli": 6447,
      "Ġcraft": 6448,
      "Ġfruits": 6449,
      "ĠCourt": 6450,
      "Ġtested": 6451,
      "72": 6452,
      "azing": 6453,
      "Ġpercentage": 6454,
      "OS": 6455,
      "ums": 6456,
      "ĠCD": 6457,
      "Ġfascinating": 6458,
      "Ġbow": 6459,
      "$,": 6460,
      "python": 6461,
      "Ġcarefully": 6462,
      "Ġtypical": 6463,
      "Ġshell": 6464,
      "ĠDise": 6465,
      "ĠMass": 6466,
      "ĠAcad": 6467,
      "atever": 6468,
      "Ġmovements": 6469,
      "ĠBay": 6470,
      "Ġstick": 6471,
      "ĠMart": 6472,
      "Ġfort": 6473,
      "amil": 6474,
      "Ġgall": 6475,
      "Ġblocks": 6476,
      "Ġelev": 6477,
      "Ġscore": 6478,
      "ĠAp": 6479,
      "ĠMedical": 6480,
      "den": 6481,
      "Ġhighlight": 6482,
      "Ġattacks": 6483,
      "othe": 6484,
      "rates": 6485,
      "/**": 6486,
      "ĠNote": 6487,
      "hi": 6488,
      "dule": 6489,
      "ĠLatin": 6490,
      "show": 6491,
      "Ġ\\\\": 6492,
      "Ġkn": 6493,
      "ä¸": 6494,
      "fg": 6495,
      "Ġgeometry": 6496,
      "ĠPract": 6497,
      "Ġ>>>": 6498,
      "ĠBuild": 6499,
      "Ġmac": 6500,
      "?\"": 6501,
      "Ġgovernments": 6502,
      "ql": 6503,
      "Pr": 6504,
      "Ġselection": 6505,
      "oted": 6506,
      "ĠJer": 6507,
      "Ġcollabor": 6508,
      "Ġbrother": 6509,
      "Ġrestrict": 6510,
      "Ġobtained": 6511,
      "Me": 6512,
      "ford": 6513,
      "Ġmoist": 6514,
      "shape": 6515,
      "under": 6516,
      "plot": 6517,
      "ector": 6518,
      "Ġexistence": 6519,
      "ABLE": 6520,
      "Ġgrand": 6521,
      "Ġprofessionals": 6522,
      "lig": 6523,
      "Ġsatell": 6524,
      "Ġmere": 6525,
      "Ġfirm": 6526,
      "Ġmainly": 6527,
      "ĠInformation": 6528,
      "only": 6529,
      "Ġperman": 6530,
      "Ġwarn": 6531,
      "icode": 6532,
      "ĠYear": 6533,
      "ny": 6534,
      "ĠMedicine": 6535,
      "Ġstem": 6536,
      "Ġcars": 6537,
      "Ġmultipl": 6538,
      "Ġimmig": 6539,
      "Ġofficials": 6540,
      "ĠPen": 6541,
      "Ġdocuments": 6542,
      "Ġfif": 6543,
      "Ġfacilities": 6544,
      "Ġinvolving": 6545,
      "cluded": 6546,
      "osa": 6547,
      "Ġspaces": 6548,
      "ĠStage": 6549,
      "Ġcrops": 6550,
      "Ġcompare": 6551,
      "Ġpoverty": 6552,
      "ĠLou": 6553,
      "Ġinstrument": 6554,
      "Ġcapable": 6555,
      "Ġ2003": 6556,
      "Ġchallenging": 6557,
      "Ġmedium": 6558,
      "Ġjson": 6559,
      "Ġsubsequ": 6560,
      "Ġrepresented": 6561,
      "Ġsell": 6562,
      "Ġsports": 6563,
      "74": 6564,
      "ĠTur": 6565,
      "match": 6566,
      "Ġstret": 6567,
      ".'": 6568,
      "ĠHen": 6569,
      "Ġboost": 6570,
      "Ġdream": 6571,
      "Ġinterview": 6572,
      "hedule": 6573,
      "Ġguidelines": 6574,
      "Ġ),": 6575,
      "Ġparams": 6576,
      "Ġnerv": 6577,
      "ĠâĢ¢": 6578,
      "ĠNav": 6579,
      "Ġauthority": 6580,
      "Ġspiritual": 6581,
      "ĠFlor": 6582,
      "Ġapart": 6583,
      "Ġtells": 6584,
      "ayout": 6585,
      "gent": 6586,
      "itors": 6587,
      "ville": 6588,
      "Ġsett": 6589,
      "eless": 6590,
      "Ġappoint": 6591,
      "clusive": 6592,
      "Ġtrial": 6593,
      "ĠMem": 6594,
      "Ġpictures": 6595,
      "ĠEr": 6596,
      "ĠOb": 6597,
      "Ġenvironments": 6598,
      "Ġremained": 6599,
      "gu": 6600,
      "Ġnan": 6601,
      "ague": 6602,
      "rypt": 6603,
      "ĠMiddle": 6604,
      "Ġdriving": 6605,
      "92": 6606,
      "Ġsuggested": 6607,
      "ĠBritain": 6608,
      "Ġrapidly": 6609,
      "esh": 6610,
      "Ġcloser": 6611,
      "ĠInf": 6612,
      "Stud": 6613,
      "ĠFOR": 6614,
      "Desc": 6615,
      "Ġ300": 6616,
      "rieved": 6617,
      "Ġmathematical": 6618,
      "greg": 6619,
      "Sp": 6620,
      "aph": 6621,
      "Ġcouple": 6622,
      "Ġshel": 6623,
      "ĠRights": 6624,
      "Wid": 6625,
      "agers": 6626,
      "Ġprotocol": 6627,
      "child": 6628,
      "QL": 6629,
      "abs": 6630,
      "ĠControl": 6631,
      "Ġinternet": 6632,
      "fail": 6633,
      "ĠAut": 6634,
      "indow": 6635,
      "mathrm": 6636,
      "76": 6637,
      "uls": 6638,
      "Ġexchange": 6639,
      "ĠAtl": 6640,
      "Ġemployees": 6641,
      "php": 6642,
      "ĠAge": 6643,
      "Ġregul": 6644,
      "Ġmaintaining": 6645,
      "theta": 6646,
      "Ġdecrease": 6647,
      "ĠWARR": 6648,
      "perm": 6649,
      "CS": 6650,
      "gr": 6651,
      "orig": 6652,
      "Ġnone": 6653,
      "Ġregularly": 6654,
      "elled": 6655,
      "Ġprocedures": 6656,
      "Aut": 6657,
      "ogether": 6658,
      "ĠMicro": 6659,
      "Ġextent": 6660,
      "Ġinfrastructure": 6661,
      "pute": 6662,
      "Ġeast": 6663,
      "real": 6664,
      "Ġpip": 6665,
      "ĠThomas": 6666,
      "Ġcognitive": 6667,
      "Bu": 6668,
      "Once": 6669,
      "icens": 6670,
      "ka": 6671,
      "Ġwalls": 6672,
      "Ġinner": 6673,
      "Ġtun": 6674,
      "ifications": 6675,
      "Ġharv": 6676,
      "Ġhabitat": 6677,
      "description": 6678,
      "Ġresidents": 6679,
      "ĠLike": 6680,
      "Ġgrown": 6681,
      "Point": 6682,
      "rays": 6683,
      "Ġneighb": 6684,
      "ĠNumber": 6685,
      "ester": 6686,
      "cules": 6687,
      "ĠHT": 6688,
      "Ġshapes": 6689,
      "Ġliver": 6690,
      "Ġmeters": 6691,
      "Ġwaves": 6692,
      "Ġmedications": 6693,
      "Response": 6694,
      "afe": 6695,
      "Ġdomestic": 6696,
      "Ġtemplate": 6697,
      "Ġinteger": 6698,
      "Ġcontrolled": 6699,
      "Ġinsights": 6700,
      "ume": 6701,
      "Image": 6702,
      "ĠSal": 6703,
      "Ġaccompl": 6704,
      "Ġunless": 6705,
      "Ġtal": 6706,
      "ĠAnother": 6707,
      "rot": 6708,
      "press": 6709,
      "Ġproof": 6710,
      "ĠCommission": 6711,
      "Ġportion": 6712,
      "Ġagricultural": 6713,
      "ĠPacific": 6714,
      "rian": 6715,
      "Ġcards": 6716,
      "ĠArab": 6717,
      "';": 6718,
      "SH": 6719,
      "Ġsmooth": 6720,
      "Ġwants": 6721,
      "Ġcrisis": 6722,
      "Ġphr": 6723,
      "Ġabuse": 6724,
      "Ġgenerations": 6725,
      "Ġpaid": 6726,
      "ĠHistor": 6727,
      "Ġlargely": 6728,
      "racy": 6729,
      "ĠSimilar": 6730,
      "Ġfavorite": 6731,
      "Ġemotions": 6732,
      "Ġoffset": 6733,
      "ansion": 6734,
      "ĠAlex": 6735,
      "comple": 6736,
      "Ġimproving": 6737,
      "Ġmm": 6738,
      "sim": 6739,
      "oose": 6740,
      "Ġnit": 6741,
      "token": 6742,
      "ĠAdditionally": 6743,
      "Ġmit": 6744,
      "pk": 6745,
      "Ġcloud": 6746,
      "van": 6747,
      "email": 6748,
      "ĠHave": 6749,
      "ALL": 6750,
      "Ġsettle": 6751,
      "Ġstudied": 6752,
      "Ġtransition": 6753,
      "ĠFranc": 6754,
      "Ġpump": 6755,
      "Ġintelligence": 6756,
      "Ġchosen": 6757,
      "Ġsuitable": 6758,
      "sign": 6759,
      "Ġ[\"": 6760,
      "Ġmathematics": 6761,
      "send": 6762,
      "Ġoral": 6763,
      "Ġexamine": 6764,
      "PC": 6765,
      "ĠLibrary": 6766,
      "Ġwear": 6767,
      "oz": 6768,
      "ĠCarol": 6769,
      "ceived": 6770,
      "Ġsick": 6771,
      "ensus": 6772,
      "ĠManagement": 6773,
      "Ġgrid": 6774,
      "ĠCreate": 6775,
      "AA": 6776,
      "Ġsplit": 6777,
      "DS": 6778,
      "Ġpersons": 6779,
      "ads": 6780,
      "ĠIr": 6781,
      "Ġsen": 6782,
      "').": 6783,
      "Ġtraffic": 6784,
      "Ġcontainer": 6785,
      "\"))": 6786,
      "[]": 6787,
      "Ġlun": 6788,
      "Ġdiscussed": 6789,
      "ÃŃ": 6790,
      "Ġweap": 6791,
      "Ġmixed": 6792,
      "Ġ>=": 6793,
      "84": 6794,
      "dt": 6795,
      "Ġages": 6796,
      "Ġregist": 6797,
      "Ġusage": 6798,
      "Ġmobile": 6799,
      "Ġdecide": 6800,
      "Ġsignificance": 6801,
      "dden": 6802,
      "organ": 6803,
      "ĠVol": 6804,
      "Ġcultiv": 6805,
      "Ġ36": 6806,
      "Ġourselves": 6807,
      "Ġsuccessfully": 6808,
      "Te": 6809,
      "bool": 6810,
      "Ġbiological": 6811,
      "Ġcurriculum": 6812,
      "Ġprompt": 6813,
      "ĠWhe": 6814,
      "Other": 6815,
      "Ġlots": 6816,
      "ampl": 6817,
      "constructor": 6818,
      "Ġdiscrim": 6819,
      "volume": 6820,
      "Ġfab": 6821,
      "Ġlies": 6822,
      "orrow": 6823,
      "Ġmoon": 6824,
      "Ġsupports": 6825,
      "ĠSuch": 6826,
      "Ġexpensive": 6827,
      "car": 6828,
      "Ġtruly": 6829,
      "ĠLog": 6830,
      "Ġrein": 6831,
      "Ġoptim": 6832,
      "Ġrecovery": 6833,
      "Ġnormally": 6834,
      "Ġsan": 6835,
      "vm": 6836,
      "Tag": 6837,
      "Ġinsert": 6838,
      "rolog": 6839,
      "Ġconfidence": 6840,
      "Ġmaybe": 6841,
      "oom": 6842,
      "zone": 6843,
      "Ġvehicles": 6844,
      "Ġintroduction": 6845,
      "INT": 6846,
      "kes": 6847,
      "arant": 6848,
      "Ġrepeated": 6849,
      "Ġwasn": 6850,
      "nc": 6851,
      "Ġ1990": 6852,
      "ĠOnly": 6853,
      "Ġknows": 6854,
      "Ġprinciple": 6855,
      "Ġplayer": 6856,
      "Ġdeaths": 6857,
      "ĠKore": 6858,
      "store": 6859,
      "Ġpolice": 6860,
      "Ġturns": 6861,
      "Ġrural": 6862,
      "Ġchannel": 6863,
      "Ġconsistent": 6864,
      "Ġpregnancy": 6865,
      "rav": 6866,
      "ĠMuslim": 6867,
      "Ġpil": 6868,
      "Ġmassive": 6869,
      "73": 6870,
      "Ġfunding": 6871,
      "mas": 6872,
      "Ġrecognized": 6873,
      "Ġestimate": 6874,
      "?âĢĿ": 6875,
      "ĠUnderstanding": 6876,
      "94": 6877,
      "ĠMain": 6878,
      "axis": 6879,
      "Ġlimits": 6880,
      "Ġrub": 6881,
      "nam": 6882,
      "Ġmagnetic": 6883,
      "Ġverb": 6884,
      "Ġuniverse": 6885,
      "Pe": 6886,
      "ĠMont": 6887,
      "Ġwildlife": 6888,
      "Ġadvent": 6889,
      "Ġhunt": 6890,
      "IST": 6891,
      "ĠFe": 6892,
      "Ġbelie": 6893,
      "Ġsensitive": 6894,
      "assertTrue": 6895,
      "Ġdescribes": 6896,
      "ĠKnow": 6897,
      "Ġskill": 6898,
      "ERR": 6899,
      "Cur": 6900,
      "Ġbudget": 6901,
      "Ġappearance": 6902,
      "king": 6903,
      "anes": 6904,
      "Ġexpressed": 6905,
      "ĠOpen": 6906,
      "Ġapparent": 6907,
      "cluding": 6908,
      "Dev": 6909,
      "Ġsudden": 6910,
      "Ġsignals": 6911,
      "Ġindicates": 6912,
      "Ġrepresentation": 6913,
      "Ġdoctors": 6914,
      "Ġinject": 6915,
      "ĠLake": 6916,
      "ĠTw": 6917,
      "ĠKeep": 6918,
      "itory": 6919,
      "ialize": 6920,
      "TestCase": 6921,
      "Ġangles": 6922,
      "FL": 6923,
      "apache": 6924,
      "Ġpray": 6925,
      "ĠBible": 6926,
      "Ġclaims": 6927,
      "Ġprev": 6928,
      "ĠSte": 6929,
      "________": 6930,
      "admin": 6931,
      "CharField": 6932,
      "ba": 6933,
      "Ġregional": 6934,
      "Ra": 6935,
      "Ġpig": 6936,
      "Ġcomprehensive": 6937,
      "perties": 6938,
      "Ġreader": 6939,
      "Ġancest": 6940,
      "Ġcalc": 6941,
      "93": 6942,
      "aser": 6943,
      "Ġconcentration": 6944,
      "Ġabsolute": 6945,
      "ĠDiff": 6946,
      "During": 6947,
      "Ġrail": 6948,
      "MAT": 6949,
      "ĠAR": 6950,
      "Ġcourses": 6951,
      "FT": 6952,
      "cript": 6953,
      "Ġcorpor": 6954,
      "Ġunderlying": 6955,
      "Ġcategory": 6956,
      "Ġartists": 6957,
      "Ġlock": 6958,
      "Ġhorse": 6959,
      "BU": 6960,
      "sys": 6961,
      "Ġcommunic": 6962,
      "ĠMil": 6963,
      "Ġlisted": 6964,
      "omial": 6965,
      "Ġcardi": 6966,
      "ĠWomen": 6967,
      "Ġproteins": 6968,
      "Ġultimately": 6969,
      "ellect": 6970,
      "Ġbattery": 6971,
      "adr": 6972,
      "Ġconcerned": 6973,
      "Ġthor": 6974,
      "Ġvirt": 6975,
      "Ġpossess": 6976,
      "Ġnaturally": 6977,
      "Ġfle": 6978,
      "Ġhappy": 6979,
      "Ġderived": 6980,
      "zen": 6981,
      "ipping": 6982,
      "Ġensuring": 6983,
      "ĠScient": 6984,
      "cknow": 6985,
      "Code": 6986,
      "IES": 6987,
      "Ġmonitor": 6988,
      "Ġprogramming": 6989,
      "ĠWild": 6990,
      "rior": 6991,
      "ĠĠĠĠĠĠĠĠ": 6992,
      "Ġwife": 6993,
      "Ġrecip": 6994,
      "Ġincred": 6995,
      "ĠInv": 6996,
      "agues": 6997,
      "Ġ2001": 6998,
      "iler": 6999,
      "ĠTreat": 7000,
      "Ġlocations": 7001,
      "ĠNum": 7002,
      "Ġimpossible": 7003,
      "Ġ2019": 7004,
      "Ġsubstance": 7005,
      "Ġtro": 7006,
      "Ġleadership": 7007,
      "Ġworry": 7008,
      "Ġwarming": 7009,
      "ometric": 7010,
      "Ġuint": 7011,
      "Ġpersist": 7012,
      "-\\": 7013,
      "ĠUnit": 7014,
      "pload": 7015,
      "Ġformal": 7016,
      "Ġagriculture": 7017,
      "Ġparameter": 7018,
      "Ġproducing": 7019,
      "phone": 7020,
      "Ġongoing": 7021,
      "rowser": 7022,
      "nav": 7023,
      "Ġmeasurement": 7024,
      "ãģ": 7025,
      "Ġprem": 7026,
      "Ġera": 7027,
      "ĠSmith": 7028,
      "ĠEnvironmental": 7029,
      "package": 7030,
      "Ġmarked": 7031,
      "Ġentirely": 7032,
      "MM": 7033,
      "non": 7034,
      "Ġopened": 7035,
      "claim": 7036,
      "system": 7037,
      "Ġ'/": 7038,
      "ĠJud": 7039,
      "Ġmetab": 7040,
      "ĠArmy": 7041,
      "Ġdedicated": 7042,
      "Ġsolving": 7043,
      "Ġtables": 7044,
      "Ptr": 7045,
      "ĠRad": 7046,
      "cycl": 7047,
      "Ġsky": 7048,
      "ĠDisc": 7049,
      "ĠReview": 7050,
      "Ġlimitations": 7051,
      "Ġcoff": 7052,
      "Dr": 7053,
      "ding": 7054,
      "ĠBudd": 7055,
      "Ġphysics": 7056,
      "Ġagree": 7057,
      "Ġharmful": 7058,
      "Ġsuffering": 7059,
      "matrix": 7060,
      "Ġcub": 7061,
      "Ġneighbor": 7062,
      "Ġdesired": 7063,
      "Ġseeing": 7064,
      "Ġrecycl": 7065,
      "ĠSec": 7066,
      "conomic": 7067,
      "ĠLess": 7068,
      "ĠAcc": 7069,
      "Ġparties": 7070,
      "Ġsed": 7071,
      "Ġbutton": 7072,
      "Number": 7073,
      "Ġmachines": 7074,
      "ĠSl": 7075,
      "Ġadequ": 7076,
      "ĠObject": 7077,
      "Ġnarrow": 7078,
      "Ġlifest": 7079,
      "offset": 7080,
      "DB": 7081,
      "asive": 7082,
      "how": 7083,
      "Ġfoundation": 7084,
      "};": 7085,
      "Ġmyth": 7086,
      "replace": 7087,
      "Ġpool": 7088,
      "dist": 7089,
      "Ġlayers": 7090,
      "bling": 7091,
      "ada": 7092,
      "See": 7093,
      "Ġopening": 7094,
      "ĠLeg": 7095,
      "Ġappeared": 7096,
      "umin": 7097,
      "Ġsentence": 7098,
      "Ġtherm": 7099,
      "ĠExper": 7100,
      "Start": 7101,
      "Ġacts": 7102,
      "ĠPM": 7103,
      "Ġleaf": 7104,
      "Ġbeliefs": 7105,
      "Ġspeaking": 7106,
      "Ġcutting": 7107,
      "Ġpure": 7108,
      "Ġamb": 7109,
      "Ġflight": 7110,
      "Ġgal": 7111,
      "Ġaccounts": 7112,
      "Ġahead": 7113,
      "Array": 7114,
      "PRO": 7115,
      "*-": 7116,
      "Pol": 7117,
      "Ġassume": 7118,
      "Ġroles": 7119,
      "ĠVis": 7120,
      "(*": 7121,
      "ipal": 7122,
      "asp": 7123,
      "Ġinfected": 7124,
      "Ġbrown": 7125,
      "location": 7126,
      "Ġreject": 7127,
      "Ġprevention": 7128,
      "Ġplus": 7129,
      "icious": 7130,
      "Ġmanufacturing": 7131,
      "inet": 7132,
      "Ġstages": 7133,
      "fill": 7134,
      "Ġwriter": 7135,
      "ribed": 7136,
      "Ġarmy": 7137,
      "ĠRobert": 7138,
      "Ġconscious": 7139,
      "Ġwestern": 7140,
      "ĠRussia": 7141,
      "ounded": 7142,
      "Cons": 7143,
      "Client": 7144,
      "rency": 7145,
      "Ġplate": 7146,
      "imary": 7147,
      "Bl": 7148,
      "Ġplayers": 7149,
      "ascular": 7150,
      "Ġsyndrome": 7151,
      "Ġ2002": 7152,
      "Ġallerg": 7153,
      "Ġ'%": 7154,
      "Ġattribute": 7155,
      "buf": 7156,
      "ĠSea": 7157,
      "Ġdistingu": 7158,
      "Create": 7159,
      "Line": 7160,
      "Ġsecondary": 7161,
      "Ġcurve": 7162,
      "Ġholds": 7163,
      "appe": 7164,
      "lamb": 7165,
      "js": 7166,
      "Ġdirectory": 7167,
      "tical": 7168,
      "Ð¸": 7169,
      "\"></": 7170,
      "Ġ1000": 7171,
      "ĠStat": 7172,
      "Ġsurvival": 7173,
      "Ġdiscipl": 7174,
      "Ġextended": 7175,
      "lements": 7176,
      "cap": 7177,
      "Ġrelation": 7178,
      "ĠEnd": 7179,
      "Ġimplied": 7180,
      "ĠProv": 7181,
      "Ġassistance": 7182,
      "Ġhypothes": 7183,
      "product": 7184,
      "ĠCare": 7185,
      "access": 7186,
      "ĠLine": 7187,
      "Ġsupporting": 7188,
      "oids": 7189,
      "Ġelectronic": 7190,
      "Ġwalking": 7191,
      "Head": 7192,
      "ĠGood": 7193,
      "Ġfilename": 7194,
      "Ġ;": 7195,
      "Ġdoor": 7196,
      "istan": 7197,
      "Ġsuc": 7198,
      "Ġimmun": 7199,
      "rants": 7200,
      "Ġstated": 7201,
      "Ġsteel": 7202,
      "Ġgar": 7203,
      "ĠException": 7204,
      "ctic": 7205,
      "heets": 7206,
      "Â·": 7207,
      "Ġprison": 7208,
      "Ġresponses": 7209,
      "ĠFin": 7210,
      "79": 7211,
      "rons": 7212,
      "Ġnodes": 7213,
      "AY": 7214,
      "Ġseeking": 7215,
      "âĪĴ": 7216,
      "Ġproduces": 7217,
      "cat": 7218,
      "Ġevaluate": 7219,
      "ĠSym": 7220,
      "ini": 7221,
      "Ġreform": 7222,
      "Page": 7223,
      "password": 7224,
      "Ġcart": 7225,
      "ala": 7226,
      "olumb": 7227,
      "Ġscholars": 7228,
      "Ġban": 7229,
      "fall": 7230,
      "Ġpoet": 7231,
      "ĠSign": 7232,
      "Ġ:=": 7233,
      "Ġfeedback": 7234,
      "Hel": 7235,
      "Ġscre": 7236,
      "unc": 7237,
      "ĠWorks": 7238,
      "Ġmanaged": 7239,
      "Ġkit": 7240,
      "ye": 7241,
      "Use": 7242,
      "stone": 7243,
      "Ġcorresponding": 7244,
      "Ġaccepted": 7245,
      "Ġpossibly": 7246,
      "Ġdivis": 7247,
      "Ġends": 7248,
      "Ġpackage": 7249,
      "Ġexperiments": 7250,
      "Ġaf": 7251,
      "Ġparser": 7252,
      "Ġdefic": 7253,
      "Ġinflammation": 7254,
      "Ġcamera": 7255,
      "itter": 7256,
      "Ġengaging": 7257,
      "ĠDesign": 7258,
      "Ġmaintenance": 7259,
      "Example": 7260,
      "Ġvs": 7261,
      "Ġsweet": 7262,
      "Ġreverse": 7263,
      "ĠJose": 7264,
      "Ġloop": 7265,
      "pers": 7266,
      "Ġslowly": 7267,
      "Factory": 7268,
      "Find": 7269,
      "Ġcomments": 7270,
      "ĠFlorida": 7271,
      "stop": 7272,
      "Ġneuro": 7273,
      "Ġsoldiers": 7274,
      "otes": 7275,
      "sym": 7276,
      "Ġafford": 7277,
      "Ġinstructions": 7278,
      "Ġble": 7279,
      "lambda": 7280,
      "Ġmuseum": 7281,
      "space": 7282,
      "Ġagencies": 7283,
      "83": 7284,
      "oves": 7285,
      "NS": 7286,
      "Ġasking": 7287,
      "81": 7288,
      "AV": 7289,
      "ĠRussian": 7290,
      "Ġphotos": 7291,
      "+\\": 7292,
      "Ġbot": 7293,
      "Ġunderstood": 7294,
      "ĠNor": 7295,
      "MD": 7296,
      "blank": 7297,
      "tree": 7298,
      "Ġvertical": 7299,
      "quare": 7300,
      "ensor": 7301,
      "Ġbones": 7302,
      "Ġmedication": 7303,
      "Ġtub": 7304,
      "Ġdrawn": 7305,
      "inition": 7306,
      "{{": 7307,
      "Note": 7308,
      "iders": 7309,
      "ĠOh": 7310,
      "esity": 7311,
      "Ġzone": 7312,
      "ato": 7313,
      "Ġdust": 7314,
      "NAME": 7315,
      "Ġbinary": 7316,
      "Ġcommunicate": 7317,
      "Ġbroken": 7318,
      "Ġworse": 7319,
      "Ġinstalled": 7320,
      "Ġaircraft": 7321,
      "ĠColor": 7322,
      "Ġdut": 7323,
      "ĠLabor": 7324,
      "igma": 7325,
      "ifest": 7326,
      "Ġsrc": 7327,
      "etal": 7328,
      "Ġforests": 7329,
      "opic": 7330,
      "Ġfewer": 7331,
      "ulin": 7332,
      "ĠMoreover": 7333,
      "ĠAbout": 7334,
      "Ġnoise": 7335,
      "Ġshop": 7336,
      "Ġconsumers": 7337,
      "Ġbranch": 7338,
      "91": 7339,
      "ĠStudies": 7340,
      "ivery": 7341,
      "ĠLong": 7342,
      "ĠFrank": 7343,
      "Ġvolunte": 7344,
      "erals": 7345,
      "Ġframework": 7346,
      "xx": 7347,
      "Ġthr": 7348,
      "Ġtoler": 7349,
      "Ġstatistics": 7350,
      "Ġchief": 7351,
      "Ġstruggle": 7352,
      "Ġhidden": 7353,
      "Ġmolecules": 7354,
      "Ġstrengthen": 7355,
      "Ġelectron": 7356,
      "mult": 7357,
      "AGE": 7358,
      "ĠVirginia": 7359,
      "aped": 7360,
      "Ġregulations": 7361,
      "ĠProfessor": 7362,
      "Ġoffering": 7363,
      "ĠStudy": 7364,
      "Ġthousand": 7365,
      "ona": 7366,
      "Ġkeys": 7367,
      "Ġshif": 7368,
      "Ġremark": 7369,
      "itudes": 7370,
      "Ġmoral": 7371,
      "ĠCompany": 7372,
      "Ġinjuries": 7373,
      "Ġsections": 7374,
      "Ġattached": 7375,
      "Ġcollaboration": 7376,
      "Ġ75": 7377,
      "ua": 7378,
      "zym": 7379,
      "Ġacknow": 7380,
      "ĠFurthermore": 7381,
      "lope": 7382,
      "tension": 7383,
      "Ġfertil": 7384,
      "Are": 7385,
      "ocab": 7386,
      "Ġmountain": 7387,
      "Ġmoves": 7388,
      "Ġoriginally": 7389,
      "82": 7390,
      "riers": 7391,
      "olf": 7392,
      "ategory": 7393,
      "Ġaqu": 7394,
      "Ġarrange": 7395,
      "uuid": 7396,
      "flags": 7397,
      "Ġlisten": 7398,
      "Ġsurvive": 7399,
      "ocratic": 7400,
      "ĠBet": 7401,
      "ĠNature": 7402,
      "Ġtrib": 7403,
      "Ġcareful": 7404,
      "Ġcircumstances": 7405,
      "ĠOffice": 7406,
      "pm": 7407,
      "Ġguess": 7408,
      "prefix": 7409,
      "estions": 7410,
      "Before": 7411,
      "spe": 7412,
      "ĠBre": 7413,
      "Color": 7414,
      "Ġfly": 7415,
      "stack": 7416,
      "Ġrig": 7417,
      "ĠUSA": 7418,
      "orph": 7419,
      "datetime": 7420,
      "Ġdelay": 7421,
      "ployment": 7422,
      "Ġmanip": 7423,
      "Ġ\"\\": 7424,
      "Ġath": 7425,
      "fix": 7426,
      "CONF": 7427,
      "ĠSov": 7428,
      "Ġmarine": 7429,
      "Ġsupplement": 7430,
      "Ġauto": 7431,
      "Ġsuffer": 7432,
      "Ġtut": 7433,
      "Ġupdated": 7434,
      "Ġinterval": 7435,
      "Ġnearby": 7436,
      "ĠBro": 7437,
      "hips": 7438,
      "omach": 7439,
      "ĠGlobal": 7440,
      "awn": 7441,
      "soft": 7442,
      "Ġbehaviors": 7443,
      "Ġruns": 7444,
      "Ġ<=": 7445,
      "Ġcmd": 7446,
      "Ġshut": 7447,
      "Ġconventional": 7448,
      "icular": 7449,
      "Ġlaun": 7450,
      "71": 7451,
      "roller": 7452,
      "alpha": 7453,
      "dest": 7454,
      "Ġroute": 7455,
      "Ġcapture": 7456,
      "riend": 7457,
      "icians": 7458,
      "make": 7459,
      "effect": 7460,
      "Ġdialog": 7461,
      "ĠMars": 7462,
      "Ġmaps": 7463,
      "ashion": 7464,
      "ME": 7465,
      "ĠMag": 7466,
      "ĠRE": 7467,
      "Ġdecline": 7468,
      "Ġcustomers": 7469,
      "ĠCult": 7470,
      "Ġtall": 7471,
      "aked": 7472,
      "âĢĻ.": 7473,
      "Ġdin": 7474,
      "Ġtraum": 7475,
      "itan": 7476,
      "Ġingredients": 7477,
      "comm": 7478,
      "ĠPsych": 7479,
      "Instance": 7480,
      "Back": 7481,
      "Ġhouses": 7482,
      "Ġobser": 7483,
      "Ġrelax": 7484,
      "Ġauthent": 7485,
      "making": 7486,
      "Ġpossibility": 7487,
      "Ġantibiot": 7488,
      "Ġdriver": 7489,
      "Ġstands": 7490,
      "olester": 7491,
      "Ġfaced": 7492,
      "cut": 7493,
      "Ġconfiguration": 7494,
      "Fl": 7495,
      "Ġnine": 7496,
      "Ġachieved": 7497,
      "SO": 7498,
      "Ġexplanation": 7499,
      "aining": 7500,
      "orous": 7501,
      "Ut": 7502,
      "Ġ150": 7503,
      "Ġreplaced": 7504,
      "ĠAI": 7505,
      "Ġsheet": 7506,
      "ĠĠĠ": 7507,
      "lets": 7508,
      "ĠCreat": 7509,
      "Ġtransportation": 7510,
      "Ġwish": 7511,
      "Ġcorrectly": 7512,
      "cls": 7513,
      "ĠUser": 7514,
      "Ġdivide": 7515,
      "Ġconversion": 7516,
      "ĠExample": 7517,
      "Ġstrict": 7518,
      "Handler": 7519,
      "ERT": 7520,
      "Ġbehaviour": 7521,
      "Ġdental": 7522,
      "ĠFederal": 7523,
      "grad": 7524,
      "ĠThose": 7525,
      "Pre": 7526,
      "osc": 7527,
      "Ġintake": 7528,
      "resource": 7529,
      "Ġpositions": 7530,
      "Ġhero": 7531,
      "hema": 7532,
      "Ġtoken": 7533,
      "clear": 7534,
      "ĠLouis": 7535,
      "queue": 7536,
      "Ġdecimal": 7537,
      "hash": 7538,
      "ĠChe": 7539,
      "Ġobservations": 7540,
      "Ġlaunch": 7541,
      "Your": 7542,
      "Ġderiv": 7543,
      "Ġresil": 7544,
      "ĠRemember": 7545,
      "Ġalgebra": 7546,
      "Ġadj": 7547,
      "aset": 7548,
      "UB": 7549,
      "Ġpartner": 7550,
      "fortunately": 7551,
      "Ġrevealed": 7552,
      "operation": 7553,
      "ĠTake": 7554,
      "ĠCatholic": 7555,
      "Ġinteraction": 7556,
      "Ġtransmission": 7557,
      "Ġindeed": 7558,
      "Ġdecade": 7559,
      "ĠCharles": 7560,
      "points": 7561,
      "Ġaudience": 7562,
      "Ġ-*-": 7563,
      "bert": 7564,
      "Ġagency": 7565,
      "Ġexercises": 7566,
      "Ġdepos": 7567,
      "ga": 7568,
      "Ġattend": 7569,
      "Ġopinion": 7570,
      "Ġcircul": 7571,
      "ediate": 7572,
      "war": 7573,
      "virtual": 7574,
      "ensional": 7575,
      "Ġwis": 7576,
      "Ġsusp": 7577,
      "Ġfossil": 7578,
      "olesterol": 7579,
      "Ġtur": 7580,
      "RL": 7581,
      "such": 7582,
      "\").": 7583,
      "Ġsod": 7584,
      "HER": 7585,
      "Ġarms": 7586,
      "'d": 7587,
      "eling": 7588,
      "ching": 7589,
      "Ġguarant": 7590,
      "Integer": 7591,
      "ocument": 7592,
      "EO": 7593,
      "iat": 7594,
      "ropical": 7595,
      "ĠStreet": 7596,
      "Ġchildhood": 7597,
      "Ġpapers": 7598,
      ".|": 7599,
      "Ġconcrete": 7600,
      "Ġnecessarily": 7601,
      "Ġscan": 7602,
      "Ġans": 7603,
      "ĠMethod": 7604,
      "web": 7605,
      "Fil": 7606,
      "Ġstanding": 7607,
      "Ġcrow": 7608,
      "Ġmodify": 7609,
      "Ġ~": 7610,
      "connection": 7611,
      "Ġbeneficial": 7612,
      "Ġperp": 7613,
      "Ġtraditions": 7614,
      "Ġcalculated": 7615,
      "ĠIll": 7616,
      "Ġpowers": 7617,
      "Em": 7618,
      "Ġamazing": 7619,
      "earchers": 7620,
      "Ġrh": 7621,
      "xml": 7622,
      "Spec": 7623,
      "Ġwitness": 7624,
      "Ġgam": 7625,
      "Ġring": 7626,
      "sets": 7627,
      "raining": 7628,
      "CA": 7629,
      "draw": 7630,
      "reme": 7631,
      "Next": 7632,
      "Ġloved": 7633,
      "Ġintellect": 7634,
      "Ġcomparison": 7635,
      "Ġfre": 7636,
      "Ġcorn": 7637,
      "cert": 7638,
      "Ġarchitecture": 7639,
      "Ġcrim": 7640,
      "Stream": 7641,
      "Ġconsumer": 7642,
      "ĠKen": 7643,
      "Ġhabits": 7644,
      "ĠIdent": 7645,
      "Ġprovider": 7646,
      "ican": 7647,
      "lower": 7648,
      "Ġhar": 7649,
      "ĠGold": 7650,
      "Ġcolleagues": 7651,
      "Äģ": 7652,
      "meta": 7653,
      "Ġimper": 7654,
      "Ġadopted": 7655,
      "Ġshad": 7656,
      "ĠEmp": 7657,
      "Ġ{\"": 7658,
      "Ġstack": 7659,
      "Ġextensive": 7660,
      "Ġimmediate": 7661,
      "HOUT": 7662,
      "TE": 7663,
      "%.": 7664,
      "ĠSometimes": 7665,
      "Ġhttps": 7666,
      "Ġ400": 7667,
      "Ġthanks": 7668,
      "Ġcomposition": 7669,
      "Ġagreement": 7670,
      "Ġdistrict": 7671,
      "inking": 7672,
      "ĠAL": 7673,
      "ĠJack": 7674,
      "Ġtexts": 7675,
      "ĠInit": 7676,
      "ette": 7677,
      "ctr": 7678,
      "Ġaer": 7679,
      "Ġunus": 7680,
      "isters": 7681,
      "ĠHenry": 7682,
      "Ġguidance": 7683,
      "burg": 7684,
      "Ġvillage": 7685,
      "sem": 7686,
      "ĠPo": 7687,
      "Equals": 7688,
      "ÑĤ": 7689,
      "Ġcoe": 7690,
      "eal": 7691,
      "Ġeveryday": 7692,
      "Ġcoffee": 7693,
      "summary": 7694,
      "ĠChapter": 7695,
      "Ġpurchase": 7696,
      "ervices": 7697,
      "kin": 7698,
      "RI": 7699,
      "Ġrender": 7700,
      "estamp": 7701,
      "Ġcopyright": 7702,
      "changed": 7703,
      "IONS": 7704,
      "Ġadministration": 7705,
      "ĠColumb": 7706,
      "button": 7707,
      "ĠRetrieved": 7708,
      "VAL": 7709,
      "Ġmamm": 7710,
      "Ġimprovement": 7711,
      "essions": 7712,
      "hemical": 7713,
      "ĠPers": 7714,
      "ĠEX": 7715,
      "Ġintervention": 7716,
      "ĠDig": 7717,
      "Ġorganized": 7718,
      "ithms": 7719,
      "Ġowner": 7720,
      "person": 7721,
      "Ġcategories": 7722,
      "ora": 7723,
      "Ġradius": 7724,
      "cdot": 7725,
      "Ġment": 7726,
      "ceptions": 7727,
      "adding": 7728,
      "Ġfont": 7729,
      "herent": 7730,
      "Mult": 7731,
      "Ġknowing": 7732,
      ",\\": 7733,
      "ĠAnn": 7734,
      "Ġ$(": 7735,
      "ĠWrit": 7736,
      "Ġcolour": 7737,
      "Ġreserv": 7738,
      "Ġdemonstrate": 7739,
      "direct": 7740,
      "alian": 7741,
      "usiness": 7742,
      "ulating": 7743,
      "Ġ\"%": 7744,
      "Ġaccum": 7745,
      "ĠLand": 7746,
      "ICE": 7747,
      "Ġrank": 7748,
      "Ġmarriage": 7749,
      "Ġbiggest": 7750,
      "Ġtaste": 7751,
      "Ġrespectively": 7752,
      "Ġsupplies": 7753,
      "Ġtank": 7754,
      "Ġmeasurements": 7755,
      "Ġevaluation": 7756,
      "Ġarr": 7757,
      "register": 7758,
      "Ġparticipate": 7759,
      "Ġbear": 7760,
      "ĠPoint": 7761,
      "Ġforget": 7762,
      "angles": 7763,
      "ideos": 7764,
      "Ġyounger": 7765,
      "irc": 7766,
      "Ġexpansion": 7767,
      "Ġphotograph": 7768,
      "ĠTor": 7769,
      "Ġarrived": 7770,
      "Rel": 7771,
      "vals": 7772,
      "Ġgone": 7773,
      "Ġresolution": 7774,
      "Ġbread": 7775,
      "ĠMill": 7776,
      "throp": 7777,
      "Ġcooking": 7778,
      "Ġpromoting": 7779,
      "Ġrational": 7780,
      "help": 7781,
      "icensed": 7782,
      "=(": 7783,
      "Ġserves": 7784,
      "ĠâĨ": 7785,
      "Ġbutter": 7786,
      "Ġconfir": 7787,
      "Ġinsects": 7788,
      "ĠYet": 7789,
      "Ġbio": 7790,
      "ĠConsider": 7791,
      "Ġdigit": 7792,
      "after": 7793,
      "ĠBC": 7794,
      "icing": 7795,
      "Ġaccuracy": 7796,
      "ĠStart": 7797,
      "ĠCanadian": 7798,
      "GL": 7799,
      "domain": 7800,
      "Cal": 7801,
      "Ġkwargs": 7802,
      "Ġcomplicated": 7803,
      "hav": 7804,
      "ĠName": 7805,
      "ĠDisease": 7806,
      "Ġattributes": 7807,
      "Ġdiameter": 7808,
      "Ġalign": 7809,
      "rh": 7810,
      "annels": 7811,
      "ented": 7812,
      "Ġstatements": 7813,
      "ĠWITHOUT": 7814,
      "bles": 7815,
      "agon": 7816,
      "Ġtrip": 7817,
      "Ġinformed": 7818,
      "rus": 7819,
      "Ġinspir": 7820,
      "anda": 7821,
      "Question": 7822,
      "Ġsales": 7823,
      "')])": 7824,
      "Ġdifficulty": 7825,
      "ĠMathemat": 7826,
      "Ġartificial": 7827,
      "Ġmatters": 7828,
      "GB": 7829,
      "wing": 7830,
      "Ġjava": 7831,
      "ACT": 7832,
      "Ġdebate": 7833,
      "Ġil": 7834,
      "Ġpairs": 7835,
      "stein": 7836,
      "Action": 7837,
      "Ġtrace": 7838,
      "ighter": 7839,
      "Ġ});": 7840,
      "hop": 7841,
      "Ġcritic": 7842,
      "Ġpolitics": 7843,
      "End": 7844,
      "Ġinteractions": 7845,
      "Ġscene": 7846,
      "ĠReport": 7847,
      "Ġpermission": 7848,
      "height": 7849,
      "Ġul": 7850,
      "hedul": 7851,
      "\"],": 7852,
      "PT": 7853,
      "Ġbreathing": 7854,
      "Ġcontained": 7855,
      "ĠLanguage": 7856,
      "Ġconsidering": 7857,
      "sts": 7858,
      "tim": 7859,
      "Ġinsurance": 7860,
      "Ġmask": 7861,
      "Ġstomach": 7862,
      "aria": 7863,
      "rat": 7864,
      "Ġlegs": 7865,
      "ĠAdminist": 7866,
      "Ġbridge": 7867,
      "ĠFrancis": 7868,
      "Ġlifestyle": 7869,
      "Input": 7870,
      "Ġinnovative": 7871,
      "ZE": 7872,
      "ena": 7873,
      "TD": 7874,
      "Ġfiber": 7875,
      "Ġproportion": 7876,
      "hell": 7877,
      "Ġod": 7878,
      "Fore": 7879,
      "Ġske": 7880,
      "NE": 7881,
      "ĠNative": 7882,
      "FO": 7883,
      "ĠQuestion": 7884,
      "anches": 7885,
      "idx": 7886,
      "Ġ-->": 7887,
      "ĠPlease": 7888,
      "Ġvulnerable": 7889,
      "ĠWho": 7890,
      "icide": 7891,
      "ĠVer": 7892,
      "Bar": 7893,
      "Ġ'\\": 7894,
      "ĠTer": 7895,
      "sn": 7896,
      "Ġroof": 7897,
      "ĠHaw": 7898,
      "apsh": 7899,
      "ola": 7900,
      "Ġstuff": 7901,
      "Ġquantity": 7902,
      "Ġgrew": 7903,
      "Ġmechanism": 7904,
      "Ġbuffer": 7905,
      "Ġmur": 7906,
      "Ġintegral": 7907,
      "Ġnewsp": 7908,
      "Raises": 7909,
      "dig": 7910,
      "Ġtherap": 7911,
      "Mat": 7912,
      "Ġvote": 7913,
      "Ġspin": 7914,
      "isk": 7915,
      "ILITY": 7916,
      "Box": 7917,
      "ptr": 7918,
      "Ġfacing": 7919,
      "ĠCL": 7920,
      "di": 7921,
      "Ġwhatever": 7922,
      "Ġabund": 7923,
      "Ġvessels": 7924,
      "Ġpromin": 7925,
      "Method": 7926,
      "Ġextension": 7927,
      "istical": 7928,
      "ĠNations": 7929,
      "ĠNatural": 7930,
      "uted": 7931,
      "Ġjump": 7932,
      "antly": 7933,
      "ĠCommit": 7934,
      "Ġsummary": 7935,
      "initely": 7936,
      "!!": 7937,
      "âĢĺ": 7938,
      "']['": 7939,
      "Ġdesigns": 7940,
      "ĠConstitution": 7941,
      "IA": 7942,
      "ĠLO": 7943,
      "SL": 7944,
      "Ġdescript": 7945,
      "ao": 7946,
      "Ġsight": 7947,
      "Ġreactions": 7948,
      "Ġsymbols": 7949,
      "Ġfav": 7950,
      "Ġgreenhouse": 7951,
      "Ġ1980": 7952,
      "creen": 7953,
      "Default": 7954,
      "otype": 7955,
      "hered": 7956,
      "ĠComput": 7957,
      "DP": 7958,
      "Ġorient": 7959,
      "inv": 7960,
      "Ġrecognition": 7961,
      "Ġuniversity": 7962,
      "Am": 7963,
      "ups": 7964,
      "rapper": 7965,
      "Ġgreatly": 7966,
      "control": 7967,
      "ĠLook": 7968,
      "Ġmechanisms": 7969,
      "bridge": 7970,
      "Ġscope": 7971,
      "bas": 7972,
      "ĠAustralian": 7973,
      "Ġiter": 7974,
      "abel": 7975,
      "Ġinnovation": 7976,
      "diff": 7977,
      "Ġaccident": 7978,
      "ĠEst": 7979,
      "Ġauthorities": 7980,
      "Ġputting": 7981,
      "Ġpresentation": 7982,
      "ĠOper": 7983,
      "ulary": 7984,
      "Ġstable": 7985,
      "ĠShow": 7986,
      "Ġelectro": 7987,
      "ĠDoes": 7988,
      "Ġimplemented": 7989,
      "Bo": 7990,
      "Ġcache": 7991,
      "opes": 7992,
      "Ġcolumns": 7993,
      "Ġhousing": 7994,
      "Ġreb": 7995,
      "Lear": 7996,
      "ĠBank": 7997,
      "Ġsucceed": 7998,
      "Ġpermanent": 7999,
      "Ġfighting": 8000,
      "Ġdynamic": 8001,
      "Ġswim": 8002,
      "Ġcompetition": 8003,
      "Ġdecor": 8004,
      "ĠOcean": 8005,
      "ĠDO": 8006,
      "Result": 8007,
      "Ġmodified": 8008,
      "esting": 8009,
      "Ġunable": 8010,
      "ĠChange": 8011,
      "Ġjoined": 8012,
      "Ġhur": 8013,
      "Status": 8014,
      "Us": 8015,
      "Ġlaboratory": 8016,
      "Ġspending": 8017,
      "Ġwww": 8018,
      "Ġrely": 8019,
      "ĠSaf": 8020,
      "Ġuniform": 8021,
      "Ġteen": 8022,
      "ĠSoviet": 8023,
      "strip": 8024,
      "ultane": 8025,
      "buffer": 8026,
      "ĠTim": 8027,
      "random": 8028,
      "Ġdioxide": 8029,
      "ogram": 8030,
      "Ġstronger": 8031,
      "Ġtea": 8032,
      "Ġroutine": 8033,
      "Ġtrials": 8034,
      "Select": 8035,
      "Ġhole": 8036,
      "Ġpassing": 8037,
      "ĠRob": 8038,
      "ĠAv": 8039,
      "acent": 8040,
      "itivity": 8041,
      "Ġethnic": 8042,
      "osph": 8043,
      "Ġconven": 8044,
      "irds": 8045,
      "Ġmarkets": 8046,
      "Ġinstruments": 8047,
      "world": 8048,
      "pub": 8049,
      "apse": 8050,
      "ĠWhere": 8051,
      "Ġgap": 8052,
      "ailability": 8053,
      "Ġdepict": 8054,
      ":`": 8055,
      "Ġapplicable": 8056,
      "Ġmanager": 8057,
      "UE": 8058,
      "ittle": 8059,
      "Ġstroke": 8060,
      "Ġfung": 8061,
      "Ġminute": 8062,
      "ĠChild": 8063,
      "mic": 8064,
      "dx": 8065,
      "Ġbeauty": 8066,
      "Ġcompliance": 8067,
      "ĠJul": 8068,
      "ĠSupp": 8069,
      "ĠJohns": 8070,
      "pare": 8071,
      "ella": 8072,
      "Ġwhereas": 8073,
      "edge": 8074,
      "elihood": 8075,
      "Ġveter": 8076,
      "ĠBig": 8077,
      "Ġbrings": 8078,
      "assertRaises": 8079,
      "Ġmild": 8080,
      "Ġhydrogen": 8081,
      "ĠSouthern": 8082,
      "Ġdive": 8083,
      "Ġoutcome": 8084,
      "exist": 8085,
      "ĠCurrent": 8086,
      "ĠNov": 8087,
      "ĠVict": 8088,
      "Expl": 8089,
      "Ġcorner": 8090,
      "Have": 8091,
      "DL": 8092,
      "Ġ1970": 8093,
      "exists": 8094,
      "txt": 8095,
      "Ġturning": 8096,
      "Ġinstitution": 8097,
      "Ġ33": 8098,
      "cies": 8099,
      "Ġconversation": 8100,
      "Ġestimates": 8101,
      "icago": 8102,
      "Frame": 8103,
      "Ġdelete": 8104,
      "metadata": 8105,
      "asters": 8106,
      "Ġholding": 8107,
      "à¥": 8108,
      "Ġshot": 8109,
      "Ġreduces": 8110,
      "tmp": 8111,
      "ione": 8112,
      "]]": 8113,
      "Ġexploration": 8114,
      "ĠAB": 8115,
      "dates": 8116,
      "pool": 8117,
      "inant": 8118,
      "Ġwarning": 8119,
      "zed": 8120,
      "Ġcompr": 8121,
      "Ġappreciate": 8122,
      "ĠNon": 8123,
      "Ø§": 8124,
      "Co": 8125,
      "Content": 8126,
      "Ġbigger": 8127,
      "Go": 8128,
      "Ġoperate": 8129,
      "Ġoutdo": 8130,
      "ocabulary": 8131,
      "---": 8132,
      ":**": 8133,
      "Figure": 8134,
      "ĠBoard": 8135,
      "Ġ''": 8136,
      "Ġmand": 8137,
      "hma": 8138,
      "Ġtargets": 8139,
      "Ġtrouble": 8140,
      "Ans": 8141,
      "Ã³": 8142,
      "ita": 8143,
      "Ġdatetime": 8144,
      "ften": 8145,
      "ĠSO": 8146,
      "Ġpand": 8147,
      "Ġdebt": 8148,
      "inction": 8149,
      "Ġmeal": 8150,
      "ĠPeter": 8151,
      "Ġodd": 8152,
      "Ġlogic": 8153,
      "ĠTV": 8154,
      "Ġrising": 8155,
      "ĠTry": 8156,
      "CI": 8157,
      "Device": 8158,
      "illa": 8159,
      "FOR": 8160,
      "namespace": 8161,
      "itative": 8162,
      "Ġsmoking": 8163,
      "ĠCap": 8164,
      "Ġ1999": 8165,
      "Ġcalcium": 8166,
      "Ġfunds": 8167,
      "Ġimplications": 8168,
      "Ġpainting": 8169,
      "Ġmarks": 8170,
      "cr": 8171,
      "Ġheader": 8172,
      "Ġorganisms": 8173,
      "Ġcoding": 8174,
      "ĠGuide": 8175,
      "Ġrespir": 8176,
      "Ġtheme": 8177,
      "Ġadds": 8178,
      "Ġcholesterol": 8179,
      "Ġsegment": 8180,
      "Ġtrends": 8181,
      "tery": 8182,
      "ĠLib": 8183,
      "Then": 8184,
      "ĠAdv": 8185,
      "pread": 8186,
      "Ġhydro": 8187,
      "venue": 8188,
      "Ġouter": 8189,
      "ĠAccess": 8190,
      "Py": 8191
    },
    "merges": [
      [
        "Ġ",
        "t"
      ],
      [
        "Ġ",
        "a"
      ],
      [
        "i",
        "n"
      ],
      [
        "h",
        "e"
      ],
      [
        "r",
        "e"
      ],
      [
        "o",
        "n"
      ],
      [
        "e",
        "r"
      ],
      [
        "Ġt",
        "he"
      ],
      [
        "a",
        "t"
      ],
      [
        "Ġ",
        "s"
      ],
      [
        "Ġ",
        "o"
      ],
      [
        "e",
        "n"
      ],
      [
        "Ġ",
        "c"
      ],
      [
        "e",
        "s"
      ],
      [
        "o",
        "r"
      ],
      [
        "i",
        "s"
      ],
      [
        "i",
        "t"
      ],
      [
        "Ġ",
        "w"
      ],
      [
        "a",
        "n"
      ],
      [
        "a",
        "l"
      ],
      [
        "Ġ",
        "p"
      ],
      [
        "Ġ",
        "f"
      ],
      [
        "in",
        "g"
      ],
      [
        "Ġa",
        "n"
      ],
      [
        "e",
        "d"
      ],
      [
        "Ġ",
        "b"
      ],
      [
        "a",
        "r"
      ],
      [
        "o",
        "u"
      ],
      [
        "Ġo",
        "f"
      ],
      [
        "Ġ",
        "in"
      ],
      [
        "i",
        "on"
      ],
      [
        "Ġ",
        "m"
      ],
      [
        "Ġ",
        "d"
      ],
      [
        "i",
        "c"
      ],
      [
        "Ġt",
        "o"
      ],
      [
        "l",
        "e"
      ],
      [
        "Ġan",
        "d"
      ],
      [
        "r",
        "o"
      ],
      [
        "a",
        "s"
      ],
      [
        "e",
        "l"
      ],
      [
        "en",
        "t"
      ],
      [
        "c",
        "t"
      ],
      [
        "Ġt",
        "h"
      ],
      [
        "Ġ",
        "h"
      ],
      [
        "Ġ",
        "re"
      ],
      [
        "s",
        "t"
      ],
      [
        "e",
        "t"
      ],
      [
        "i",
        "l"
      ],
      [
        "Ġ",
        "n"
      ],
      [
        "Ġ",
        "e"
      ],
      [
        "o",
        "m"
      ],
      [
        "Ġ",
        "l"
      ],
      [
        "Ġ",
        "is"
      ],
      [
        "i",
        "m"
      ],
      [
        "o",
        "l"
      ],
      [
        "i",
        "d"
      ],
      [
        "v",
        "e"
      ],
      [
        "s",
        "e"
      ],
      [
        "u",
        "t"
      ],
      [
        "Ġ",
        "g"
      ],
      [
        "u",
        "r"
      ],
      [
        "Ġ",
        "T"
      ],
      [
        "a",
        "m"
      ],
      [
        "at",
        "ion"
      ],
      [
        "c",
        "e"
      ],
      [
        "o",
        "t"
      ],
      [
        "â",
        "Ģ"
      ],
      [
        "i",
        "g"
      ],
      [
        "o",
        "w"
      ],
      [
        "l",
        "y"
      ],
      [
        "c",
        "h"
      ],
      [
        "Ġb",
        "e"
      ],
      [
        "Ġ",
        "u"
      ],
      [
        "Ġf",
        "or"
      ],
      [
        "r",
        "a"
      ],
      [
        "Ġ",
        "A"
      ],
      [
        "Ġs",
        "t"
      ],
      [
        "Ġ",
        "S"
      ],
      [
        "v",
        "er"
      ],
      [
        "u",
        "l"
      ],
      [
        "Ġ",
        "y"
      ],
      [
        "i",
        "f"
      ],
      [
        "Ġ",
        "on"
      ],
      [
        "Ġth",
        "at"
      ],
      [
        "i",
        "r"
      ],
      [
        "Ġ",
        "I"
      ],
      [
        "Ġ",
        "C"
      ],
      [
        "o",
        "d"
      ],
      [
        "a",
        "d"
      ],
      [
        "a",
        "y"
      ],
      [
        "Ġ",
        "("
      ],
      [
        "Ġ",
        "="
      ],
      [
        "it",
        "h"
      ],
      [
        "Ġc",
        "on"
      ],
      [
        "Ġa",
        "s"
      ],
      [
        "Ġp",
        "ro"
      ],
      [
        "Ġ",
        "1"
      ],
      [
        "t",
        "er"
      ],
      [
        "Ġy",
        "ou"
      ],
      [
        "he",
        "r"
      ],
      [
        "g",
        "e"
      ],
      [
        "u",
        "m"
      ],
      [
        "at",
        "e"
      ],
      [
        "Ġw",
        "ith"
      ],
      [
        "Ġa",
        "re"
      ],
      [
        "Ġo",
        "r"
      ],
      [
        "Ġd",
        "e"
      ],
      [
        "Ġ",
        "it"
      ],
      [
        "es",
        "t"
      ],
      [
        "n",
        "d"
      ],
      [
        "q",
        "u"
      ],
      [
        "is",
        "t"
      ],
      [
        "a",
        "b"
      ],
      [
        "p",
        "e"
      ],
      [
        "Ġa",
        "l"
      ],
      [
        "Ġw",
        "h"
      ],
      [
        "es",
        "s"
      ],
      [
        "Ġe",
        "x"
      ],
      [
        "er",
        "s"
      ],
      [
        "t",
        "h"
      ],
      [
        "Ġ",
        "M"
      ],
      [
        "Ġ",
        "v"
      ],
      [
        "r",
        "i"
      ],
      [
        "Ġ",
        "P"
      ],
      [
        "re",
        "s"
      ],
      [
        "o",
        "p"
      ],
      [
        "a",
        "c"
      ],
      [
        "e",
        "m"
      ],
      [
        "u",
        "s"
      ],
      [
        "ĠT",
        "he"
      ],
      [
        "m",
        "ent"
      ],
      [
        "an",
        "d"
      ],
      [
        "il",
        "l"
      ],
      [
        "o",
        "re"
      ],
      [
        "Ġc",
        "om"
      ],
      [
        "n",
        "t"
      ],
      [
        "or",
        "t"
      ],
      [
        "ro",
        "m"
      ],
      [
        "Ġ",
        "he"
      ],
      [
        "k",
        "e"
      ],
      [
        "e",
        "ct"
      ],
      [
        "Ġw",
        "e"
      ],
      [
        "o",
        "c"
      ],
      [
        "it",
        "y"
      ],
      [
        "Ġ",
        "B"
      ],
      [
        "o",
        "s"
      ],
      [
        "el",
        "f"
      ],
      [
        "i",
        "v"
      ],
      [
        "u",
        "n"
      ],
      [
        "i",
        "es"
      ],
      [
        "ig",
        "h"
      ],
      [
        "p",
        "p"
      ],
      [
        "Ġ",
        "2"
      ],
      [
        "Ġs",
        "u"
      ],
      [
        "a",
        "in"
      ],
      [
        "l",
        "d"
      ],
      [
        "Ġ",
        "W"
      ],
      [
        "an",
        "t"
      ],
      [
        "Ġ",
        "r"
      ],
      [
        "Ġb",
        "y"
      ],
      [
        "Ġ",
        "H"
      ],
      [
        "i",
        "ve"
      ],
      [
        "Ġ",
        "F"
      ],
      [
        "âĢ",
        "Ļ"
      ],
      [
        "Ġa",
        "t"
      ],
      [
        "Ġ",
        "D"
      ],
      [
        "Ġc",
        "an"
      ],
      [
        "Ġn",
        "e"
      ],
      [
        "Ġ",
        "E"
      ],
      [
        "Ġc",
        "h"
      ],
      [
        "p",
        "t"
      ],
      [
        "Ġ",
        "\""
      ],
      [
        "u",
        "d"
      ],
      [
        "Ġh",
        "a"
      ],
      [
        "0",
        "0"
      ],
      [
        "Ġ",
        "R"
      ],
      [
        "Ġ",
        "N"
      ],
      [
        "Ġf",
        "rom"
      ],
      [
        "ar",
        "t"
      ],
      [
        "Ġs",
        "e"
      ],
      [
        "p",
        "l"
      ],
      [
        "u",
        "re"
      ],
      [
        "Ġn",
        "ot"
      ],
      [
        "i",
        "al"
      ],
      [
        "Ġ",
        "'"
      ],
      [
        "o",
        "g"
      ],
      [
        "en",
        "d"
      ],
      [
        "al",
        "l"
      ],
      [
        "Ġ",
        "L"
      ],
      [
        "Ġ",
        "le"
      ],
      [
        "igh",
        "t"
      ],
      [
        "ion",
        "s"
      ],
      [
        "Ċ",
        "Ċ"
      ],
      [
        "Ġth",
        "is"
      ],
      [
        "am",
        "e"
      ],
      [
        "as",
        "s"
      ],
      [
        "a",
        "g"
      ],
      [
        "u",
        "e"
      ],
      [
        "Ġw",
        "as"
      ],
      [
        "ic",
        "al"
      ],
      [
        "Ġs",
        "h"
      ],
      [
        "r",
        "ou"
      ],
      [
        "in",
        "e"
      ],
      [
        "Ġ",
        "G"
      ],
      [
        "Ġ",
        "im"
      ],
      [
        "a",
        "ge"
      ],
      [
        "Ġha",
        "ve"
      ],
      [
        "ou",
        "t"
      ],
      [
        "ou",
        "r"
      ],
      [
        "p",
        "er"
      ],
      [
        "Ġ",
        "âĢ"
      ],
      [
        "re",
        "d"
      ],
      [
        "ul",
        "t"
      ],
      [
        "i",
        "z"
      ],
      [
        "c",
        "l"
      ],
      [
        "Ġu",
        "s"
      ],
      [
        "o",
        "st"
      ],
      [
        "Ġa",
        "b"
      ],
      [
        "a",
        "ct"
      ],
      [
        "Ġin",
        "t"
      ],
      [
        "Ġw",
        "or"
      ],
      [
        "ou",
        "ld"
      ],
      [
        "Ġs",
        "elf"
      ],
      [
        "u",
        "st"
      ],
      [
        "f",
        "f"
      ],
      [
        "om",
        "e"
      ],
      [
        "T",
        "he"
      ],
      [
        "Ġ",
        "en"
      ],
      [
        "g",
        "h"
      ],
      [
        "Ġ",
        "O"
      ],
      [
        "ar",
        "d"
      ],
      [
        "at",
        "ed"
      ],
      [
        "Ġp",
        "l"
      ],
      [
        "el",
        "l"
      ],
      [
        "ic",
        "h"
      ],
      [
        "p",
        "ort"
      ],
      [
        "Ġ",
        "if"
      ],
      [
        "t",
        "her"
      ],
      [
        "e",
        "x"
      ],
      [
        "id",
        "e"
      ],
      [
        "an",
        "s"
      ],
      [
        "Ġ",
        "k"
      ],
      [
        "or",
        "m"
      ],
      [
        "Ġre",
        "s"
      ],
      [
        "ab",
        "le"
      ],
      [
        "a",
        "p"
      ],
      [
        "as",
        "t"
      ],
      [
        "Ġyou",
        "r"
      ],
      [
        "in",
        "d"
      ],
      [
        "Ġw",
        "he"
      ],
      [
        "i",
        "p"
      ],
      [
        "Ġc",
        "l"
      ],
      [
        "a",
        "k"
      ],
      [
        "Ġcon",
        "t"
      ],
      [
        "i",
        "b"
      ],
      [
        "Ġthe",
        "ir"
      ],
      [
        "d",
        "u"
      ],
      [
        "Ġa",
        "d"
      ],
      [
        "Ġ",
        "U"
      ],
      [
        "ct",
        "ion"
      ],
      [
        "a",
        "re"
      ],
      [
        "ation",
        "s"
      ],
      [
        "on",
        "e"
      ],
      [
        "c",
        "c"
      ],
      [
        "Ġw",
        "ill"
      ],
      [
        "Ġal",
        "l"
      ],
      [
        "Ġcom",
        "p"
      ],
      [
        "ou",
        "s"
      ],
      [
        "e",
        "w"
      ],
      [
        "c",
        "on"
      ],
      [
        "Ġthe",
        "y"
      ],
      [
        "r",
        "y"
      ],
      [
        "ur",
        "n"
      ],
      [
        "ac",
        "k"
      ],
      [
        "r",
        "u"
      ],
      [
        "i",
        "le"
      ],
      [
        "e",
        "re"
      ],
      [
        "in",
        "t"
      ],
      [
        "on",
        "g"
      ],
      [
        "an",
        "ce"
      ],
      [
        "Ġd",
        "is"
      ],
      [
        ")",
        ":"
      ],
      [
        "Ġwh",
        "ich"
      ],
      [
        "ar",
        "y"
      ],
      [
        "'",
        "s"
      ],
      [
        "Ġd",
        "o"
      ],
      [
        "ent",
        "s"
      ],
      [
        "im",
        "e"
      ],
      [
        "as",
        "e"
      ],
      [
        "'",
        ","
      ],
      [
        "ĠI",
        "n"
      ],
      [
        "v",
        "el"
      ],
      [
        "ĠT",
        "h"
      ],
      [
        "Ġ",
        "-"
      ],
      [
        "e",
        "ar"
      ],
      [
        "Ġ",
        "J"
      ],
      [
        "Ġm",
        "ore"
      ],
      [
        "Ġh",
        "as"
      ],
      [
        "o",
        "od"
      ],
      [
        "il",
        "d"
      ],
      [
        "ig",
        "n"
      ],
      [
        ")",
        ","
      ],
      [
        "u",
        "b"
      ],
      [
        "e",
        "p"
      ],
      [
        "o",
        "k"
      ],
      [
        "b",
        "er"
      ],
      [
        "res",
        "s"
      ],
      [
        "ic",
        "e"
      ],
      [
        "u",
        "al"
      ],
      [
        "a",
        "ch"
      ],
      [
        "an",
        "g"
      ],
      [
        "Ġ",
        "0"
      ],
      [
        "Ġ",
        "j"
      ],
      [
        "at",
        "er"
      ],
      [
        "s",
        "o"
      ],
      [
        "en",
        "ce"
      ],
      [
        "Ġm",
        "e"
      ],
      [
        "s",
        "elf"
      ],
      [
        "a",
        "ce"
      ],
      [
        "i",
        "a"
      ],
      [
        "Ġp",
        "er"
      ],
      [
        "Ġa",
        "r"
      ],
      [
        "Ġo",
        "ther"
      ],
      [
        "a",
        "ke"
      ],
      [
        "(",
        ")"
      ],
      [
        "Ġu",
        "n"
      ],
      [
        "a",
        "v"
      ],
      [
        "or",
        "d"
      ],
      [
        "âĢ",
        "Ŀ"
      ],
      [
        "e",
        "f"
      ],
      [
        "Ġm",
        "an"
      ],
      [
        "Ġ",
        "{"
      ],
      [
        "Ġb",
        "ut"
      ],
      [
        "Ġon",
        "e"
      ],
      [
        "Ġo",
        "ut"
      ],
      [
        "at",
        "h"
      ],
      [
        "ou",
        "nt"
      ],
      [
        "Ġ",
        "3"
      ],
      [
        "it",
        "ion"
      ],
      [
        "g",
        "et"
      ],
      [
        "o",
        "se"
      ],
      [
        "Ġ",
        "*"
      ],
      [
        "er",
        "t"
      ],
      [
        "f",
        "orm"
      ],
      [
        "en",
        "s"
      ],
      [
        "Ġs",
        "o"
      ],
      [
        "Ġde",
        "f"
      ],
      [
        "j",
        "ect"
      ],
      [
        "it",
        "e"
      ],
      [
        "or",
        "y"
      ],
      [
        "or",
        "s"
      ],
      [
        "i",
        "re"
      ],
      [
        ".",
        "."
      ],
      [
        "k",
        "s"
      ],
      [
        "c",
        "es"
      ],
      [
        "Ġab",
        "out"
      ],
      [
        ")",
        "."
      ],
      [
        "Ġe",
        "v"
      ],
      [
        "a",
        "il"
      ],
      [
        "el",
        "y"
      ],
      [
        "Ġre",
        "t"
      ],
      [
        "ĠS",
        "t"
      ],
      [
        "p",
        "le"
      ],
      [
        "Ġal",
        "so"
      ],
      [
        "a",
        "u"
      ],
      [
        "ou",
        "nd"
      ],
      [
        "ver",
        "y"
      ],
      [
        "Ġs",
        "c"
      ],
      [
        "at",
        "a"
      ],
      [
        "Ġ",
        "qu"
      ],
      [
        "re",
        "at"
      ],
      [
        "Ġs",
        "y"
      ],
      [
        "Ġp",
        "art"
      ],
      [
        "Ġs",
        "p"
      ],
      [
        "Ġt",
        "e"
      ],
      [
        "Ġwe",
        "re"
      ],
      [
        "ĠâĢ",
        "ľ"
      ],
      [
        "n",
        "ow"
      ],
      [
        "o",
        "ok"
      ],
      [
        "o",
        "b"
      ],
      [
        "Ġu",
        "p"
      ],
      [
        "Ġst",
        "ud"
      ],
      [
        "Ġcom",
        "m"
      ],
      [
        "#",
        "#"
      ],
      [
        "Ġl",
        "i"
      ],
      [
        "re",
        "e"
      ],
      [
        "p",
        "h"
      ],
      [
        "pe",
        "c"
      ],
      [
        "r",
        "ic"
      ],
      [
        "ver",
        "s"
      ],
      [
        "l",
        "ic"
      ],
      [
        "if",
        "f"
      ],
      [
        "ing",
        "s"
      ],
      [
        "nd",
        "er"
      ],
      [
        "Ġthe",
        "m"
      ],
      [
        "Ġp",
        "e"
      ],
      [
        "Ġp",
        "re"
      ],
      [
        ")",
        ";"
      ],
      [
        "Ġa",
        "pp"
      ],
      [
        "ay",
        "s"
      ],
      [
        "Ġwh",
        "o"
      ],
      [
        "l",
        "ow"
      ],
      [
        "Ġ",
        "ro"
      ],
      [
        "Ġ",
        "$"
      ],
      [
        "Ġt",
        "r"
      ],
      [
        "_",
        "_"
      ],
      [
        "is",
        "h"
      ],
      [
        "et",
        "h"
      ],
      [
        "Ġ1",
        "9"
      ],
      [
        "Ġ",
        "["
      ],
      [
        "Ġret",
        "urn"
      ],
      [
        "Ġwhe",
        "n"
      ],
      [
        "Ġbe",
        "c"
      ],
      [
        "Ġth",
        "an"
      ],
      [
        "er",
        "v"
      ],
      [
        "Ġint",
        "o"
      ],
      [
        "Ġ",
        "K"
      ],
      [
        "Ġm",
        "ay"
      ],
      [
        "Ġt",
        "ime"
      ],
      [
        "at",
        "es"
      ],
      [
        "Ġ",
        "V"
      ],
      [
        "Ġs",
        "ome"
      ],
      [
        "Ġh",
        "ow"
      ],
      [
        "Ġne",
        "w"
      ],
      [
        "ex",
        "t"
      ],
      [
        "y",
        "pe"
      ],
      [
        "ĠI",
        "t"
      ],
      [
        "0",
        "1"
      ],
      [
        "Ġc",
        "ol"
      ],
      [
        "c",
        "re"
      ],
      [
        "ĠTh",
        "is"
      ],
      [
        "Ġ",
        "#"
      ],
      [
        "y",
        "s"
      ],
      [
        "ol",
        "og"
      ],
      [
        "Ġin",
        "d"
      ],
      [
        "Ġu",
        "se"
      ],
      [
        "Ġthe",
        "re"
      ],
      [
        "Ġthe",
        "se"
      ],
      [
        "le",
        "ct"
      ],
      [
        "o",
        "ve"
      ],
      [
        "ri",
        "b"
      ],
      [
        "Ġt",
        "ra"
      ],
      [
        "w",
        "e"
      ],
      [
        "cl",
        "ud"
      ],
      [
        "i",
        "ent"
      ],
      [
        "Ġit",
        "s"
      ],
      [
        "r",
        "it"
      ],
      [
        "c",
        "k"
      ],
      [
        "Ġd",
        "iff"
      ],
      [
        "rou",
        "gh"
      ],
      [
        "Ġg",
        "o"
      ],
      [
        "Ġwor",
        "k"
      ],
      [
        "op",
        "le"
      ],
      [
        "I",
        "n"
      ],
      [
        "ro",
        "w"
      ],
      [
        "Ġ",
        "+"
      ],
      [
        "Ġ",
        "ra"
      ],
      [
        "if",
        "ic"
      ],
      [
        "t",
        "e"
      ],
      [
        "Ġh",
        "is"
      ],
      [
        "Ġn",
        "um"
      ],
      [
        "ĠC",
        "h"
      ],
      [
        "Ġy",
        "ear"
      ],
      [
        "Ġ",
        "4"
      ],
      [
        "ter",
        "n"
      ],
      [
        "ir",
        "st"
      ],
      [
        "Ġo",
        "ver"
      ],
      [
        "Ġre",
        "c"
      ],
      [
        "Ġb",
        "et"
      ],
      [
        "Ġa",
        "g"
      ],
      [
        "Ġo",
        "ur"
      ],
      [
        "al",
        "ly"
      ],
      [
        "Ġu",
        "nder"
      ],
      [
        "i",
        "e"
      ],
      [
        "m",
        "s"
      ],
      [
        "it",
        "ies"
      ],
      [
        "l",
        "l"
      ],
      [
        "ou",
        "gh"
      ],
      [
        "c",
        "ess"
      ],
      [
        "m",
        "er"
      ],
      [
        "o",
        "ol"
      ],
      [
        "re",
        "n"
      ],
      [
        "Ġt",
        "w"
      ],
      [
        "el",
        "d"
      ],
      [
        "Ġas",
        "s"
      ],
      [
        "Ġim",
        "port"
      ],
      [
        "\"",
        "\""
      ],
      [
        "st",
        "em"
      ],
      [
        "Ġa",
        "cc"
      ],
      [
        "ar",
        "i"
      ],
      [
        "l",
        "es"
      ],
      [
        "Ġ",
        "Y"
      ],
      [
        "au",
        "se"
      ],
      [
        "l",
        "p"
      ],
      [
        "Ġk",
        "now"
      ],
      [
        "on",
        "s"
      ],
      [
        "od",
        "e"
      ],
      [
        "Ġd",
        "es"
      ],
      [
        "p",
        "ro"
      ],
      [
        "Ġa",
        "ct"
      ],
      [
        "Ġs",
        "a"
      ],
      [
        "Ġcon",
        "s"
      ],
      [
        "Ġbe",
        "en"
      ],
      [
        "Ġne",
        "ed"
      ],
      [
        "Ġg",
        "et"
      ],
      [
        "Ġb",
        "l"
      ],
      [
        "Ġpe",
        "ople"
      ],
      [
        "(",
        "'"
      ],
      [
        "at",
        "ing"
      ],
      [
        "f",
        "t"
      ],
      [
        "Ġv",
        "al"
      ],
      [
        "Ġan",
        "y"
      ],
      [
        "ar",
        "n"
      ],
      [
        "i",
        "eld"
      ],
      [
        "Ġ",
        "5"
      ],
      [
        "Ġo",
        "b"
      ],
      [
        "ce",
        "pt"
      ],
      [
        "oc",
        "k"
      ],
      [
        "Ġhe",
        "lp"
      ],
      [
        "an",
        "ge"
      ],
      [
        "Ġw",
        "ould"
      ],
      [
        "Ġre",
        "l"
      ],
      [
        "is",
        "e"
      ],
      [
        "en",
        "er"
      ],
      [
        "Ġwh",
        "at"
      ],
      [
        "o",
        "v"
      ],
      [
        "in",
        "k"
      ],
      [
        "ment",
        "s"
      ],
      [
        "\"",
        ","
      ],
      [
        "iz",
        "e"
      ],
      [
        "Ġsu",
        "ch"
      ],
      [
        "'",
        ":"
      ],
      [
        "he",
        "d"
      ],
      [
        "al",
        "th"
      ],
      [
        "-",
        "-"
      ],
      [
        "i",
        "an"
      ],
      [
        "al",
        "s"
      ],
      [
        "Ġad",
        "d"
      ],
      [
        "ic",
        "s"
      ],
      [
        "r",
        "am"
      ],
      [
        "Ġ",
        "}"
      ],
      [
        "Ġli",
        "ke"
      ],
      [
        "b",
        "le"
      ],
      [
        "Ġp",
        "r"
      ],
      [
        "rou",
        "nd"
      ],
      [
        "ul",
        "ar"
      ],
      [
        "Ġs",
        "pec"
      ],
      [
        "ar",
        "k"
      ],
      [
        "pe",
        "ct"
      ],
      [
        "Ġm",
        "ost"
      ],
      [
        "Ġin",
        "clud"
      ],
      [
        "ff",
        "ect"
      ],
      [
        "Ġtw",
        "o"
      ],
      [
        "Ġus",
        "ed"
      ],
      [
        "Ġ",
        "\\"
      ],
      [
        "ic",
        "t"
      ],
      [
        "Ġe",
        "m"
      ],
      [
        "n",
        "ame"
      ],
      [
        "o",
        "int"
      ],
      [
        "vel",
        "op"
      ],
      [
        "f",
        "ul"
      ],
      [
        "c",
        "om"
      ],
      [
        "r",
        "ing"
      ],
      [
        "Ġth",
        "rough"
      ],
      [
        "n",
        "e"
      ],
      [
        "Ġa",
        "m"
      ],
      [
        "Ġh",
        "ad"
      ],
      [
        "Ġf",
        "irst"
      ],
      [
        "Ġf",
        "e"
      ],
      [
        "Ġon",
        "ly"
      ],
      [
        "Ġm",
        "od"
      ],
      [
        "Ġn",
        "o"
      ],
      [
        "Ġpro",
        "v"
      ],
      [
        "c",
        "ed"
      ],
      [
        "Ġof",
        "f"
      ],
      [
        "Ġre",
        "g"
      ],
      [
        "ation",
[...]
